{"\u0000": 0, "\u0001": 1, "\u0002": 2, "\u0003": 3, "\u0004": 4, "\u0005": 5, "\u0006": 6, "\u0007": 7, "\b": 8, "\t": 9, "\n": 10, "\u000b": 11, "\f": 12, "\r": 13, "\u000e": 14, "\u000f": 15, "\u0010": 16, "\u0011": 17, "\u0012": 18, "\u0013": 19, "\u0014": 20, "\u0015": 21, "\u0016": 22, "\u0017": 23, "\u0018": 24, "\u0019": 25, "\u001a": 26, "\u001b": 27, "\u001c": 28, "\u001d": 29, "\u001e": 30, "\u001f": 31, " ": 32, "!": 33, "\"": 34, "#": 35, "$": 36, "%": 37, "&": 38, "'": 39, "(": 40, ")": 41, "*": 42, "+": 43, ",": 44, "-": 45, ".": 46, "/": 47, "0": 48, "1": 49, "2": 50, "3": 51, "4": 52, "5": 53, "6": 54, "7": 55, "8": 56, "9": 57, ":": 58, ";": 59, "<": 60, "=": 61, ">": 62, "?": 63, "@": 64, "A": 65, "B": 66, "C": 67, "D": 68, "E": 69, "F": 70, "G": 71, "H": 72, "I": 73, "J": 74, "K": 75, "L": 76, "M": 77, "N": 78, "O": 79, "P": 80, "Q": 81, "R": 82, "S": 83, "T": 84, "U": 85, "V": 86, "W": 87, "X": 88, "Y": 89, "Z": 90, "[": 91, "\\": 92, "]": 93, "^": 94, "_": 95, "`": 96, "a": 97, "b": 98, "c": 99, "d": 100, "e": 101, "f": 102, "g": 103, "h": 104, "i": 105, "j": 106, "k": 107, "l": 108, "m": 109, "n": 110, "o": 111, "p": 112, "q": 113, "r": 114, "s": 115, "t": 116, "u": 117, "v": 118, "w": 119, "x": 120, "y": 121, "z": 122, "{": 123, "|": 124, "}": 125, "~": 126, "\u007f": 127, "\\x80": 128, "\\x81": 129, "\\x82": 130, "\\x83": 131, "\\x84": 132, "\\x85": 133, "\\x86": 134, "\\x87": 135, "\\x88": 136, "\\x89": 137, "\\x8a": 138, "\\x8b": 139, "\\x8c": 140, "\\x8d": 141, "\\x8e": 142, "\\x8f": 143, "\\x90": 144, "\\x91": 145, "\\x92": 146, "\\x93": 147, "\\x94": 148, "\\x95": 149, "\\x96": 150, "\\x97": 151, "\\x98": 152, "\\x99": 153, "\\x9a": 154, "\\x9b": 155, "\\x9c": 156, "\\x9d": 157, "\\x9e": 158, "\\x9f": 159, "\\xa0": 160, "\\xa1": 161, "\\xa2": 162, "\\xa3": 163, "\\xa4": 164, "\\xa5": 165, "\\xa6": 166, "\\xa7": 167, "\\xa8": 168, "\\xa9": 169, "\\xaa": 170, "\\xab": 171, "\\xac": 172, "\\xad": 173, "\\xae": 174, "\\xaf": 175, "\\xb0": 176, "\\xb1": 177, "\\xb2": 178, "\\xb3": 179, "\\xb4": 180, "\\xb5": 181, "\\xb6": 182, "\\xb7": 183, "\\xb8": 184, "\\xb9": 185, "\\xba": 186, "\\xbb": 187, "\\xbc": 188, "\\xbd": 189, "\\xbe": 190, "\\xbf": 191, "\\xc0": 192, "\\xc1": 193, "\\xc2": 194, "\\xc3": 195, "\\xc4": 196, "\\xc5": 197, "\\xc6": 198, "\\xc7": 199, "\\xc8": 200, "\\xc9": 201, "\\xca": 202, "\\xcb": 203, "\\xcc": 204, "\\xcd": 205, "\\xce": 206, "\\xcf": 207, "\\xd0": 208, "\\xd1": 209, "\\xd2": 210, "\\xd3": 211, "\\xd4": 212, "\\xd5": 213, "\\xd6": 214, "\\xd7": 215, "\\xd8": 216, "\\xd9": 217, "\\xda": 218, "\\xdb": 219, "\\xdc": 220, "\\xdd": 221, "\\xde": 222, "\\xdf": 223, "\\xe0": 224, "\\xe1": 225, "\\xe2": 226, "\\xe3": 227, "\\xe4": 228, "\\xe5": 229, "\\xe6": 230, "\\xe7": 231, "\\xe8": 232, "\\xe9": 233, "\\xea": 234, "\\xeb": 235, "\\xec": 236, "\\xed": 237, "\\xee": 238, "\\xef": 239, "\\xf0": 240, "\\xf1": 241, "\\xf2": 242, "\\xf3": 243, "\\xf4": 244, "\\xf5": 245, "\\xf6": 246, "\\xf7": 247, "\\xf8": 248, "\\xf9": 249, "\\xfa": 250, "\\xfb": 251, "\\xfc": 252, "\\xfd": 253, "\\xfe": 254, "\\xff": 255, "<|endoftext|>": 256, " t": 257, " a": 258, "he": 259, "in": 260, "re": 261, " the": 262, "on": 263, "er": 264, " s": 265, " w": 266, "at": 267, " o": 268, "en": 269, " c": 270, "it": 271, "is": 272, "or": 273, " b": 274, "an": 275, " f": 276, " p": 277, "es": 278, "ou": 279, " an": 280, "ed": 281, " to": 282, "ar": 283, "al": 284, " m": 285, " in": 286, " of": 287, "ing": 288, " h": 289, " d": 290, "\\xe2\\x80": 291, "as": 292, " and": 293, " th": 294, "ic": 295, "le": 296, "om": 297, "ll": 298, " n": 299, " l": 300, " re": 301, "st": 302, " e": 303, "ti": 304, "ve": 305, "ro": 306, " be": 307, " g": 308, "id": 309, "ly": 310, "ac": 311, " T": 312, "ot": 313, " I": 314, " that": 315, " on": 316, "ut": 317, "se": 318, " S": 319, " is": 320, "ay": 321, "am": 322, "ad": 323, "ow": 324, " for": 325, "\u2019": 326, "et": 327, "ig": 328, " A": 329, "ent": 330, "ver": 331, "im": 332, "ur": 333, "ion": 334, "ld": 335, " C": 336, " u": 337, "ec": 338, " y": 339, " it": 340, " he": 341, " st": 342, "ir": 343, "ith": 344, " wh": 345, " M": 346, "ol": 347, " we": 348, "ce": 349, " with": 350, " as": 351, "ter": 352, "nd": 353, " B": 354, "il": 355, "te": 356, "ch": 357, " P": 358, " was": 359, " you": 360, "ke": 361, " \\xe2\\x80": 362, "ill": 363, " con": 364, "ts": 365, " r": 366, " at": 367, "her": 368, "ri": 369, "ag": 370, " ha": 371, " W": 372, " H": 373, "ate": 374, " pro": 375, "us": 376, " mo": 377, "ers": 378, "pp": 379, " are": 380, " D": 381, " 1": 382, "ul": 383, " com": 384, "nt": 385, "if": 386, " R": 387, "em": 388, "op": 389, " The": 390, "um": 391, " 2": 392, "rom": 393, "igh": 394, " (": 395, "ain": 396, "th": 397, " F": 398, "el": 399, "end": 400, " ex": 401, "and": 402, " ne": 403, "\u201d": 404, "res": 405, " N": 406, "oo": 407, " v": 408, " not": 409, " have": 410, "un": 411, "ould": 412, " or": 413, "ab": 414, " by": 415, " G": 416, " from": 417, "oc": 418, " al": 419, "os": 420, " se": 421, "'s": 422, "tion": 423, "ie": 424, " su": 425, " L": 426, " de": 427, " sh": 428, " this": 429, "all": 430, "ess": 431, "qu": 432, "ust": 433, " le": 434, " E": 435, " his": 436, " ch": 437, " sa": 438, " ab": 439, "The": 440, "art": 441, "est": 442, "00": 443, " \u201c": 444, "ra": 445, "ati": 446, " has": 447, "ome": 448, "ack": 449, " pl": 450, " J": 451, "out": 452, " ac": 453, "ng": 454, "gh": 455, "ort": 456, "si": 457, "ear": 458, "ist": 459, " O": 460, " j": 461, "ard": 462, "red": 463, "ud": 464, " wor": 465, "our": 466, "ight": 467, " sp": 468, "ak": 469, "ity": 470, " they": 471, "ap": 472, " but": 473, " li": 474, "rou": 475, " do": 476, "ation": 477, " can": 478, " will": 479, " said": 480, "uc": 481, " whe": 482, " U": 483, " k": 484, "ast": 485, "ich": 486, "ant": 487, "ame": 488, " all": 489, "ge": 490, " \"": 491, " who": 492, " tr": 493, " go": 494, "ther": 495, "ff": 496, " out": 497, " their": 498, "ice": 499, "me": 500, "ong": 501, "ide": 502, "pl": 503, "od": 504, " more": 505, " up": 506, "ven": 507, "one": 508, " ad": 509, "ep": 510, "to": 511, "ies": 512, " un": 513, " me": 514, "ue": 515, "ore": 516, " about": 517, "ia": 518, "ure": 519, " were": 520, " one": 521, " en": 522, " so": 523, " us": 524, " K": 525, "ub": 526, "ans": 527, " had": 528, "ine": 529, "age": 530, " would": 531, " 20": 532, " which": 533, "ake": 534, " im": 535, " cl": 536, "ally": 537, "ime": 538, "ind": 539, "au": 540, " ag": 541, "so": 542, " comp": 543, "ber": 544, "ect": 545, " off": 546, "very": 547, "ost": 548, "are": 549, " been": 550, "per": 551, "ry": 552, " cont": 553, "ial": 554, "ign": 555, " Th": 556, "act": 557, "ks": 558, "iv": 559, " year": 560, "ew": 561, " like": 562, " some": 563, " man": 564, " inc": 565, " pe": 566, " In": 567, "ays": 568, " per": 569, "iz": 570, "ace": 571, "ite": 572, " res": 573, "ase": 574, "ord": 575, " other": 576, "ip": 577, "ose": 578, "mer": 579, "ople": 580, " 201": 581, "ren": 582, " over": 583, " dis": 584, " there": 585, "ive": 586, " new": 587, " bec": 588, " also": 589, " than": 590, " te": 591, " ar": 592, "ous": 593, "king": 594, "ct": 595, "ough": 596, " St": 597, " app": 598, "reat": 599, " when": 600, " your": 601, "ons": 602, " them": 603, "og": 604, " what": 605, " people": 606, " sc": 607, "fter": 608, "ood": 609, "ile": 610, " qu": 611, "av": 612, "ass": 613, "ble": 614, "for": 615, "own": 616, " Ch": 617, "ach": 618, " just": 619, " any": 620, " Y": 621, "ond": 622, " its": 623, "ne": 624, "ail": 625, " time": 626, "of": 627, " no": 628, " rec": 629, " my": 630, "ree": 631, "ty": 632, " 3": 633, "lic": 634, " her": 635, " kn": 636, " if": 637, " get": 638, "io": 639, "ary": 640, " V": 641, ".\u201d": 642, "vel": 643, " It": 644, " into": 645, "ire": 646, " rep": 647, " tw": 648, "irst": 649, "ount": 650, "ound": 651, " comm": 652, " part": 653, " -": 654, " our": 655, "oin": 656, " pre": 657, "amp": 658, " play": 659, " He": 660, "ang": 661, "fe": 662, "tex": 663, "ause": 664, "ade": 665, "wn": 666, "ook": 667, "ick": 668, " ro": 669, " imp": 670, " pol": 671, "iden": 672, " co": 673, " she": 674, ",\u201d": 675, " after": 676, " 19": 677, " first": 678, " could": 679, " how": 680, " acc": 681, "ns": 682, " him": 683, "'t": 684, "rit": 685, "nder": 686, "aw": 687, "ob": 688, "pt": 689, "|>": 690, "endof": 691, "<|": 692, "endoftex": 693, "ents": 694, "ild": 695, " only": 696, " fe": 697, "ory": 698, "ark": 699, "ress": 700, "anc": 701, " pr": 702, " two": 703, "ish": 704, "duc": 705, "ings": 706, "ica": 707, " dec": 708, " ser": 709, "\u201c": 710, "ink": 711, " bl": 712, "we": 713, " work": 714, " bet": 715, ".\"": 716, "ting": 717, " back": 718, " most": 719, " \u2013": 720, " am": 721, "oll": 722, " did": 723, "ved": 724, " sec": 725, "oy": 726, "li": 727, " again": 728, "rough": 729, "..": 730, " 4": 731, "ens": 732, " under": 733, "ian": 734, "ru": 735, " des": 736, "sel": 737, "ted": 738, "ves": 739, " cons": 740, " because": 741, "ors": 742, " now": 743, " years": 744, "lud": 745, " \u2014": 746, "ence": 747, "ater": 748, "form": 749, "ublic": 750, " even": 751, " We": 752, " need": 753, " exp": 754, " $": 755, " know": 756, " att": 757, "ull": 758, ",\"": 759, " see": 760, "ions": 761, " add": 762, " inter": 763, " ind": 764, "ated": 765, "ss": 766, "uch": 767, "men": 768, "ical": 769, "rs": 770, " every": 771, " 5": 772, "feren": 773, "atio": 774, "urn": 775, "hed": 776, " Un": 777, " supp": 778, " make": 779, "oun": 780, " em": 781, " these": 782, "tiv": 783, "round": 784, " where": 785, "ft": 786, "ump": 787, "vern": 788, "ates": 789, "In": 790, " want": 791, "Th": 792, " And": 793, " don": 794, "able": 795, "man": 796, " op": 797, " way": 798, "be": 799, "ult": 800, " ev": 801, "tio": 802, "ance": 803, " being": 804, " rem": 805, " pos": 806, "row": 807, " many": 808, " may": 809, " bu": 810, " dif": 811, " then": 812, "fore": 813, " But": 814, "cc": 815, " [": 816, " Tr": 817, "iver": 818, "pe": 819, " call": 820, " includ": 821, ").": 822, " reg": 823, "oth": 824, "old": 825, "ving": 826, " through": 827, "day": 828, " should": 829, "ms": 830, "ual": 831, " say": 832, "ning": 833, " fl": 834, " sy": 835, " pres": 836, " those": 837, "ious": 838, " very": 839, " too": 840, "ph": 841, "ove": 842, " last": 843, "sh": 844, " show": 845, " much": 846, "ason": 847, "und": 848, "eth": 849, "aking": 850, "ily": 851, " str": 852, "ince": 853, " state": 854, "tle": 855, " This": 856, "ower": 857, "ath": 858, "other": 859, "ris": 860, "ten": 861, "arg": 862, " ph": 863, " well": 864, "ock": 865, " rel": 866, " Wh": 867, " br": 868, " 200": 869, " bel": 870, " does": 871, " use": 872, " down": 873, " own": 874, " end": 875, "ech": 876, "als": 877, " def": 878, "rat": 879, "les": 880, " long": 881, " Amer": 882, " govern": 883, "iti": 884, " sti": 885, " before": 886, " mon": 887, "ange": 888, "hen": 889, "up": 890, "ash": 891, "xt": 892, "ife": 893, " ke": 894, "lec": 895, "uring": 896, " think": 897, " New": 898, " count": 899, " fin": 900, "ric": 901, "ited": 902, " team": 903, "arch": 904, " made": 905, "ward": 906, "ener": 907, "\u2014": 908, " ass": 909, " such": 910, "),": 911, "enc": 912, " going": 913, "con": 914, "rest": 915, " world": 916, " good": 917, " stud": 918, " hel": 919, "ib": 920, " sub": 921, "abl": 922, "arly": 923, " inv": 924, "ram": 925, "ek": 926, " poin": 927, "--": 928, " eff": 929, " against": 930, "com": 931, "der": 932, " sur": 933, " start": 934, " sm": 935, "lin": 936, "It": 937, " 6": 938, " gu": 939, "ment": 940, " set": 941, "ron": 942, " game": 943, "ix": 944, "000": 945, "ased": 946, " still": 947, " while": 948, "gan": 949, " governme": 950, " min": 951, "illion": 952, " lead": 953, "ition": 954, " help": 955, "roup": 956, "its": 957, "ween": 958, "ax": 959, ".<|": 960, "We": 961, " pers": 962, " right": 963, " says": 964, " inte": 965, " car": 966, "gy": 967, "ien": 968, " inst": 969, " ob": 970, "iew": 971, " sim": 972, " resp": 973, " col": 974, " take": 975, "stem": 976, "self": 977, " same": 978, " between": 979, " differen": 980, " though": 981, " Re": 982, " offic": 983, "ool": 984, "tern": 985, "ys": 986, "ican": 987, "ale": 988, " ed": 989, " num": 990, " high": 991, " sign": 992, " law": 993, "ner": 994, "air": 995, "ise": 996, "ever": 997, "way": 998, " prov": 999, "min": 1000, "ah": 1001, " ter": 1002, "ues": 1003, "iss": 1004, "ork": 1005, "ef": 1006, "gg": 1007, " disc": 1008, "ollow": 1009, "tain": 1010, " trans": 1011, " report": 1012, " run": 1013, " ins": 1014, " here": 1015, "ked": 1016, " 10": 1017, " three": 1018, "velop": 1019, " around": 1020, "any": 1021, " found": 1022, "onal": 1023, "atch": 1024, " mem": 1025, " real": 1026, "ordin": 1027, " med": 1028, " used": 1029, "read": 1030, "ell": 1031, " You": 1032, " really": 1033, " system": 1034, "cent": 1035, "az": 1036, "oot": 1037, "ames": 1038, " group": 1039, " spec": 1040, " act": 1041, " produc": 1042, " cour": 1043, " 7": 1044, "ces": 1045, " Le": 1046, " public": 1047, "ple": 1048, "iat": 1049, " hand": 1050, "ran": 1051, "vers": 1052, "ather": 1053, " Al": 1054, " great": 1055, "ave": 1056, " par": 1057, " wom": 1058, "tions": 1059, "alth": 1060, " Com": 1061, ".[": 1062, "ics": 1063, " cur": 1064, " fam": 1065, " Trump": 1066, " happ": 1067, " Ar": 1068, " exper": 1069, " They": 1070, " cap": 1071, " sl": 1072, " war": 1073, "ider": 1074, " read": 1075, " both": 1076, "rib": 1077, " day": 1078, " lit": 1079, " find": 1080, "uth": 1081, " conf": 1082, "oh": 1083, " Sh": 1084, "ject": 1085, " det": 1086, " Is": 1087, "tif": 1088, " during": 1089, "the": 1090, "ific": 1091, " 0": 1092, "ton": 1093, " big": 1094, " cr": 1095, "orts": 1096, "ful": 1097, " 8": 1098, " month": 1099, "tim": 1100, " plan": 1101, "land": 1102, " look": 1103, "get": 1104, "hes": 1105, " develop": 1106, "ational": 1107, "ali": 1108, " iss": 1109, " told": 1110, " since": 1111, " gr": 1112, "irect": 1113, " American": 1114, "lect": 1115, "ouse": 1116, " week": 1117, " prog": 1118, "ense": 1119, "ied": 1120, "ethin": 1121, "omethin": 1122, " few": 1123, "ci": 1124, "ov": 1125, "ex": 1126, "aj": 1127, "ually": 1128, " polit": 1129, " leg": 1130, " 9": 1131, "tt": 1132, " cent": 1133, " expl": 1134, " Sp": 1135, " belie": 1136, "akes": 1137, " follow": 1138, "icul": 1139, "20": 1140, " lot": 1141, "ared": 1142, " gener": 1143, " opp": 1144, " life": 1145, "Wh": 1146, " tal": 1147, " contin": 1148, " requ": 1149, "nts": 1150, "cer": 1151, " cor": 1152, "imes": 1153, "tia": 1154, " If": 1155, " another": 1156, " put": 1157, " cle": 1158, " prot": 1159, "ata": 1160, "ets": 1161, " ret": 1162, " fil": 1163, "ures": 1164, " somethin": 1165, " ref": 1166, " fact": 1167, " loc": 1168, " For": 1169, "chool": 1170, " char": 1171, " soc": 1172, "ices": 1173, " inf": 1174, " ext": 1175, " power": 1176, " rele": 1177, "bers": 1178, "ins": 1179, "ict": 1180, "til": 1181, " dep": 1182, " commun": 1183, " things": 1184, " che": 1185, " vot": 1186, " far": 1187, " head": 1188, " child": 1189, " men": 1190, "This": 1191, " camp": 1192, "ari": 1193, "ars": 1194, "ross": 1195, " each": 1196, " might": 1197, " never": 1198, " '": 1199, "rent": 1200, "ox": 1201, " next": 1202, "inal": 1203, "ussi": 1204, " dem": 1205, " try": 1206, " adv": 1207, " pass": 1208, " ent": 1209, " got": 1210, " \u2018": 1211, "He": 1212, " second": 1213, " come": 1214, "ee": 1215, " bus": 1216, "ision": 1217, " spe": 1218, "med": 1219, "tem": 1220, "erv": 1221, " best": 1222, " open": 1223, " seem": 1224, "atter": 1225, " allow": 1226, " That": 1227, "ug": 1228, " US": 1229, "ilit": 1230, " post": 1231, " feel": 1232, "ok": 1233, " ques": 1234, " mark": 1235, " .": 1236, " pri": 1237, "tic": 1238, " percent": 1239, " es": 1240, " Pro": 1241, " Rep": 1242, " An": 1243, "ident": 1244, " question": 1245, " home": 1246, "led": 1247, " incre": 1248, "cess": 1249, "itio": 1250, "ank": 1251, "nes": 1252, " contro": 1253, "ck": 1254, " care": 1255, "ative": 1256, "ma": 1257, "ects": 1258, " million": 1259, " dist": 1260, " cre": 1261, " hard": 1262, " comple": 1263, "str": 1264, " includin": 1265, " hum": 1266, " without": 1267, " tri": 1268, " mod": 1269, " proble": 1270, " inform": 1271, " av": 1272, "ned": 1273, " ide": 1274, " top": 1275, " number": 1276, "conom": 1277, "ina": 1278, "cl": 1279, "oney": 1280, "ead": 1281, "ages": 1282, "ize": 1283, " As": 1284, " Bl": 1285, " build": 1286, "echn": 1287, "orn": 1288, "ody": 1289, " import": 1290, " country": 1291, "ai": 1292, " stand": 1293, " tra": 1294, " el": 1295, " place": 1296, "itu": 1297, "ional": 1298, " better": 1299, " four": 1300, "ds": 1301, " interest": 1302, " direct": 1303, "But": 1304, "uro": 1305, " let": 1306, " gl": 1307, " int": 1308, " Con": 1309, " support": 1310, " recent": 1311, "olo": 1312, " season": 1313, "10": 1314, " little": 1315, "ights": 1316, " less": 1317, " bro": 1318, "ital": 1319, "uck": 1320, "aim": 1321, " point": 1322, " beh": 1323, "leg": 1324, " appro": 1325, " called": 1326, "iness": 1327, "ways": 1328, " case": 1329, "line": 1330, "ecti": 1331, " possi": 1332, "atur": 1333, " ann": 1334, "sta": 1335, " turn": 1336, " serv": 1337, " Z": 1338, "iet": 1339, " Ind": 1340, " attack": 1341, " pop": 1342, " There": 1343, "ines": 1344, "ode": 1345, " keep": 1346, " rece": 1347, "cri": 1348, " didn": 1349, "time": 1350, "nce": 1351, "ush": 1352, " full": 1353, " move": 1354, " continue": 1355, "ama": 1356, " presiden": 1357, "ield": 1358, " loo": 1359, " left": 1360, "ajor": 1361, " official": 1362, " ear": 1363, " main": 1364, " fun": 1365, " pay": 1366, "__": 1367, "ier": 1368, " using": 1369, " program": 1370, "eng": 1371, " police": 1372, "ered": 1373, "uct": 1374, "mit": 1375, "nal": 1376, "vious": 1377, " stre": 1378, " importan": 1379, " dri": 1380, " writ": 1381, " val": 1382, " form": 1383, " win": 1384, " news": 1385, "osed": 1386, " econom": 1387, "ister": 1388, "over": 1389, "ating": 1390, " data": 1391, " small": 1392, "app": 1393, "ility": 1394, " women": 1395, " school": 1396, " list": 1397, "ready": 1398, "riend": 1399, "'re": 1400, "por": 1401, "arge": 1402, " eas": 1403, "ired": 1404, " level": 1405, "iol": 1406, " prom": 1407, "ploy": 1408, " change": 1409, " =": 1410, " fac": 1411, "olu": 1412, "que": 1413, " hist": 1414, "ism": 1415, " --": 1416, "used": 1417, " current": 1418, "ular": 1419, " United": 1420, " Fr": 1421, " company": 1422, " already": 1423, " why": 1424, " rese": 1425, "wit": 1426, "acte": 1427, " money": 1428, " ty": 1429, " techn": 1430, " bre": 1431, "ided": 1432, "ior": 1433, " How": 1434, " always": 1435, " consider": 1436, " later": 1437, " Ph": 1438, " informat": 1439, " thing": 1440, " business": 1441, " organ": 1442, "ument": 1443, " job": 1444, " Mar": 1445, " prof": 1446, " Q": 1447, "iversi": 1448, "aign": 1449, " experien": 1450, "orm": 1451, " class": 1452, " claim": 1453, " health": 1454, " free": 1455, " Ob": 1456, " major": 1457, " oper": 1458, "ney": 1459, " chang": 1460, " story": 1461, " design": 1462, " creat": 1463, " She": 1464, " able": 1465, "ations": 1466, "reen": 1467, "cept": 1468, " So": 1469, " politica": 1470, "...": 1471, " vis": 1472, "ource": 1473, " pur": 1474, " del": 1475, " away": 1476, " must": 1477, "ger": 1478, " city": 1479, "ains": 1480, "ample": 1481, " Ad": 1482, " happen": 1483, " old": 1484, " kill": 1485, "uthor": 1486, "by": 1487, " respon": 1488, " 18": 1489, " past": 1490, "entia": 1491, " doesn": 1492, " communit": 1493, " expect": 1494, " Can": 1495, "orth": 1496, " grow": 1497, " sk": 1498, "50": 1499, "ps": 1500, " least": 1501, " cost": 1502, "outh": 1503, " 12": 1504, " edit": 1505, " hop": 1506, "pped": 1507, " bas": 1508, " campaign": 1509, "ced": 1510, " days": 1511, " came": 1512, " aff": 1513, " tell": 1514, "els": 1515, " cer": 1516, " view": 1517, "cy": 1518, " kind": 1519, "vie": 1520, " making": 1521, " enough": 1522, " process": 1523, "residen": 1524, " rev": 1525, "ury": 1526, " family": 1527, " large": 1528, " mean": 1529, " tax": 1530, " Joh": 1531, " polic": 1532, " friend": 1533, "ird": 1534, "urity": 1535, " deal": 1536, "\u2026": 1537, "rem": 1538, " vide": 1539, " De": 1540, "iven": 1541, "alf": 1542, "tive": 1543, " working": 1544, " until": 1545, "oad": 1546, "ember": 1547, "ressi": 1548, " research": 1549, "ror": 1550, "bs": 1551, " record": 1552, " Republic": 1553, " met": 1554, "ute": 1555, " line": 1556, " Be": 1557, "eral": 1558, "tig": 1559, " took": 1560, "ley": 1561, "As": 1562, "ably": 1563, "ret": 1564, "pec": 1565, " ve": 1566, "If": 1567, "sc": 1568, " fund": 1569, " air": 1570, "ike": 1571, " deb": 1572, " doc": 1573, " increase": 1574, " become": 1575, " actually": 1576, "ott": 1577, "11": 1578, " Sc": 1579, "oss": 1580, " won": 1581, " rest": 1582, "ides": 1583, "augh": 1584, " often": 1585, "ik": 1586, " former": 1587, " Euro": 1588, "par": 1589, " Pl": 1590, "rie": 1591, " give": 1592, " person": 1593, "ists": 1594, " fore": 1595, " wr": 1596, " ever": 1597, "wh": 1598, " human": 1599, "ocrat": 1600, " accordin": 1601, " 199": 1602, "ters": 1603, "year": 1604, " Dem": 1605, "da": 1606, " Cl": 1607, "lly": 1608, "ensi": 1609, " bit": 1610, " games": 1611, "gin": 1612, "issi": 1613, "most": 1614, "ats": 1615, "19": 1616, " name": 1617, " times": 1618, "ship": 1619, "ured": 1620, "ware": 1621, " sever": 1622, " order": 1623, "ither": 1624, " All": 1625, " May": 1626, "vestig": 1627, "idd": 1628, "uture": 1629, " appear": 1630, " Russi": 1631, "ccess": 1632, " dev": 1633, " Mc": 1634, " Sy": 1635, "ene": 1636, " characte": 1637, " return": 1638, " players": 1639, " sing": 1640, " doing": 1641, " ,": 1642, "There": 1643, "go": 1644, " bo": 1645, " children": 1646, " lear": 1647, " Se": 1648, " market": 1649, " la": 1650, "ER": 1651, " 15": 1652, " early": 1653, " whether": 1654, " seen": 1655, " having": 1656, " complete": 1657, " Presiden": 1658, " media": 1659, " today": 1660, " Or": 1661, "ness": 1662, " prop": 1663, " social": 1664, " several": 1665, " At": 1666, " meet": 1667, " event": 1668, " equ": 1669, " crit": 1670, "rin": 1671, "ract": 1672, " press": 1673, " young": 1674, " control": 1675, "ule": 1676, " pot": 1677, " five": 1678, " sure": 1679, " went": 1680, "lat": 1681, " No": 1682, " certain": 1683, "ulati": 1684, " occ": 1685, " York": 1686, "ann": 1687, " mar": 1688, " eng": 1689, " miss": 1690, "ction": 1691, " water": 1692, " likely": 1693, "tal": 1694, " side": 1695, " example": 1696, " members": 1697, " hour": 1698, " done": 1699, "ler": 1700, "aken": 1701, " Europe": 1702, " Col": 1703, " understa": 1704, " arg": 1705, " sex": 1706, "12": 1707, " vers": 1708, "ounce": 1709, "ortun": 1710, " States": 1711, " along": 1712, "ribu": 1713, "ape": 1714, " invol": 1715, " decision": 1716, "And": 1717, "//": 1718, " manag": 1719, "ony": 1720, " months": 1721, " test": 1722, " among": 1723, "tire": 1724, " ris": 1725, " ]": 1726, " Ste": 1727, "ely": 1728, " milit": 1729, "St": 1730, " night": 1731, " feat": 1732, " concer": 1733, " course": 1734, "lection": 1735, "vert": 1736, "uff": 1737, "ront": 1738, " once": 1739, " within": 1740, " activ": 1741, " viol": 1742, " short": 1743, "rew": 1744, " future": 1745, " possible": 1746, "ots": 1747, " investig": 1748, " land": 1749, " 11": 1750, " success": 1751, "eb": 1752, "verage": 1753, "une": 1754, "aine": 1755, " means": 1756, " po": 1757, " non": 1758, " priv": 1759, " Car": 1760, "ivid": 1761, " Obama": 1762, "aps": 1763, " thought": 1764, " On": 1765, " yet": 1766, "resen": 1767, " author": 1768, " known": 1769, "inat": 1770, " When": 1771, " reason": 1772, " avail": 1773, " hold": 1774, " fail": 1775, " elect": 1776, " red": 1777, "\u2013": 1778, " across": 1779, " &": 1780, " State": 1781, "pect": 1782, "ards": 1783, " local": 1784, "iza": 1785, " sugg": 1786, "side": 1787, " orig": 1788, " given": 1789, "ties": 1790, "ests": 1791, " makes": 1792, " asked": 1793, "ants": 1794, "You": 1795, " i": 1796, "artme": 1797, "fer": 1798, "less": 1799, " national": 1800, " believe": 1801, "rac": 1802, " Universi": 1803, " video": 1804, "ague": 1805, " reported": 1806, " prob": 1807, " Mr": 1808, "ociat": 1809, " mus": 1810, " ra": 1811, "not": 1812, "ubl": 1813, " 2016": 1814, " strong": 1815, " Min": 1816, " others": 1817, " problem": 1818, " dra": 1819, "ici": 1820, " close": 1821, "rop": 1822, " lim": 1823, " cit": 1824, "ling": 1825, "aff": 1826, " House": 1827, " cond": 1828, " getting": 1829, " cut": 1830, "ched": 1831, " fight": 1832, " Am": 1833, " ben": 1834, " coun": 1835, "ederal": 1836, "work": 1837, "ator": 1838, " 30": 1839, "urther": 1840, "iron": 1841, "ults": 1842, " book": 1843, " X": 1844, " Wor": 1845, "timate": 1846, "ring": 1847, " particul": 1848, "30": 1849, " position": 1850, "'ve": 1851, "ases": 1852, " clear": 1853, " net": 1854, " started": 1855, "thing": 1856, "urs": 1857, "ato": 1858, "ilar": 1859, " Democrat": 1860, "For": 1861, " #": 1862, " death": 1863, " party": 1864, " issue": 1865, "use": 1866, ".,": 1867, " availabl": 1868, " followin": 1869, " 2015": 1870, " series": 1871, " hig": 1872, " mom": 1873, " based": 1874, " study": 1875, " low": 1876, "gether": 1877, "ividu": 1878, " love": 1879, " history": 1880, " ago": 1881, "thi": 1882, " employ": 1883, " announce": 1884, "hing": 1885, " indust": 1886, " matter": 1887, "uly": 1888, " treat": 1889, "ashing": 1890, " trying": 1891, "son": 1892, " together": 1893, " comes": 1894, " Cent": 1895, " 16": 1896, " perform": 1897, " Br": 1898, " almost": 1899, " Sen": 1900, " commit": 1901, " statemen": 1902, " idea": 1903, " access": 1904, " :": 1905, " foc": 1906, " intern": 1907, " Sec": 1908, " half": 1909, " six": 1910, " America": 1911, "aring": 1912, "AT": 1913, " Comm": 1914, " One": 1915, " addition": 1916, " added": 1917, " isn": 1918, "ief": 1919, " trad": 1920, "15": 1921, " impro": 1922, " result": 1923, "minist": 1924, " What": 1925, "la": 1926, " ca": 1927, "ev": 1928, " film": 1929, " pract": 1930, " represen": 1931, "elf": 1932, " hit": 1933, "though": 1934, "ili": 1935, " election": 1936, "witter": 1937, " 2014": 1938, " Ex": 1939, " fav": 1940, " individu": 1941, "----": 1942, " looking": 1943, " fre": 1944, " anything": 1945, "ulti": 1946, " rul": 1947, "rug": 1948, "ustom": 1949, "book": 1950, " anal": 1951, "ised": 1952, " ban": 1953, " dr": 1954, " Clin": 1955, " phot": 1956, " train": 1957, "aster": 1958, "unch": 1959, " descri": 1960, " bad": 1961, " John": 1962, "ster": 1963, "gle": 1964, " area": 1965, " Canad": 1966, " Bro": 1967, " saying": 1968, " building": 1969, "ived": 1970, "ane": 1971, "pr": 1972, "off": 1973, "'m": 1974, "rael": 1975, " z": 1976, "my": 1977, "ectiv": 1978, " sci": 1979, "sec": 1980, " face": 1981, " court": 1982, " mor": 1983, " entire": 1984, " taken": 1985, "ams": 1986, " live": 1987, " compet": 1988, " personal": 1989, "ball": 1990, "What": 1991, "arm": 1992, "ged": 1993, "att": 1994, "ait": 1995, " er": 1996, "rict": 1997, " sent": 1998, "isc": 1999, "olog": 2000, "oice": 2001, " near": 2002, " 14": 2003, " behind": 2004, "ones": 2005, "ality": 2006, "roduc": 2007, " light": 2008, " \\xc2": 2009, " Eng": 2010, " security": 2011, "uge": 2012, " proper": 2013, " sol": 2014, " sw": 2015, "osp": 2016, " potentia": 2017, " aut": 2018, " |": 2019, " join": 2020, " bill": 2021, " relation": 2022, " military": 2023, " single": 2024, " threat": 2025, " rather": 2026, " art": 2027, " Pol": 2028, "IN": 2029, " remain": 2030, " Af": 2031, "istan": 2032, "ls": 2033, "ply": 2034, " present": 2035, " War": 2036, " suppor": 2037, " lo": 2038, "alif": 2039, " black": 2040, " quick": 2041, "ium": 2042, " policy": 2043, " wanted": 2044, "ails": 2045, "anie": 2046, "alleng": 2047, "na": 2048, " technolo": 2049, " previous": 2050, "ishe": 2051, "erman": 2052, " mess": 2053, " Brit": 2054, " fall": 2055, " North": 2056, "eal": 2057, " 13": 2058, "irc": 2059, " publ": 2060, "aul": 2061, " mind": 2062, " Man": 2063, " comb": 2064, " special": 2065, " Dep": 2066, " Co": 2067, " project": 2068, " bring": 2069, " invest": 2070, " someone": 2071, " sum": 2072, "14": 2073, " attem": 2074, "lier": 2075, " stat": 2076, "On": 2077, " player": 2078, "ral": 2079, " National": 2080, " Fl": 2081, " taking": 2082, " 17": 2083, "When": 2084, " Bar": 2085, " food": 2086, "ze": 2087, " pret": 2088, " key": 2089, "pecial": 2090, " conn": 2091, " similar": 2092, "ency": 2093, " City": 2094, " else": 2095, "ternat": 2096, " /": 2097, " fr": 2098, " World": 2099, " To": 2100, "ids": 2101, " developm": 2102, " Clinton": 2103, "ote": 2104, " foot": 2105, " body": 2106, " toward": 2107, "RE": 2108, "rote": 2109, " probably": 2110, " wal": 2111, ".)": 2112, " sal": 2113, "16": 2114, "viron": 2115, " sus": 2116, "ashingt": 2117, " coming": 2118, " nothing": 2119, " const": 2120, " points": 2121, " artic": 2122, " repl": 2123, "An": 2124, " Im": 2125, "vironm": 2126, " signific": 2127, " giv": 2128, " cou": 2129, " however": 2130, "ogra": 2131, " Har": 2132, "://": 2133, "ume": 2134, "Ad": 2135, " either": 2136, " service": 2137, "pti": 2138, " Chris": 2139, " original": 2140, "ows": 2141, " 2013": 2142, "That": 2143, " benef": 2144, "acy": 2145, " est": 2146, " Israel": 2147, " rights": 2148, "ourn": 2149, "iou": 2150, "wer": 2151, "ison": 2152, " exist": 2153, " star": 2154, "ensiv": 2155, " function": 2156, "amed": 2157, " Aust": 2158, "So": 2159, " enc": 2160, " fire": 2161, " )": 2162, "yn": 2163, " economic": 2164, " further": 2165, " wrote": 2166, " diff": 2167, " stop": 2168, "vent": 2169, " compl": 2170, " meas": 2171, "IS": 2172, "attle": 2173, "now": 2174, " house": 2175, "oke": 2176, "vertis": 2177, " Ed": 2178, "ON": 2179, " seems": 2180, "pre": 2181, " issues": 2182, " create": 2183, " field": 2184, " companie": 2185, " challeng": 2186, " step": 2187, "idence": 2188, " sound": 2189, " cand": 2190, " super": 2191, " fig": 2192, " whole": 2193, " targ": 2194, "set": 2195, " begin": 2196, " cult": 2197, " Su": 2198, "elt": 2199, " third": 2200, "lim": 2201, " everythi": 2202, " due": 2203, " With": 2204, " leaders": 2205, " spend": 2206, " prin": 2207, " Ge": 2208, " tem": 2209, "enn": 2210, " states": 2211, "AN": 2212, "lecti": 2213, " watch": 2214, "pping": 2215, "13": 2216, " dam": 2217, "pite": 2218, " offer": 2219, " exec": 2220, " However": 2221, " anti": 2222, "ety": 2223, "ern": 2224, " 2012": 2225, " Washingt": 2226, "ont": 2227, " room": 2228, " stri": 2229, " role": 2230, " custom": 2231, "utes": 2232, " released": 2233, " lab": 2234, " Gu": 2235, " ey": 2236, "\u00e9": 2237, " App": 2238, "co": 2239, " ce": 2240, " Jan": 2241, "ended": 2242, " Dav": 2243, " final": 2244, "ivil": 2245, " Dec": 2246, "selv": 2247, " space": 2248, " nec": 2249, "ories": 2250, "iday": 2251, " inj": 2252, " South": 2253, "bor": 2254, "ches": 2255, " dou": 2256, "rist": 2257, "Ch": 2258, " self": 2259, "ried": 2260, " administ": 2261, " himself": 2262, "lu": 2263, " hours": 2264, " began": 2265, " ener": 2266, " agre": 2267, "che": 2268, " document": 2269, "pro": 2270, " federal": 2271, "erva": 2272, " outside": 2273, "omin": 2274, "br": 2275, " provide": 2276, " sit": 2277, " above": 2278, "tor": 2279, " 2017": 2280, "amer": 2281, "ww": 2282, "vis": 2283, " front": 2284, "rali": 2285, " break": 2286, " became": 2287, "ilt": 2288, " itself": 2289, " countrie": 2290, " students": 2291, " office": 2292, " 198": 2293, "obal": 2294, "iod": 2295, " themselv": 2296, "este": 2297, "ined": 2298, "essi": 2299, " bar": 2300, "lam": 2301, " buy": 2302, " evidence": 2303, "reg": 2304, " late": 2305, " larg": 2306, " 100": 2307, "de": 2308, "itut": 2309, " 25": 2310, "'ll": 2311, "uce": 2312, " true": 2313, "bo": 2314, " wasn": 2315, "aid": 2316, " situ": 2317, " Te": 2318, " simply": 2319, " action": 2320, " specific": 2321, "like": 2322, "po": 2323, " Res": 2324, " thin": 2325, " difficul": 2326, "iddle": 2327, "ored": 2328, " imm": 2329, " financ": 2330, " intervie": 2331, "17": 2332, " drug": 2333, " plac": 2334, "angu": 2335, "ert": 2336, "asi": 2337, "ung": 2338, " cop": 2339, "ogn": 2340, "acebook": 2341, " var": 2342, "ued": 2343, " describe": 2344, " ans": 2345, " Inst": 2346, " develope": 2347, " Just": 2348, "oogle": 2349, " groups": 2350, " ground": 2351, " approach": 2352, " hom": 2353, "val": 2354, "here": 2355, "af": 2356, " gun": 2357, " running": 2358, "play": 2359, "oid": 2360, " multi": 2361, " ball": 2362, " music": 2363, " Sep": 2364, " rad": 2365, " release": 2366, " needs": 2367, "iety": 2368, " version": 2369, " shows": 2370, " woman": 2371, " Ass": 2372, " di": 2373, " China": 2374, " Ab": 2375, "jects": 2376, " pretty": 2377, "iec": 2378, " dest": 2379, " everyone": 2380, "icip": 2381, " forward": 2382, " needed": 2383, " below": 2384, "ser": 2385, " general": 2386, "vin": 2387, "anger": 2388, "ration": 2389, " playing": 2390, " common": 2391, "BC": 2392, "eks": 2393, " saw": 2394, " exc": 2395, "uter": 2396, " sen": 2397, " mag": 2398, " white": 2399, "den": 2400, " situatio": 2401, " deep": 2402, "ulat": 2403, "umb": 2404, "ental": 2405, "AR": 2406, " typ": 2407, " played": 2408, "sy": 2409, " include": 2410, " sense": 2411, " Med": 2412, " conditio": 2413, "arent": 2414, " German": 2415, " Part": 2416, " His": 2417, " ap": 2418, " quite": 2419, "ffic": 2420, " director": 2421, " anim": 2422, " alleg": 2423, " energy": 2424, "yl": 2425, "oe": 2426, "idat": 2427, " charg": 2428, "ray": 2429, " response": 2430, " Mus": 2431, " publishe": 2432, " 50": 2433, "How": 2434, " legal": 2435, " reac": 2436, "mb": 2437, " gen": 2438, " billion": 2439, " lost": 2440, " After": 2441, "bert": 2442, " industry": 2443, "18": 2444, " boo": 2445, " pick": 2446, "udi": 2447, " especial": 2448, " abs": 2449, " track": 2450, " talk": 2451, "hel": 2452, " producti": 2453, "epend": 2454, " jud": 2455, "pris": 2456, "**": 2457, " instead": 2458, " ple": 2459, " environm": 2460, " value": 2461, "AS": 2462, "atin": 2463, " host": 2464, "let": 2465, " longer": 2466, " News": 2467, "rec": 2468, " vote": 2469, "wor": 2470, "ccordin": 2471, " period": 2472, "back": 2473, "tial": 2474, " recently": 2475, "anguage": 2476, " opportun": 2477, " weeks": 2478, "25": 2479, " changes": 2480, " Par": 2481, "irt": 2482, " Twitter": 2483, " West": 2484, "emen": 2485, " deter": 2486, " Will": 2487, " {": 2488, " Go": 2489, " site": 2490, "irm": 2491, " soon": 2492, " White": 2493, " clim": 2494, "head": 2495, "ural": 2496, " Pe": 2497, " tit": 2498, " pain": 2499, " shoot": 2500, " wrong": 2501, " focus": 2502, " moment": 2503, " Cong": 2504, " Some": 2505, " serious": 2506, " gir": 2507, " online": 2508, "ender": 2509, " private": 2510, "ades": 2511, "cil": 2512, " Departme": 2513, "hic": 2514, " March": 2515, " organiza": 2516, " ep": 2517, "eme": 2518, " phys": 2519, " practice": 2520, " standard": 2521, " pred": 2522, " contract": 2523, " led": 2524, " services": 2525, " higher": 2526, " works": 2527, " educ": 2528, " results": 2529, " 24": 2530, " held": 2531, " circ": 2532, "aper": 2533, "ift": 2534, " cred": 2535, " total": 2536, " Syri": 2537, " relig": 2538, " reve": 2539, " share": 2540, " These": 2541, "They": 2542, "onald": 2543, " candidat": 2544, " My": 2545, "ners": 2546, " favor": 2547, " review": 2548, "urch": 2549, "ement": 2550, " ele": 2551, " age": 2552, " webs": 2553, " stay": 2554, " words": 2555, " accept": 2556, "lege": 2557, "ura": 2558, " rate": 2559, " goal": 2560, "mp": 2561, " Aug": 2562, "identif": 2563, " minutes": 2564, "key": 2565, " upd": 2566, "Al": 2567, " laws": 2568, "icro": 2569, " article": 2570, "lear": 2571, " Mich": 2572, "ask": 2573, " Pr": 2574, "ateg": 2575, " div": 2576, " account": 2577, "ablis": 2578, " den": 2579, "60": 2580, " sold": 2581, "haps": 2582, " Sm": 2583, " anyone": 2584, " necess": 2585, " wind": 2586, " rac": 2587, "wo": 2588, " June": 2589, " applic": 2590, " earlier": 2591, "ips": 2592, " code": 2593, "asons": 2594, "pril": 2595, " internat": 2596, "apan": 2597, "ula": 2598, " operatio": 2599, " surpris": 2600, " friends": 2601, " piec": 2602, " hy": 2603, "oluti": 2604, " movement": 2605, " God": 2606, "iles": 2607, " ran": 2608, "aker": 2609, "ES": 2610, " sell": 2611, " demand": 2612, " shot": 2613, " risk": 2614, "ault": 2615, " prim": 2616, " pack": 2617, " dead": 2618, " 2011": 2619, " ways": 2620, "uel": 2621, " problems": 2622, " meth": 2623, " July": 2624, " created": 2625, " identif": 2626, " received": 2627, " performa": 2628, " expected": 2629, " responsi": 2630, " easy": 2631, "order": 2632, " cannot": 2633, "gen": 2634, " contribu": 2635, "ments": 2636, " force": 2637, " pat": 2638, " consum": 2639, "Ph": 2640, " Congress": 2641, " ste": 2642, " target": 2643, " En": 2644, "ming": 2645, " Mond": 2646, " Facebook": 2647, " involved": 2648, " visit": 2649, "sm": 2650, " hope": 2651, " supporte": 2652, "mediat": 2653, " Count": 2654, " financia": 2655, " populati": 2656, "ivers": 2657, " staff": 2658, " moder": 2659, " 197": 2660, " amount": 2661, " authorit": 2662, "hern": 2663, "entio": 2664, " gra": 2665, "mon": 2666, "reet": 2667, " Gr": 2668, " poll": 2669, "gr": 2670, "resse": 2671, " Red": 2672, "lex": 2673, " exact": 2674, " language": 2675, "At": 2676, " mater": 2677, " comment": 2678, "uesday": 2679, " vic": 2680, " Google": 2681, " civil": 2682, "arter": 2683, " Hill": 2684, " terror": 2685, " Ag": 2686, " nearly": 2687, "omb": 2688, "aving": 2689, " broad": 2690, " Not": 2691, " leave": 2692, "ires": 2693, " model": 2694, " users": 2695, " cases": 2696, " fans": 2697, "oto": 2698, " average": 2699, " Australi": 2700, "islat": 2701, "mber": 2702, " wait": 2703, " Me": 2704, " tre": 2705, "ized": 2706, " block": 2707, "okes": 2708, " et": 2709, " April": 2710, " inside": 2711, "llig": 2712, " soft": 2713, " Ro": 2714, " coll": 2715, " club": 2716, " Friday": 2717, "assi": 2718, " road": 2719, " Cour": 2720, "____": 2721, " killed": 2722, " oppos": 2723, " arrest": 2724, " living": 2725, " worth": 2726, " competit": 2727, " worked": 2728, " becom": 2729, " Pal": 2730, " source": 2731, " ur": 2732, "ible": 2733, "cal": 2734, " chance": 2735, "aged": 2736, " Monday": 2737, "tembe": 2738, " Dr": 2739, " type": 2740, " base": 2741, " reports": 2742, " associat": 2743, "bit": 2744, "uary": 2745, " San": 2746, " 2010": 2747, " Per": 2748, " exce": 2749, " sto": 2750, " Oc": 2751, "ampion": 2752, " Tuesday": 2753, " immediat": 2754, " oil": 2755, " travel": 2756, "ousand": 2757, " ability": 2758, " global": 2759, " Russia": 2760, " mid": 2761, "ha": 2762, " traditio": 2763, " execu": 2764, "eter": 2765, "joy": 2766, " respond": 2767, " European": 2768, " terms": 2769, " decided": 2770, " cell": 2771, "ude": 2772, "\",": 2773, " effect": 2774, " price": 2775, " Japan": 2776, "tation": 2777, " content": 2778, " establis": 2779, "To": 2780, "rought": 2781, " indic": 2782, " tou": 2783, "hest": 2784, " workers": 2785, " takes": 2786, " lack": 2787, "isti": 2788, "OR": 2789, " phone": 2790, " While": 2791, " Ne": 2792, "tober": 2793, " committe": 2794, " influ": 2795, " log": 2796, " Wed": 2797, " mother": 2798, "ecte": 2799, "ging": 2800, " gave": 2801, "int": 2802, "unt": 2803, "icall": 2804, " weap": 2805, " determin": 2806, "ovember": 2807, "ature": 2808, " <": 2809, " happened": 2810, " 40": 2811, " fem": 2812, " Now": 2813, " defin": 2814, " require": 2815, " necessar": 2816, "iber": 2817, "put": 2818, " Calif": 2819, " emer": 2820, " Cor": 2821, " foreign": 2822, " recogn": 2823, "ida": 2824, " natur": 2825, " Geor": 2826, " particip": 2827, " meeting": 2828, " goes": 2829, "40": 2830, "tr": 2831, " +": 2832, " currentl": 2833, " dro": 2834, "nesda": 2835, " send": 2836, " By": 2837, "yle": 2838, " plans": 2839, " whose": 2840, "come": 2841, " events": 2842, "\".": 2843, " material": 2844, " teams": 2845, "uit": 2846, " lat": 2847, "ursday": 2848, " member": 2849, " squ": 2850, " cal": 2851, " lives": 2852, "clus": 2853, " vol": 2854, "fect": 2855, "ought": 2856, " vari": 2857, "One": 2858, " \\xe2": 2859, " Feb": 2860, " Septembe": 2861, "based": 2862, "EN": 2863, "mar": 2864, " introduc": 2865, " pati": 2866, " turned": 2867, "rap": 2868, " regard": 2869, " simple": 2870, " Sund": 2871, "ael": 2872, " arri": 2873, "ky": 2874, " discover": 2875, " pict": 2876, " race": 2877, " TV": 2878, " network": 2879, " career": 2880, " Sch": 2881, " January": 2882, " mis": 2883, " huge": 2884, " David": 2885, " method": 2886, " Islam": 2887, "hi": 2888, " 21": 2889, " ill": 2890, "ese": 2891, " hear": 2892, " couple": 2893, "avy": 2894, " applicat": 2895, " nation": 2896, "ospital": 2897, " page": 2898, " suff": 2899, " November": 2900, " felt": 2901, " Wednesda": 2902, " numbers": 2903, " engine": 2904, " Wal": 2905, "onstr": 2906, " tool": 2907, "oor": 2908, " email": 2909, "rugg": 2910, " areas": 2911, " word": 2912, " quickly": 2913, "ities": 2914, " improve": 2915, " @": 2916, " father": 2917, " impact": 2918, " Thursday": 2919, " Gl": 2920, " dig": 2921, "ttp": 2922, " heart": 2923, " ord": 2924, " loss": 2925, " via": 2926, " boy": 2927, " hon": 2928, " October": 2929, " built": 2930, " heard": 2931, " Paul": 2932, " round": 2933, " pull": 2934, "chie": 2935, "ani": 2936, "==": 2937, "nin": 2938, " 22": 2939, " August": 2940, " trade": 2941, "gs": 2942, "][": 2943, " effectiv": 2944, " thousand": 2945, " allowed": 2946, " cover": 2947, " possib": 2948, " Ang": 2949, "ops": 2950, "?\u201d": 2951, " spent": 2952, " reveal": 2953, " wants": 2954, " included": 2955, " customer": 2956, " Court": 2957, " board": 2958, " lower": 2959, "sts": 2960, " enjoy": 2961, " reduc": 2962, " ask": 2963, "Re": 2964, " economy": 2965, " wide": 2966, " legislat": 2967, " website": 2968, "uctur": 2969, " educatio": 2970, " gets": 2971, " popular": 2972, "load": 2973, " forces": 2974, " neigh": 2975, " knew": 2976, " emb": 2977, "200": 2978, "leb": 2979, "ban": 2980, " speak": 2981, "aily": 2982, " behav": 2983, " cy": 2984, " cause": 2985, "ery": 2986, " Californ": 2987, " song": 2988, "iste": 2989, " attentio": 2990, " separ": 2991, " match": 2992, " tried": 2993, " Canada": 2994, "ify": 2995, " remember": 2996, "ills": 2997, " hor": 2998, " 23": 2999, "venti": 3000, " various": 3001, " County": 3002, "porat": 3003, "roll": 3004, " British": 3005, " ens": 3006, "\u00ad": 3007, "\u201d.": 3008, " check": 3009, " bud": 3010, "ba": 3011, " collecti": 3012, "pri": 3013, " Kore": 3014, " Sunday": 3015, "AL": 3016, "ges": 3017, " IS": 3018, " UK": 3019, "With": 3020, "struc": 3021, " computer": 3022, "'d": 3023, " looks": 3024, " brought": 3025, "uses": 3026, "ique": 3027, "Sh": 3028, " norm": 3029, " fair": 3030, " reach": 3031, "yond": 3032, "After": 3033, "arents": 3034, " clos": 3035, " mention": 3036, " town": 3037, " hands": 3038, " fell": 3039, " fear": 3040, " growth": 3041, " training": 3042, "urns": 3043, " Her": 3044, " size": 3045, "99": 3046, " Russian": 3047, " secret": 3048, " morning": 3049, " }": 3050, "ecause": 3051, "ream": 3052, "ying": 3053, " progress": 3054, " leader": 3055, "port": 3056, "ita": 3057, " Black": 3058, "undred": 3059, " conv": 3060, "orter": 3061, "mitte": 3062, " Act": 3063, " upon": 3064, " image": 3065, " search": 3066, " December": 3067, "gest": 3068, " answer": 3069, " vehic": 3070, "secut": 3071, " rules": 3072, "AC": 3073, " address": 3074, "itc": 3075, " citiz": 3076, " conduc": 3077, " hot": 3078, " Street": 3079, "ho": 3080, "onder": 3081, "seque": 3082, "iminal": 3083, "While": 3084, " Jew": 3085, " Sw": 3086, " independ": 3087, " strugg": 3088, " structur": 3089, "hy": 3090, "itive": 3091, " sometime": 3092, " features": 3093, " King": 3094, " talking": 3095, " El": 3096, "arth": 3097, "olution": 3098, " fast": 3099, " Do": 3100, " latest": 3101, "ately": 3102, "ondon": 3103, " Post": 3104, "ayer": 3105, "raz": 3106, "ances": 3107, " ess": 3108, " push": 3109, "ny": 3110, "ded": 3111, " Times": 3112, " Je": 3113, " Senate": 3114, "uf": 3115, " speed": 3116, "ande": 3117, " Iran": 3118, " Tex": 3119, "ED": 3120, " successf": 3121, "rown": 3122, " card": 3123, "aturday": 3124, "ana": 3125, " coach": 3126, " sn": 3127, "pir": 3128, "24": 3129, " Rom": 3130, " und": 3131, " paper": 3132, " slow": 3133, "US": 3134, "uty": 3135, " employee": 3136, " Park": 3137, " exam": 3138, " achie": 3139, "ori": 3140, " depend": 3141, " estimate": 3142, " perfect": 3143, " India": 3144, " Party": 3145, " son": 3146, " safe": 3147, "vey": 3148, "uk": 3149, " resident": 3150, " 2008": 3151, " Mon": 3152, " regular": 3153, " increasi": 3154, "body": 3155, " imag": 3156, " critic": 3157, "80": 3158, " seven": 3159, " sexual": 3160, " spokes": 3161, "abor": 3162, "OS": 3163, "raq": 3164, " ...": 3165, " conc": 3166, " box": 3167, " mach": 3168, " medical": 3169, " parents": 3170, " Muslim": 3171, " Christia": 3172, " systems": 3173, " Center": 3174, " effort": 3175, "ruary": 3176, "iam": 3177, " jobs": 3178, "rel": 3179, "reme": 3180, " physical": 3181, " levels": 3182, "Tr": 3183, " relative": 3184, " written": 3185, " prior": 3186, " sort": 3187, " tele": 3188, " doll": 3189, " Cap": 3190, " band": 3191, " susp": 3192, "erc": 3193, "eed": 3194, "inc": 3195, " 2009": 3196, " violence": 3197, " pressure": 3198, " executiv": 3199, "IT": 3200, "ativ": 3201, " inn": 3202, " Ke": 3203, " histor": 3204, " conserva": 3205, " link": 3206, "pts": 3207, " construc": 3208, " message": 3209, " majority": 3210, "edom": 3211, "rench": 3212, " Char": 3213, "22": 3214, ");": 3215, "roy": 3216, " draw": 3217, "raft": 3218, "itch": 3219, "IC": 3220, "bl": 3221, "ico": 3222, "OP": 3223, " cross": 3224, " mass": 3225, "atform": 3226, " ul": 3227, "ysis": 3228, " gas": 3229, " doub": 3230, " defense": 3231, "pos": 3232, "\u2022": 3233, " Mark": 3234, " bank": 3235, " range": 3236, "rast": 3237, "Advertis": 3238, " attacks": 3239, "sych": 3240, " obvious": 3241, " modern": 3242, " port": 3243, " learn": 3244, "lemen": 3245, " climate": 3246, " immig": 3247, "ken": 3248, " East": 3249, "erve": 3250, " society": 3251, "urd": 3252, " discussi": 3253, " guy": 3254, " influenc": 3255, " connecti": 3256, "zed": 3257, "She": 3258, " London": 3259, "entis": 3260, " despite": 3261, "iff": 3262, "ples": 3263, " pen": 3264, "yr": 3265, "irec": 3266, " exactly": 3267, " officers": 3268, "tly": 3269, " biggest": 3270, " quarter": 3271, " protecti": 3272, " Christ": 3273, " aren": 3274, "change": 3275, " middle": 3276, " Saturday": 3277, " Iraq": 3278, " certainl": 3279, " claims": 3280, " paid": 3281, "orney": 3282, "ago": 3283, " Donald": 3284, " appe": 3285, "ker": 3286, " required": 3287, " resource": 3288, "cle": 3289, " carry": 3290, "ligh": 3291, "sio": 3292, " initi": 3293, " More": 3294, "oud": 3295, "ham": 3296, " movie": 3297, " extra": 3298, " table": 3299, " affect": 3300, "ste": 3301, " hundred": 3302, " terroris": 3303, " solution": 3304, " incident": 3305, "perat": 3306, " products": 3307, " implemen": 3308, "ished": 3309, " Net": 3310, "estern": 3311, " looked": 3312, " stra": 3313, " McC": 3314, " finally": 3315, " *": 3316, " har": 3317, "inese": 3318, " ones": 3319, "ommen": 3320, " Soc": 3321, " term": 3322, " aw": 3323, " pan": 3324, "sing": 3325, "hers": 3326, " February": 3327, " blood": 3328, "ferenc": 3329, " screen": 3330, " professi": 3331, " prison": 3332, "uclear": 3333, "pper": 3334, " chief": 3335, "No": 3336, " provided": 3337, " 27": 3338, " summer": 3339, " giving": 3340, " stuff": 3341, " showed": 3342, "sp": 3343, " costs": 3344, " Sand": 3345, "ruct": 3346, " Qu": 3347, "resh": 3348, " Em": 3349, " user": 3350, " occur": 3351, " leading": 3352, " Pat": 3353, " changed": 3354, " stories": 3355, " details": 3356, " science": 3357, " surv": 3358, " text": 3359, "hib": 3360, " fit": 3361, " named": 3362, " quality": 3363, " communic": 3364, "ux": 3365, "oi": 3366, "\\xe3\\x81": 3367, " comments": 3368, "asion": 3369, " multiple": 3370, " Cont": 3371, " bur": 3372, " starting": 3373, " Mor": 3374, " intellig": 3375, " cris": 3376, " Coun": 3377, " damage": 3378, " location": 3379, " eight": 3380, " product": 3381, " remains": 3382, " reb": 3383, "oose": 3384, " danger": 3385, " Tur": 3386, " complain": 3387, " region": 3388, " parts": 3389, " poor": 3390, " path": 3391, "nding": 3392, " budget": 3393, " 26": 3394, " neg": 3395, " growing": 3396, " criminal": 3397, " write": 3398, "ett": 3399, " bir": 3400, " enter": 3401, " voters": 3402, "ives": 3403, " maintain": 3404, "uan": 3405, " natural": 3406, " item": 3407, " purch": 3408, " \\xd0": 3409, "oint": 3410, "arr": 3411, " Even": 3412, " writing": 3413, " mill": 3414, " >": 3415, "aves": 3416, " treatmen": 3417, " La": 3418, " culture": 3419, " fix": 3420, "ston": 3421, "....": 3422, " efforts": 3423, "kes": 3424, "ino": 3425, " wouldn": 3426, " liber": 3427, " demonstr": 3428, "AM": 3429, " died": 3430, " epis": 3431, " accom": 3432, " 28": 3433, " ready": 3434, " League": 3435, " thinking": 3436, " reading": 3437, " although": 3438, " camer": 3439, " surprise": 3440, " Texas": 3441, " spot": 3442, " guys": 3443, " subst": 3444, " Che": 3445, " unf": 3446, " argument": 3447, "ni": 3448, " kids": 3449, " Des": 3450, "aught": 3451, " perhaps": 3452, " gain": 3453, " saf": 3454, " speech": 3455, " beyond": 3456, " mob": 3457, " fill": 3458, " mat": 3459, " througho": 3460, " conferen": 3461, " First": 3462, " usually": 3463, " effects": 3464, " Minister": 3465, "atic": 3466, " directly": 3467, " TH": 3468, " Gener": 3469, "erat": 3470, " alone": 3471, "FL": 3472, "esso": 3473, " towards": 3474, " rob": 3475, " platform": 3476, " discus": 3477, "ara": 3478, " couldn": 3479, " calls": 3480, " eventual": 3481, " reality": 3482, " sens": 3483, "lish": 3484, "rim": 3485, " football": 3486, " (@": 3487, " Star": 3488, "ectio": 3489, "23": 3490, " Ser": 3491, " hospital": 3492, " generati": 3493, " avoid": 3494, " student": 3495, " bal": 3496, "27": 3497, " repe": 3498, "anis": 3499, " file": 3500, " propos": 3501, " center": 3502, " Bill": 3503, " complex": 3504, " ver": 3505, "ope": 3506, " Michael": 3507, "aly": 3508, "tes": 3509, "ounts": 3510, " includes": 3511, " wife": 3512, " choice": 3513, "anced": 3514, " Chinese": 3515, " x": 3516, " extrem": 3517, " Don": 3518, " Air": 3519, " opin": 3520, "ournali": 3521, " Val": 3522, " neighbor": 3523, "ries": 3524, "ngth": 3525, " software": 3526, " confir": 3527, " Indian": 3528, "ourag": 3529, " celeb": 3530, "zz": 3531, " Jack": 3532, "yan": 3533, " sle": 3534, " Cons": 3535, " hous": 3536, "ptio": 3537, " minister": 3538, " ahead": 3539, " scene": 3540, " gone": 3541, " designed": 3542, " agency": 3543, "BI": 3544, " battle": 3545, " ten": 3546, " James": 3547, " il": 3548, " counter": 3549, " recommen": 3550, "lict": 3551, " corporat": 3552, " corre": 3553, " officer": 3554, "Some": 3555, " agreemen": 3556, " piece": 3557, "Im": 3558, " 60": 3559, " separate": 3560, "rank": 3561, " letter": 3562, " receive": 3563, "fi": 3564, " debate": 3565, " safety": 3566, " twe": 3567, " stage": 3568, " sil": 3569, " prep": 3570, "icks": 3571, " prec": 3572, " option": 3573, " Fin": 3574, "Now": 3575, " drive": 3576, " sour": 3577, " disapp": 3578, " property": 3579, " beginnin": 3580, "All": 3581, " dom": 3582, "?\"": 3583, "tors": 3584, "adem": 3585, " Rich": 3586, " brain": 3587, "atever": 3588, " Off": 3589, " moved": 3590, " figure": 3591, " appears": 3592, " Ben": 3593, " wonder": 3594, "ca": 3595, "olute": 3596, " alleged": 3597, " helped": 3598, " store": 3599, " league": 3600, " Apple": 3601, " dark": 3602, " \u2026": 3603, "ilies": 3604, " girl": 3605, "fac": 3606, "no": 3607, " happy": 3608, "ager": 3609, " blog": 3610, " Then": 3611, " direc": 3612, " failed": 3613, "new": 3614, "raw": 3615, "asc": 3616, "ero": 3617, " launch": 3618, " investme": 3619, " passed": 3620, " roll": 3621, " tour": 3622, " nuclear": 3623, "omen": 3624, " moving": 3625, " nature": 3626, " positive": 3627, "OT": 3628, " date": 3629, " Associat": 3630, " title": 3631, " reasons": 3632, " yes": 3633, " Serv": 3634, " meaning": 3635, " clean": 3636, " distribu": 3637, " Rec": 3638, "just": 3639, " Green": 3640, "ceed": 3641, "versa": 3642, "imum": 3643, " powerful": 3644, " Super": 3645, "rd": 3646, " shooting": 3647, " maybe": 3648, "pli": 3649, "26": 3650, " crow": 3651, "hedule": 3652, " II": 3653, "rian": 3654, " touch": 3655, "rol": 3656, "riage": 3657, " aim": 3658, " device": 3659, " favorite": 3660, " myself": 3661, " deg": 3662, " limited": 3663, " ign": 3664, "urt": 3665, " Sim": 3666, " encourag": 3667, " enfor": 3668, "estin": 3669, " century": 3670, " rid": 3671, " compared": 3672, "ledg": 3673, " spending": 3674, "cas": 3675, "35": 3676, " throw": 3677, "onent": 3678, "rief": 3679, "lo": 3680, " institut": 3681, " Syria": 3682, " books": 3683, "airs": 3684, " religiou": 3685, "rican": 3686, "aughter": 3687, " largest": 3688, "enty": 3689, "iqu": 3690, "assive": 3691, " Day": 3692, "unk": 3693, "venue": 3694, " shown": 3695, " arch": 3696, " refer": 3697, " forced": 3698, " wall": 3699, "bed": 3700, " scientis": 3701, " confiden": 3702, "tie": 3703, " prevent": 3704, "Un": 3705, " inten": 3706, " eyes": 3707, " citizens": 3708, " subject": 3709, " active": 3710, " analysis": 3711, " wel": 3712, " trust": 3713, "lease": 3714, " purchase": 3715, "bum": 3716, " Intern": 3717, "grou": 3718, "anks": 3719, "45": 3720, " Of": 3721, "pen": 3722, "AP": 3723, "earch": 3724, " Here": 3725, "utin": 3726, "eles": 3727, " Comp": 3728, " followed": 3729, " college": 3730, "esti": 3731, " cat": 3732, "AD": 3733, " English": 3734, " schools": 3735, "bility": 3736, " attempt": 3737, " fa": 3738, "face": 3739, " brand": 3740, " bott": 3741, " 196": 3742, "My": 3743, " aware": 3744, "sid": 3745, " feature": 3746, " decl": 3747, " tend": 3748, "icat": 3749, " mix": 3750, "icit": 3751, "uranc": 3752, "ites": 3753, " cool": 3754, "ube": 3755, " strength": 3756, "missi": 3757, " Tor": 3758, " Smith": 3759, "ufact": 3760, "ete": 3761, " easily": 3762, "oni": 3763, " frequ": 3764, " French": 3765, " overall": 3766, "Is": 3767, " Bo": 3768, " constitu": 3769, " gives": 3770, "ngly": 3771, " behavior": 3772, " Govern": 3773, " expand": 3774, " consumer": 3775, " illeg": 3776, " Arab": 3777, " autom": 3778, " peace": 3779, " senior": 3780, " Wind": 3781, " protect": 3782, "antag": 3783, " Earth": 3784, " nice": 3785, " families": 3786, "hol": 3787, " capital": 3788, " 29": 3789, " Ant": 3790, " grad": 3791, " rock": 3792, " struggle": 3793, " allows": 3794, " dise": 3795, " sat": 3796, " income": 3797, " signed": 3798, " rap": 3799, " detail": 3800, " psych": 3801, " EU": 3802, " ideas": 3803, " uses": 3804, " conversa": 3805, " actions": 3806, " firm": 3807, " replac": 3808, " appeared": 3809, " lin": 3810, "iting": 3811, " Internat": 3812, " identifi": 3813, " decades": 3814, " smart": 3815, " ident": 3816, " bi": 3817, " cast": 3818, " experime": 3819, " credit": 3820, " explain": 3821, " schedule": 3822, " feed": 3823, " journali": 3824, "visi": 3825, " Mex": 3826, " politics": 3827, "100": 3828, " Mac": 3829, "ented": 3830, "view": 3831, " lic": 3832, " yourself": 3833, " noted": 3834, " \u00a3": 3835, " truth": 3836, "using": 3837, " crisis": 3838, " weapons": 3839, "rif": 3840, " Ac": 3841, "amb": 3842, " Bre": 3843, " electric": 3844, " alternat": 3845, " color": 3846, " door": 3847, "IA": 3848, " instance": 3849, " swe": 3850, "eline": 3851, "Accordin": 3852, " analy": 3853, "ding": 3854, " crime": 3855, "phy": 3856, "erson": 3857, " straight": 3858, " measure": 3859, "war": 3860, " Union": 3861, " manager": 3862, " consiste": 3863, " sales": 3864, " Jer": 3865, "Be": 3866, " apart": 3867, " benefits": 3868, " conflict": 3869, "OM": 3870, "ET": 3871, " charge": 3872, "hip": 3873, " display": 3874, " apparent": 3875, " projects": 3876, "New": 3877, " related": 3878, "EC": 3879, "oved": 3880, "ford": 3881, " brother": 3882, "ole": 3883, " unique": 3884, "oph": 3885, "right": 3886, " audi": 3887, " seemed": 3888, " rates": 3889, " Canadian": 3890, "By": 3891, "goti": 3892, " emo": 3893, " School": 3894, " George": 3895, "uate": 3896, " spread": 3897, " mist": 3898, " advantag": 3899, " vict": 3900, " defend": 3901, "ora": 3902, " goals": 3903, " historic": 3904, " fully": 3905, " Council": 3906, "ario": 3907, " Sa": 3908, "ui": 3909, "21": 3910, " Ber": 3911, "orida": 3912, " larger": 3913, "nds": 3914, "antas": 3915, " Tom": 3916, " select": 3917, " recogniz": 3918, " knowledg": 3919, " arm": 3920, " rule": 3921, "29": 3922, " clearly": 3923, "ga": 3924, " weekend": 3925, " lines": 3926, "ki": 3927, "etro": 3928, " attend": 3929, " minor": 3930, "nown": 3931, " kept": 3932, " save": 3933, " programs": 3934, " spir": 3935, " High": 3936, "ocked": 3937, "amin": 3938, " Police": 3939, "28": 3940, "kr": 3941, " Thom": 3942, " destroy": 3943, " los": 3944, "box": 3945, " amb": 3946, " highly": 3947, " AP": 3948, "apt": 3949, " Dis": 3950, "vere": 3951, " note": 3952, "onen": 3953, "ID": 3954, " Internet": 3955, " integ": 3956, " rare": 3957, "agu": 3958, " web": 3959, " feet": 3960, " Sal": 3961, " trou": 3962, " reached": 3963, " Germany": 3964, " departme": 3965, " critical": 3966, " primary": 3967, "inct": 3968, " places": 3969, "text": 3970, "oday": 3971, " Mart": 3972, " album": 3973, " sources": 3974, " studies": 3975, " greater": 3976, " prem": 3977, " programm": 3978, "term": 3979, " respect": 3980, " teac": 3981, " knows": 3982, " reform": 3983, "sey": 3984, "bon": 3985, " tro": 3986, " essentia": 3987, " voice": 3988, " options": 3989, " normal": 3990, " Franc": 3991, " Well": 3992, "ators": 3993, " Rob": 3994, " audience": 3995, " agg": 3996, " Asi": 3997, " fine": 3998, " mech": 3999, "ategy": 4000, " Up": 4001, " rise": 4002, " caused": 4003, " laun": 4004, " claimed": 4005, " activity": 4006, "org": 4007, " 2007": 4008, "anic": 4009, "yer": 4010, " owners": 4011, "ossi": 4012, "room": 4013, " directio": 4014, " fan": 4015, "Pro": 4016, " ultimate": 4017, "EO": 4018, " ;": 4019, "alle": 4020, " England": 4021, " Sci": 4022, " enem": 4023, " fighting": 4024, " contact": 4025, " capt": 4026, " Gold": 4027, "70": 4028, "oul": 4029, " manufact": 4030, " status": 4031, " raised": 4032, " concerns": 4033, " listen": 4034, "alse": 4035, " haven": 4036, " willing": 4037, " plant": 4038, "nson": 4039, " cities": 4040, "gotiat": 4041, " pros": 4042, " General": 4043, "dom": 4044, "owers": 4045, "cs": 4046, " prices": 4047, "iers": 4048, " ended": 4049, " virt": 4050, "):": 4051, "ises": 4052, "ado": 4053, " shut": 4054, " calling": 4055, "net": 4056, " cli": 4057, " names": 4058, " emp": 4059, " supposed": 4060, "oon": 4061, " asse": 4062, " policies": 4063, " happens": 4064, ".\u2019": 4065, " exchange": 4066, "iverse": 4067, "LL": 4068, " charges": 4069, " Def": 4070, "estic": 4071, "500": 4072, "ortion": 4073, " female": 4074, "icago": 4075, "idge": 4076, "ival": 4077, " Every": 4078, " weight": 4079, " From": 4080, " central": 4081, "aste": 4082, "alled": 4083, " Institut": 4084, " pun": 4085, " beat": 4086, " adding": 4087, "hem": 4088, " reporter": 4089, " absolute": 4090, "merci": 4091, "rig": 4092, " prod": 4093, " basic": 4094, " funding": 4095, "pose": 4096, "\u201d,": 4097, " Bel": 4098, " slight": 4099, " marriage": 4100, " lay": 4101, " seeing": 4102, " fly": 4103, " Reg": 4104, " agree": 4105, "aming": 4106, " daughter": 4107, "oring": 4108, " jump": 4109, " compar": 4110, " creating": 4111, " mur": 4112, "till": 4113, "Ar": 4114, " scen": 4115, " freedom": 4116, "iled": 4117, " Sun": 4118, " champion": 4119, " patients": 4120, " admit": 4121, " station": 4122, "win": 4123, "va": 4124, " offered": 4125, "amen": 4126, "ocate": 4127, " engineer": 4128, "cally": 4129, " opponent": 4130, " ensure": 4131, "\u043e": 4132, " domin": 4133, "SA": 4134, " mostly": 4135, " Florida": 4136, " style": 4137, "oted": 4138, " acqu": 4139, " birth": 4140, " Bay": 4141, " http": 4142, " impl": 4143, " leaving": 4144, "itial": 4145, " cry": 4146, "itiv": 4147, " eth": 4148, "oli": 4149, "ntly": 4150, " Play": 4151, " ir": 4152, " mer": 4153, "ya": 4154, " Mag": 4155, " street": 4156, "ses": 4157, "Com": 4158, " indicate": 4159, " actual": 4160, " learned": 4161, " Let": 4162, "Con": 4163, " Scott": 4164, " Ham": 4165, " posted": 4166, "abili": 4167, " adop": 4168, " Brown": 4169, "ws": 4170, " threaten": 4171, "ua": 4172, "33": 4173, " negotiat": 4174, " grand": 4175, "Le": 4176, " gold": 4177, "75": 4178, " Most": 4179, " transfer": 4180, "agon": 4181, " disp": 4182, " revealed": 4183, " meant": 4184, "tiona": 4185, "roid": 4186, "isa": 4187, ".'": 4188, "ares": 4189, "add": 4190, " celebrat": 4191, " green": 4192, "Here": 4193, "wis": 4194, "sof": 4195, " Alex": 4196, "adi": 4197, " enforce": 4198, "aby": 4199, " believed": 4200, " Lou": 4201, "ountain": 4202, " Secret": 4203, "liame": 4204, " uns": 4205, "abil": 4206, " brief": 4207, " lose": 4208, " interact": 4209, " Accordin": 4210, " records": 4211, "wher": 4212, " prosecut": 4213, "ij": 4214, "ht": 4215, " Hillary": 4216, " whom": 4217, "90": 4218, "azing": 4219, " cars": 4220, " values": 4221, " dram": 4222, "lude": 4223, " referenc": 4224, " command": 4225, " picture": 4226, " appearan": 4227, "band": 4228, " wild": 4229, " universi": 4230, "www": 4231, " choose": 4232, " People": 4233, " limit": 4234, " whatever": 4235, " vac": 4236, " border": 4237, "ength": 4238, " massive": 4239, " fat": 4240, " strategy": 4241, " images": 4242, "Ex": 4243, " parties": 4244, " Oh": 4245, " Health": 4246, " feeling": 4247, " benefit": 4248, "OU": 4249, " Cr": 4250, " beg": 4251, " arrested": 4252, " proposal": 4253, "ales": 4254, " Phil": 4255, "icien": 4256, " nor": 4257, " Committe": 4258, "ttps": 4259, "ugg": 4260, "wards": 4261, " asking": 4262, "cast": 4263, "olic": 4264, " district": 4265, "arij": 4266, "odes": 4267, " France": 4268, " wat": 4269, " Law": 4270, " Korea": 4271, " showing": 4272, "hood": 4273, "However": 4274, " Commissi": 4275, "ector": 4276, " produced": 4277, " televisi": 4278, " mission": 4279, " runs": 4280, " Chicago": 4281, " Bush": 4282, " devices": 4283, " correct": 4284, " oppositi": 4285, "ipe": 4286, " trial": 4287, " unc": 4288, " Wall": 4289, "ona": 4290, " walk": 4291, " provides": 4292, " Trans": 4293, " wit": 4294, " Why": 4295, "arijuan": 4296, " confirme": 4297, " eye": 4298, "ategi": 4299, "lit": 4300, " Press": 4301, " request": 4302, "ende": 4303, " Port": 4304, " Inte": 4305, "ocks": 4306, "bur": 4307, "CC": 4308, " offers": 4309, "ushed": 4310, " controll": 4311, "cipl": 4312, "icrosof": 4313, "ising": 4314, "ante": 4315, "itor": 4316, " regulati": 4317, "erin": 4318, " install": 4319, "tifu": 4320, " generate": 4321, " Because": 4322, " male": 4323, "ogy": 4324, "tional": 4325, " produce": 4326, " 80": 4327, " worse": 4328, " learning": 4329, "arc": 4330, " dollars": 4331, " restrict": 4332, " etc": 4333, " Miss": 4334, "oes": 4335, " \\xc3": 4336, " daily": 4337, " Other": 4338, " chair": 4339, " vill": 4340, "fl": 4341, "aked": 4342, " occasion": 4343, "redib": 4344, " digital": 4345, " Mike": 4346, "BA": 4347, " agreed": 4348, " hero": 4349, "ounds": 4350, " exten": 4351, " opening": 4352, " Justice": 4353, "fort": 4354, " debt": 4355, " millions": 4356, " Johnson": 4357, " highest": 4358, " Sam": 4359, " map": 4360, " section": 4361, "These": 4362, " Palestin": 4363, " opinion": 4364, " explaine": 4365, " partners": 4366, "outhern": 4367, " heavy": 4368, " vs": 4369, " theory": 4370, " sentence": 4371, " obser": 4372, " Del": 4373, "etty": 4374, " photogra": 4375, "uman": 4376, "ING": 4377, " basis": 4378, "tims": 4379, " defe": 4380, " generall": 4381, "GB": 4382, " definite": 4383, " tick": 4384, " Ter": 4385, " Security": 4386, " der": 4387, " onto": 4388, " proposed": 4389, " negative": 4390, " born": 4391, " Cup": 4392, " commerci": 4393, " constant": 4394, " Mod": 4395, " possibil": 4396, " Mal": 4397, " becomes": 4398, " accused": 4399, " memory": 4400, "know": 4401, " Found": 4402, " ang": 4403, "ka": 4404, " drop": 4405, " controve": 4406, " Office": 4407, " achieve": 4408, " chem": 4409, " ice": 4410, "anta": 4411, " types": 4412, "vil": 4413, "serv": 4414, " dangerou": 4415, " photo": 4416, " sleep": 4417, "genc": 4418, "FC": 4419, " ship": 4420, " initial": 4421, "ST": 4422, " miles": 4423, "upp": 4424, " Mad": 4425, " Great": 4426, "ournal": 4427, " concept": 4428, " Our": 4429, " hundreds": 4430, " load": 4431, "azine": 4432, " frame": 4433, "agan": 4434, "known": 4435, " thus": 4436, " species": 4437, " surround": 4438, " camera": 4439, " Many": 4440, "za": 4441, " double": 4442, " obtain": 4443, "enti": 4444, " NFL": 4445, " AM": 4446, " activist": 4447, "level": 4448, " winning": 4449, " opened": 4450, "nces": 4451, "44": 4452, "inary": 4453, "orthern": 4454, " assistan": 4455, "zen": 4456, " esc": 4457, " 90": 4458, "uild": 4459, "lied": 4460, " becoming": 4461, "scrib": 4462, " regul": 4463, " belief": 4464, "Mr": 4465, "idin": 4466, " leadersh": 4467, " apply": 4468, "nesse": 4469, " politici": 4470, " Big": 4471, "autifu": 4472, "yrigh": 4473, " hearing": 4474, "Not": 4475, "orrow": 4476, " shared": 4477, "rey": 4478, " unlike": 4479, " episode": 4480, " nine": 4481, " advertis": 4482, " wealth": 4483, "witch": 4484, " Western": 4485, " bottom": 4486, " solid": 4487, " teach": 4488, " easier": 4489, " Commun": 4490, " judge": 4491, " Windows": 4492, "whil": 4493, "bi": 4494, "but": 4495, " attorney": 4496, " church": 4497, " Lab": 4498, "ipa": 4499, "36": 4500, " manageme": 4501, " 35": 4502, "ady": 4503, " extremel": 4504, "PA": 4505, " faith": 4506, "BS": 4507, "igned": 4508, " illegal": 4509, " serve": 4510, " harm": 4511, " reduce": 4512, "ada": 4513, "obby": 4514, " contain": 4515, " Hall": 4516, " ge": 4517, " victory": 4518, " 2006": 4519, " coal": 4520, " existing": 4521, "irgin": 4522, "ully": 4523, " served": 4524, " Yes": 4525, "cha": 4526, " mental": 4527, "NA": 4528, " returned": 4529, "ta": 4530, "isio": 4531, "down": 4532, " sun": 4533, " notice": 4534, " predic": 4535, " Church": 4536, " doubt": 4537, "32": 4538, "vely": 4539, " notes": 4540, " machine": 4541, "38": 4542, " Inc": 4543, " mobile": 4544, " purpose": 4545, " 31": 4546, " watching": 4547, " Sanders": 4548, "rica": 4549, " Islamic": 4550, " victims": 4551, " Wil": 4552, " putting": 4553, " bed": 4554, " internet": 4555, "ea": 4556, " transpor": 4557, " backgrou": 4558, " die": 4559, "hibit": 4560, "lined": 4561, " launched": 4562, "osit": 4563, " score": 4564, " radio": 4565, " max": 4566, "ores": 4567, " labor": 4568, "pape": 4569, " bomb": 4570, " drugs": 4571, " coverage": 4572, "which": 4573, " false": 4574, " traffic": 4575, " finish": 4576, " core": 4577, " Dist": 4578, " fresh": 4579, " vehicle": 4580, " driver": 4581, " PM": 4582, " views": 4583, " flag": 4584, "oms": 4585, "ima": 4586, " appeal": 4587, " aud": 4588, " incredib": 4589, " Your": 4590, " micro": 4591, " decade": 4592, " suggeste": 4593, " floor": 4594, " purs": 4595, " Fox": 4596, " disease": 4597, "fu": 4598, " stated": 4599, "oyal": 4600, "\u0430": 4601, "48": 4602, " insuranc": 4603, "ears": 4604, "racti": 4605, " insp": 4606, " Since": 4607, " temperat": 4608, "bod": 4609, " Over": 4610, " cards": 4611, " stress": 4612, " categ": 4613, "oles": 4614, " spoke": 4615, "Amer": 4616, " items": 4617, " Carol": 4618, " worst": 4619, "kin": 4620, "\u00e1": 4621, "\":": 4622, " lif": 4623, " charged": 4624, " sites": 4625, " Afgh": 4626, " marijuan": 4627, " ded": 4628, " responde": 4629, " telling": 4630, "more": 4631, " Que": 4632, " animals": 4633, " Britain": 4634, "well": 4635, " repeated": 4636, " plays": 4637, " Like": 4638, "Me": 4639, "ientif": 4640, "tra": 4641, "era": 4642, " driving": 4643, "oly": 4644, " entirely": 4645, " Los": 4646, " issued": 4647, "usband": 4648, "55": 4649, "inger": 4650, "gu": 4651, "EM": 4652, " expressi": 4653, "acks": 4654, "andom": 4655, "equ": 4656, "antic": 4657, " smaller": 4658, " resta": 4659, " crowd": 4660, " surface": 4661, " restaura": 4662, " professo": 4663, " impressi": 4664, "rary": 4665, "Image": 4666, "akistan": 4667, "ulf": 4668, "iced": 4669, " 70": 4670, " please": 4671, " Are": 4672, " principl": 4673, " Mer": 4674, " Cal": 4675, "37": 4676, " finding": 4677, "gar": 4678, " concerne": 4679, " dog": 4680, " Nor": 4681, " Bal": 4682, " efficien": 4683, " Game": 4684, " Ukr": 4685, "PS": 4686, " justice": 4687, "lick": 4688, " Sup": 4689, "ovati": 4690, "!\u201d": 4691, " sett": 4692, " cash": 4693, " activiti": 4694, "acity": 4695, " tools": 4696, "ros": 4697, " north": 4698, " afford": 4699, " closed": 4700, " accur": 4701, "sto": 4702, " caught": 4703, " Jewish": 4704, "34": 4705, " object": 4706, " older": 4707, " highligh": 4708, " concern": 4709, "how": 4710, " truly": 4711, " FBI": 4712, " offensiv": 4713, " fuel": 4714, " Liber": 4715, " Bank": 4716, " raise": 4717, "mo": 4718, " conseque": 4719, ">>": 4720, " Ken": 4721, "rant": 4722, " Jones": 4723, "icking": 4724, "azon": 4725, "ology": 4726, " Robert": 4727, " Lib": 4728, "lig": 4729, " murder": 4730, " Sil": 4731, "ifie": 4732, " annual": 4733, " organize": 4734, "olf": 4735, " grant": 4736, "NN": 4737, " rough": 4738, "onto": 4739, " largely": 4740, "SP": 4741, " blue": 4742, " allowing": 4743, " sess": 4744, " requires": 4745, "bre": 4746, "seas": 4747, " Jud": 4748, "icy": 4749, " UN": 4750, "iliar": 4751, "ercise": 4752, "\u0435": 4753, " od": 4754, "\u2018": 4755, " Tre": 4756, " planning": 4757, "ivin": 4758, " update": 4759, " deliver": 4760, " hair": 4761, "ians": 4762, " tim": 4763, " unit": 4764, " Island": 4765, "met": 4766, "CH": 4767, "ounte": 4768, " strategi": 4769, " Att": 4770, "itali": 4771, "ifi": 4772, " criticis": 4773, "osop": 4774, " farm": 4775, "itcoin": 4776, " burn": 4777, "DA": 4778, " believes": 4779, " Ma": 4780, "otor": 4781, " guess": 4782, "iny": 4783, "field": 4784, " holding": 4785, " novel": 4786, " comfort": 4787, " Mos": 4788, "EL": 4789, "RA": 4790, " sequ": 4791, "sed": 4792, "raf": 4793, " draft": 4794, "ossib": 4795, " internal": 4796, " commissi": 4797, "oria": 4798, " catch": 4799, "iant": 4800, " 2005": 4801, "llen": 4802, " Microsof": 4803, " Atl": 4804, "iding": 4805, " cong": 4806, " length": 4807, " religion": 4808, " famous": 4809, " spokesma": 4810, " waiting": 4811, " placed": 4812, " gay": 4813, " wish": 4814, " assess": 4815, " testing": 4816, " Africa": 4817, " GOP": 4818, "oices": 4819, " Research": 4820, "enge": 4821, "ocrac": 4822, " Bur": 4823, " husband": 4824, " suggest": 4825, " phil": 4826, "ritor": 4827, "clusi": 4828, " Mill": 4829, " enforcem": 4830, " register": 4831, " graph": 4832, " African": 4833, " hasn": 4834, " rout": 4835, "mis": 4836, " Win": 4837, " presence": 4838, " componen": 4839, "\\xe2\\x96": 4840, "mark": 4841, " banks": 4842, " sports": 4843, " download": 4844, " domestic": 4845, " funds": 4846, "Our": 4847, "ava": 4848, " survey": 4849, " mentione": 4850, "pan": 4851, " beautifu": 4852, " scale": 4853, " eat": 4854, " Stud": 4855, " missing": 4856, " refuge": 4857, "itec": 4858, " supply": 4859, " models": 4860, " cells": 4861, " industri": 4862, "More": 4863, " amazing": 4864, " joined": 4865, "gers": 4866, "dow": 4867, "siv": 4868, " Fre": 4869, " Jim": 4870, " identify": 4871, " Leg": 4872, " sem": 4873, "Pl": 4874, "lett": 4875, " earth": 4876, "antly": 4877, "39": 4878, " photos": 4879, " providin": 4880, " kid": 4881, " Israeli": 4882, " suggesti": 4883, " stock": 4884, " Governme": 4885, " homes": 4886, " Instead": 4887, "!!": 4888, "annel": 4889, "irector": 4890, " removed": 4891, " occup": 4892, " girls": 4893, "osh": 4894, " sud": 4895, " therefor": 4896, "eah": 4897, " measures": 4898, " CEO": 4899, " stopped": 4900, " standing": 4901, " Kh": 4902, " abuse": 4903, " Group": 4904, " reaction": 4905, "47": 4906, "real": 4907, " transfor": 4908, " tells": 4909, " Jeff": 4910, " newspape": 4911, " fish": 4912, " Ver": 4913, " kick": 4914, " conce": 4915, " PC": 4916, "what": 4917, " Fore": 4918, " frequent": 4919, "isted": 4920, " managed": 4921, "Des": 4922, " keeping": 4923, " supporti": 4924, " 2000": 4925, " chec": 4926, " useful": 4927, "ini": 4928, "rid": 4929, "encies": 4930, "pte": 4931, " finished": 4932, "49": 4933, "TC": 4934, " Supreme": 4935, " batter": 4936, "clusiv": 4937, "igan": 4938, "wing": 4939, " Pakistan": 4940, " offering": 4941, " fourth": 4942, " cancer": 4943, " victim": 4944, "agn": 4945, " scri": 4946, " sides": 4947, " fantas": 4948, " Angeles": 4949, " smo": 4950, " injury": 4951, " Inter": 4952, " Jose": 4953, "knowle": 4954, " MP": 4955, "icon": 4956, "wid": 4957, " Mat": 4958, " acknowle": 4959, "gical": 4960, " techniqu": 4961, " technica": 4962, " Secretar": 4963, " Pri": 4964, " conver": 4965, " otherwis": 4966, " partner": 4967, " south": 4968, "ups": 4969, "itude": 4970, "ships": 4971, " Virgin": 4972, " prefer": 4973, "olly": 4974, " Read": 4975, " Sl": 4976, " defensiv": 4977, "endmen": 4978, " conventi": 4979, "\u2014\u2014": 4980, " tough": 4981, " Prof": 4982, " Japanese": 4983, " Ryan": 4984, "itt": 4985, " park": 4986, " util": 4987, " libr": 4988, " focused": 4989, " feels": 4990, " Tim": 4991, " files": 4992, " exceptio": 4993, " Pre": 4994, " Web": 4995, " factor": 4996, " bul": 4997, " identity": 4998, "rupti": 4999, " appropri": 5000, " trip": 5001, "istry": 5002, " hack": 5003, "abilit": 5004, "forme": 5005, "xim": 5006, "stitu": 5007, "inen": 5008, "rick": 5009, " impossib": 5010, " happenin": 5011, "uke": 5012, "--------": 5013, " setting": 5014, " arrived": 5015, " weak": 5016, " tweet": 5017, " guard": 5018, " din": 5019, "lecte": 5020, " skills": 5021, "ils": 5022, " figures": 5023, " circum": 5024, " 2018": 5025, "icide": 5026, "ucky": 5027, " Mexico": 5028, " steps": 5029, " owner": 5030, "ipped": 5031, " cas": 5032, " slightly": 5033, " coin": 5034, "Bl": 5035, "iams": 5036, " Louis": 5037, " suit": 5038, "udd": 5039, " presente": 5040, "ket": 5041, " cove": 5042, "Sp": 5043, " Android": 5044, " context": 5045, " hate": 5046, " starts": 5047, " housing": 5048, "ently": 5049, " figh": 5050, " corner": 5051, " killing": 5052, " que": 5053, "enses": 5054, " mere": 5055, "Photo": 5056, " Sub": 5057, " obj": 5058, " veter": 5059, " instruct": 5060, " exercise": 5061, " liter": 5062, "yp": 5063, " Sur": 5064, " Team": 5065, " perce": 5066, "46": 5067, " taxes": 5068, " immigrat": 5069, " Frank": 5070, " Rock": 5071, " emergenc": 5072, "kins": 5073, " pair": 5074, " fle": 5075, " Joe": 5076, " dat": 5077, " familiar": 5078, " Although": 5079, "Why": 5080, "rastr": 5081, " gender": 5082, " =>": 5083, " speaking": 5084, "aging": 5085, " suggests": 5086, " bigger": 5087, "lor": 5088, "riz": 5089, "iance": 5090, "ey": 5091, " fellow": 5092, " \\": 5093, " remind": 5094, " failure": 5095, " window": 5096, " strike": 5097, " Army": 5098, " talks": 5099, " Good": 5100, " elements": 5101, " requirem": 5102, " revoluti": 5103, " spect": 5104, "ends": 5105, " Champion": 5106, " bag": 5107, " protest": 5108, "run": 5109, "itab": 5110, " planned": 5111, "ania": 5112, "going": 5113, "mod": 5114, "endo": 5115, " seek": 5116, " award": 5117, " carried": 5118, " sust": 5119, " beer": 5120, "where": 5121, " Add": 5122, " decide": 5123, " translat": 5124, "ucture": 5125, " Martin": 5126, " fir": 5127, " helping": 5128, "ourname": 5129, " mig": 5130, " planet": 5131, " sudden": 5132, "uing": 5133, " Bitcoin": 5134, "oston": 5135, " automati": 5136, "ocal": 5137, " distance": 5138, " turns": 5139, " conclude": 5140, " Also": 5141, " dropped": 5142, " Foundati": 5143, " seconds": 5144, "leagu": 5145, " accident": 5146, " THE": 5147, " humans": 5148, "tai": 5149, " thanks": 5150, " Ev": 5151, " Mary": 5152, " Their": 5153, "HL": 5154, " task": 5155, " Pen": 5156, "anging": 5157, " none": 5158, "Last": 5159, "ours": 5160, " Ir": 5161, " votes": 5162, "vi": 5163, " sounds": 5164, " Service": 5165, " 32": 5166, " prospect": 5167, " scientif": 5168, "ola": 5169, "estiv": 5170, "pet": 5171, "AA": 5172, " filed": 5173, " broadcas": 5174, " Den": 5175, " balance": 5176, " pet": 5177, "tan": 5178, "65": 5179, "ynam": 5180, "Trump": 5181, " Mil": 5182, "see": 5183, "ocking": 5184, " markets": 5185, " du": 5186, " army": 5187, " accounts": 5188, " medic": 5189, "part": 5190, " operatin": 5191, "pm": 5192, " optim": 5193, " performe": 5194, " calc": 5195, " rich": 5196, "\\xe3\\x82": 5197, " pil": 5198, " aggressi": 5199, "!\"": 5200, "eds": 5201, " vul": 5202, " healthy": 5203, " possibly": 5204, "gn": 5205, " Thomas": 5206, " 45": 5207, "ocol": 5208, " Syrian": 5209, " academ": 5210, " worry": 5211, "tally": 5212, " units": 5213, " cold": 5214, " Prime": 5215, " sea": 5216, " variety": 5217, " Carolina": 5218, " convic": 5219, " sch": 5220, "ih": 5221, " stor": 5222, " union": 5223, "cher": 5224, " cuts": 5225, " changing": 5226, " Str": 5227, "with": 5228, " poss": 5229, " experts": 5230, "ords": 5231, "umn": 5232, "rency": 5233, "LE": 5234, "arante": 5235, " Peter": 5236, " rou": 5237, " percenta": 5238, "].": 5239, "tee": 5240, " Mur": 5241, " animal": 5242, " Lin": 5243, " agencies": 5244, " Fire": 5245, "\\xe3\\x83": 5246, " philosop": 5247, " equip": 5248, " Middle": 5249, "craft": 5250, "stre": 5251, " ath": 5252, " tack": 5253, " penal": 5254, "cing": 5255, "American": 5256, "From": 5257, " deploy": 5258, " tes": 5259, " Egy": 5260, "Read": 5261, " territor": 5262, " College": 5263, " Jes": 5264, " honest": 5265, " Open": 5266, " suc": 5267, "icate": 5268, " tests": 5269, " assault": 5270, "bar": 5271, " losing": 5272, " expresse": 5273, " vast": 5274, " degree": 5275, "wers": 5276, " regardin": 5277, "ooking": 5278, "terda": 5279, " Bern": 5280, " flight": 5281, " Images": 5282, " transiti": 5283, " reject": 5284, " seeking": 5285, " colleagu": 5286, "rog": 5287, " fundamen": 5288, "coh": 5289, " paying": 5290, " statisti": 5291, " lived": 5292, "adium": 5293, "roo": 5294, " server": 5295, " error": 5296, " developi": 5297, " Tra": 5298, " bod": 5299, " Two": 5300, " closer": 5301, "othing": 5302, "woo": 5303, "awn": 5304, " sitting": 5305, " Time": 5306, "cel": 5307, "ntal": 5308, "eder": 5309, "do": 5310, " yards": 5311, " vision": 5312, " integrat": 5313, "aven": 5314, " island": 5315, " cultural": 5316, " District": 5317, "nerab": 5318, " earn": 5319, "ym": 5320, " numer": 5321, " twice": 5322, " Spe": 5323, "lan": 5324, "iminat": 5325, "uall": 5326, "cont": 5327, " heat": 5328, "Even": 5329, "31": 5330, "zer": 5331, " USA": 5332, "Of": 5333, " gar": 5334, " settle": 5335, "ordina": 5336, " imagine": 5337, " containe": 5338, " Out": 5339, " flow": 5340, "ruit": 5341, "TI": 5342, "ena": 5343, "illed": 5344, " Fe": 5345, " writer": 5346, "rible": 5347, " investor": 5348, "mate": 5349, " Toronto": 5350, " 2004": 5351, " expensiv": 5352, " infrastr": 5353, "enda": 5354, " Under": 5355, " shall": 5356, " adjust": 5357, "rupt": 5358, "mail": 5359, " Central": 5360, "aces": 5361, " interpre": 5362, " Nov": 5363, " solar": 5364, " soldiers": 5365, "bu": 5366, "owl": 5367, " improvem": 5368, " teen": 5369, "ND": 5370, " Williams": 5371, " Last": 5372, "recia": 5373, "verse": 5374, " covered": 5375, "top": 5376, "name": 5377, " Plan": 5378, " tens": 5379, "OL": 5380, " unless": 5381, "operat": 5382, " symb": 5383, " forms": 5384, " skin": 5385, "Just": 5386, " tight": 5387, "sell": 5388, "arks": 5389, " arms": 5390, " magazine": 5391, " Francisc": 5392, " popul": 5393, "rend": 5394, " Cath": 5395, " perspect": 5396, " fif": 5397, " eliminat": 5398, "Sc": 5399, " mil": 5400, " advis": 5401, " streets": 5402, "rease": 5403, "pho": 5404, " Amazon": 5405, " Boston": 5406, " definiti": 5407, "nment": 5408, "rison": 5409, " helps": 5410, "ission": 5411, " prime": 5412, "ribut": 5413, "ght": 5414, " intended": 5415, " Chief": 5416, " capacity": 5417, "ending": 5418, " Camp": 5419, "gment": 5420, " hyp": 5421, " guarante": 5422, "cedur": 5423, " fol": 5424, "iling": 5425, " vehicles": 5426, " occurred": 5427, " Lake": 5428, " dress": 5429, " Those": 5430, " Virginia": 5431, ".\u201d<|": 5432, " Public": 5433, "ranch": 5434, " artist": 5435, " Kn": 5436, " factors": 5437, "Let": 5438, " prepared": 5439, " Jon": 5440, " exclusiv": 5441, " discuss": 5442, "anwhil": 5443, " carbon": 5444, " fired": 5445, " selec": 5446, "apse": 5447, " selling": 5448, " bringing": 5449, " intentio": 5450, " Mo": 5451, " Gre": 5452, "ables": 5453, " immigran": 5454, " random": 5455, " Ve": 5456, " sport": 5457, " baby": 5458, "\u0442": 5459, " plenty": 5460, " Social": 5461, " broken": 5462, "Ne": 5463, " brow": 5464, "roud": 5465, " Gal": 5466, "osen": 5467, " advocate": 5468, "lymp": 5469, "noo": 5470, " vulnerab": 5471, " producer": 5472, " combat": 5473, " Any": 5474, " prove": 5475, "nted": 5476, " conclusi": 5477, "\u0438": 5478, "OW": 5479, " rapid": 5480, " equipmen": 5481, " pieces": 5482, "TH": 5483, "centr": 5484, " equal": 5485, "ota": 5486, " troops": 5487, " sector": 5488, "works": 5489, "TS": 5490, " heav": 5491, " Paris": 5492, " clin": 5493, " calculat": 5494, " Rem": 5495, " Tal": 5496, " era": 5497, " distinct": 5498, "mm": 5499, "isit": 5500, "athe": 5501, "pted": 5502, " Richard": 5503, " weren": 5504, " seasons": 5505, " Director": 5506, "rimi": 5507, "vity": 5508, " allegati": 5509, " conducte": 5510, " mut": 5511, "fare": 5512, "wal": 5513, "phas": 5514, " jail": 5515, " Prot": 5516, "ified": 5517, " ton": 5518, " located": 5519, " faster": 5520, " secure": 5521, "oma": 5522, " broke": 5523, " Please": 5524, " creation": 5525, " remained": 5526, " governor": 5527, " council": 5528, "ader": 5529, "ached": 5530, " master": 5531, " During": 5532, " pointed": 5533, " sale": 5534, " division": 5535, " Once": 5536, " voted": 5537, "anish": 5538, " breat": 5539, " Mel": 5540, " electron": 5541, " Spec": 5542, " remove": 5543, " affected": 5544, " grew": 5545, " chemical": 5546, "Pol": 5547, " Gra": 5548, "uters": 5549, "estival": 5550, " retail": 5551, "Every": 5552, " expan": 5553, " refused": 5554, "whe": 5555, " methods": 5556, " bought": 5557, "95": 5558, " sister": 5559, " expert": 5560, " ruling": 5561, ",'": 5562, " facing": 5563, " elected": 5564, "RI": 5565, " qualif": 5566, " stick": 5567, "ae": 5568, " combinat": 5569, " violent": 5570, " Guard": 5571, " convince": 5572, " Rel": 5573, "=\"": 5574, " nomin": 5575, " River": 5576, " Photo": 5577, " Charl": 5578, " remainin": 5579, " greatest": 5580, "Pe": 5581, " 1990": 5582, " signs": 5583, "olutio": 5584, "First": 5585, " trig": 5586, "ipp": 5587, "that": 5588, "ternal": 5589, " indeed": 5590, "uzz": 5591, " leads": 5592, " Olymp": 5593, "useum": 5594, " stars": 5595, "##": 5596, " minimum": 5597, " except": 5598, " Pac": 5599, " youth": 5600, " surve": 5601, "rier": 5602, " Cur": 5603, " innovati": 5604, " afternoo": 5605, "rants": 5606, " arr": 5607, " Lee": 5608, "lies": 5609, " Mont": 5610, "tives": 5611, "64": 5612, " obviousl": 5613, "PD": 5614, " Color": 5615, "%)": 5616, " spring": 5617, "nel": 5618, " 500": 5619, "rific": 5620, " agent": 5621, " recorded": 5622, "illa": 5623, "ashion": 5624, " voting": 5625, " resoluti": 5626, " revenue": 5627, " tourname": 5628, " surprisi": 5629, "01": 5630, " dream": 5631, " privacy": 5632, " explos": 5633, " marg": 5634, "Up": 5635, "othes": 5636, " dim": 5637, "abase": 5638, " weapon": 5639, " mal": 5640, " shape": 5641, " involve": 5642, "Don": 5643, "Since": 5644, " interven": 5645, " Who": 5646, " wood": 5647, " apprecia": 5648, " emotiona": 5649, " transact": 5650, "lyn": 5651, " videos": 5652, "ano": 5653, " motiv": 5654, " Sing": 5655, "cient": 5656, " belong": 5657, " abortion": 5658, "usio": 5659, "word": 5660, "anch": 5661, " argued": 5662, " expos": 5663, " switch": 5664, "anat": 5665, "under": 5666, " mov": 5667, "LA": 5668, " plus": 5669, "ache": 5670, " procedur": 5671, "ustrat": 5672, "Ste": 5673, "road": 5674, " reduced": 5675, " Federal": 5676, "coin": 5677, " copyrigh": 5678, " ST": 5679, " excited": 5680, "acle": 5681, " concentr": 5682, " Rub": 5683, " wearing": 5684, " glass": 5685, " herself": 5686, " Both": 5687, "ained": 5688, " Pet": 5689, " regime": 5690, " aircraft": 5691, "====": 5692, " Mass": 5693, " drin": 5694, " bound": 5695, " hurt": 5696, " id": 5697, " contrast": 5698, "Well": 5699, " mode": 5700, " 195": 5701, " Conserva": 5702, "osphe": 5703, " stret": 5704, " discl": 5705, " discusse": 5706, " basicall": 5707, "full": 5708, "His": 5709, " combined": 5710, " shift": 5711, " crew": 5712, " commitme": 5713, " Ty": 5714, " seat": 5715, "uts": 5716, " thr": 5717, " Steve": 5718, " suspect": 5719, "iler": 5720, " civilian": 5721, "cean": 5722, " wa": 5723, " vir": 5724, " treated": 5725, " Free": 5726, "ustra": 5727, " talked": 5728, " Daily": 5729, " Catholic": 5730, " ends": 5731, "abet": 5732, " minute": 5733, "http": 5734, " tact": 5735, " pulled": 5736, " Today": 5737, " initiati": 5738, " seriousl": 5739, " BBC": 5740, " opposed": 5741, " apps": 5742, " widely": 5743, "igur": 5744, " turning": 5745, " lots": 5746, "asure": 5747, "osi": 5748, " tun": 5749, "DP": 5750, " aid": 5751, "gia": 5752, " pitch": 5753, " package": 5754, " hopes": 5755, "SS": 5756, " Road": 5757, "lets": 5758, "()": 5759, " Force": 5760, "rint": 5761, "ivere": 5762, " plants": 5763, " tur": 5764, " Fer": 5765, " passing": 5766, " bull": 5767, "maker": 5768, " panel": 5769, "ertai": 5770, " powers": 5771, "Ab": 5772, "Cl": 5773, " sad": 5774, "Another": 5775, " Power": 5776, " capitali": 5777, " handle": 5778, "log": 5779, " films": 5780, "vant": 5781, " proceed": 5782, " attempts": 5783, " Prog": 5784, " denied": 5785, "Rep": 5786, "eless": 5787, "uries": 5788, "alls": 5789, "App": 5790, " sac": 5791, " explo": 5792, " 2003": 5793, "class": 5794, " Haw": 5795, "reek": 5796, " pages": 5797, " https": 5798, " writes": 5799, "wes": 5800, "mosphe": 5801, " evening": 5802, "Am": 5803, " disappoi": 5804, " enemy": 5805, "cation": 5806, " Step": 5807, "gies": 5808, " fra": 5809, " renew": 5810, " psycholo": 5811, " visual": 5812, " addresse": 5813, " advance": 5814, " Jackson": 5815, " valid": 5816, " sets": 5817, "Ind": 5818, " upgr": 5819, "astic": 5820, "edy": 5821, " accurate": 5822, " loved": 5823, "bing": 5824, " split": 5825, " grab": 5826, " giant": 5827, " copy": 5828, "TV": 5829, "arp": 5830, " trouble": 5831, " Turkey": 5832, " capable": 5833, " alcoh": 5834, "gl": 5835, "05": 5836, "mond": 5837, "Do": 5838, " matters": 5839, "MA": 5840, " reasonab": 5841, " frustrat": 5842, "ageme": 5843, "wa": 5844, "orial": 5845, " forget": 5846, " stands": 5847, " collabor": 5848, "\\x82\\xac": 5849, " encounte": 5850, " satis": 5851, " unable": 5852, "respo": 5853, "alit": 5854, "razy": 5855, "Over": 5856, "42": 5857, " iPh": 5858, " bodies": 5859, " complica": 5860, "vest": 5861, "abi": 5862, " Get": 5863, "ucks": 5864, "och": 5865, " faces": 5866, "outs": 5867, " element": 5868, "IP": 5869, " mort": 5870, "iliat": 5871, " tempor": 5872, " NAS": 5873, " quiet": 5874, " substant": 5875, " coff": 5876, "obe": 5877, "],": 5878, " hol": 5879, "ansas": 5880, "mat": 5881, " caption": 5882, " secretar": 5883, "apter": 5884, " severe": 5885, " numerous": 5886, " reportin": 5887, " See": 5888, "abin": 5889, " Afghanis": 5890, "star": 5891, " Ohio": 5892, "coming": 5893, " entertai": 5894, " democrac": 5895, " zone": 5896, " Squ": 5897, " IN": 5898, "II": 5899, " cooperat": 5900, " parent": 5901, " Show": 5902, "untee": 5903, " mand": 5904, "olar": 5905, "manen": 5906, "oper": 5907, "ensa": 5908, "rsi": 5909, "edi": 5910, " delivere": 5911, " reli": 5912, " //": 5913, " typicall": 5914, " proteste": 5915, " quarterb": 5916, " dramatic": 5917, "inn": 5918, " advice": 5919, "arrow": 5920, "razil": 5921, " findings": 5922, " edge": 5923, " 2001": 5924, "aches": 5925, " approved": 5926, " subscrib": 5927, " coordina": 5928, "ellow": 5929, "free": 5930, "oom": 5931, "olve": 5932, " Andrew": 5933, " messages": 5934, " Sov": 5935, "abled": 5936, "selve": 5937, " movies": 5938, " accompli": 5939, " Wood": 5940, "66": 5941, "43": 5942, ".\"<|": 5943, "iolog": 5944, "wed": 5945, " replace": 5946, "ownt": 5947, " Rod": 5948, " ordered": 5949, " married": 5950, " Muslims": 5951, " Cru": 5952, "uati": 5953, "life": 5954, " Media": 5955, "evin": 5956, " walking": 5957, " rain": 5958, "iversa": 5959, "aks": 5960, " crimes": 5961, " delay": 5962, " cann": 5963, "aria": 5964, "88": 5965, " pictures": 5966, "77": 5967, " observ": 5968, " auth": 5969, " prepar": 5970, "oner": 5971, " af": 5972, " drivers": 5973, " discrimi": 5974, " respecti": 5975, ",[": 5976, " shouldn": 5977, " updates": 5978, "ilty": 5979, " ourselve": 5980, " weather": 5981, " script": 5982, "pa": 5983, " Life": 5984, "TA": 5985, " leaves": 5986, " eval": 5987, " architec": 5988, " proud": 5989, "aniel": 5990, " declined": 5991, " agents": 5992, " scenario": 5993, " creative": 5994, " ongoing": 5995, " excellen": 5996, "During": 5997, " emphas": 5998, " nom": 5999, "called": 6000, " Rad": 6001, " suffered": 6002, " Saudi": 6003, " dial": 6004, " admitted": 6005, " declared": 6006, "anction": 6007, "rees": 6008, " Space": 6009, " Labour": 6010, "ciou": 6011, "ourney": 6012, " circumst": 6013, "mal": 6014, " readers": 6015, ",\u2019": 6016, "ordan": 6017, "etic": 6018, " legit": 6019, " PS": 6020, "Other": 6021, "sex": 6022, " comparis": 6023, " rein": 6024, "itz": 6025, " picked": 6026, " editor": 6027, " Science": 6028, " realize": 6029, " publicly": 6030, "cesse": 6031, " incom": 6032, "plom": 6033, " waste": 6034, " thoughts": 6035, " tree": 6036, " ast": 6037, " expansio": 6038, " armed": 6039, " Yet": 6040, " narr": 6041, " explains": 6042, "eck": 6043, "aded": 6044, "gly": 6045, " Gar": 6046, " Romney": 6047, " permanen": 6048, " connecte": 6049, "\u00ed": 6050, " flat": 6051, " Mem": 6052, " route": 6053, " sam": 6054, " boost": 6055, " tech": 6056, "oore": 6057, "rg": 6058, " comforta": 6059, " shop": 6060, "ashed": 6061, "col": 6062, "date": 6063, "employ": 6064, "reland": 6065, "hand": 6066, " lawyer": 6067, " injured": 6068, " provider": 6069, " 36": 6070, " wear": 6071, " System": 6072, "ranchis": 6073, "akers": 6074, " TO": 6075, "PR": 6076, " Follow": 6077, " gather": 6078, " click": 6079, " session": 6080, "nergy": 6081, " AC": 6082, " 1980": 6083, " Michigan": 6084, "lity": 6085, " filled": 6086, "Oh": 6087, "IG": 6088, "elly": 6089, "stand": 6090, " client": 6091, " Techn": 6092, "sly": 6093, "Res": 6094, " missed": 6095, " talent": 6096, " Christma": 6097, " label": 6098, "arat": 6099, " Kim": 6100, " Ukraine": 6101, " Phot": 6102, "idden": 6103, " emails": 6104, " aband": 6105, " Dou": 6106, " pure": 6107, " causes": 6108, "phon": 6109, " Matt": 6110, " collapse": 6111, " shel": 6112, " facts": 6113, " objects": 6114, " Bus": 6115, " argue": 6116, " attracti": 6117, "hou": 6118, " rail": 6119, "Tube": 6120, " Human": 6121, "Yes": 6122, "41": 6123, "PU": 6124, " contains": 6125, " Ill": 6126, "cos": 6127, "aus": 6128, "cons": 6129, " approxim": 6130, " moral": 6131, " crack": 6132, " everybod": 6133, "agin": 6134, " yesterda": 6135, " province": 6136, " Hen": 6137, " Stan": 6138, "fo": 6139, "Many": 6140, " motor": 6141, " Hol": 6142, " debut": 6143, " centre": 6144, "bell": 6145, " conduct": 6146, " Sum": 6147, "yers": 6148, "LS": 6149, " ID": 6150, "stic": 6151, " dynam": 6152, " diss": 6153, " subseque": 6154, " neither": 6155, " Met": 6156, "IV": 6157, " sand": 6158, " thinks": 6159, " proj": 6160, " Columb": 6161, " Rev": 6162, "inte": 6163, " assum": 6164, "alo": 6165, " pra": 6166, " Back": 6167, " violatio": 6168, " Maybe": 6169, " Vol": 6170, " songs": 6171, " mountain": 6172, " forg": 6173, " pattern": 6174, "aped": 6175, "eff": 6176, " nations": 6177, " flo": 6178, "rip": 6179, " trib": 6180, " explanat": 6181, " examples": 6182, " patient": 6183, " initiall": 6184, " warned": 6185, " Bet": 6186, " pool": 6187, " applied": 6188, "fortun": 6189, " coast": 6190, " signal": 6191, " myster": 6192, "________": 6193, "Follow": 6194, " extreme": 6195, "format": 6196, "Although": 6197, " listed": 6198, " desire": 6199, " hell": 6200, "entin": 6201, " RE": 6202, " nearby": 6203, " faced": 6204, " improved": 6205, "85": 6206, "olved": 6207, " linked": 6208, "De": 6209, " database": 6210, "ipping": 6211, " bond": 6212, " franchis": 6213, " Sign": 6214, "IM": 6215, "orry": 6216, " GM": 6217, " advanced": 6218, " incor": 6219, " follows": 6220, " doctor": 6221, " accepted": 6222, " Seattle": 6223, " possessi": 6224, " Week": 6225, " passenge": 6226, " mir": 6227, " injuries": 6228, "kay": 6229, " attribut": 6230, " Kar": 6231, "bac": 6232, " moves": 6233, " atmosphe": 6234, " Far": 6235, " processe": 6236, " Board": 6237, " William": 6238, " guns": 6239, " Brazil": 6240, " playoff": 6241, " Jul": 6242, " adds": 6243, " speciali": 6244, " Journal": 6245, " entered": 6246, "mou": 6247, "otio": 6248, " Blue": 6249, " bare": 6250, " Gen": 6251, "def": 6252, " disappea": 6253, "chi": 6254, " guilty": 6255, " cook": 6256, "arden": 6257, " withd": 6258, " contem": 6259, " Jews": 6260, " Whe": 6261, " ske": 6262, " boys": 6263, "Se": 6264, " input": 6265, " articles": 6266, "ences": 6267, " networks": 6268, " entry": 6269, "bal": 6270, "law": 6271, " Ten": 6272, " Sher": 6273, " resc": 6274, " van": 6275, " Develop": 6276, " parliame": 6277, " begins": 6278, " correspo": 6279, " phen": 6280, " receivin": 6281, "nic": 6282, " Ireland": 6283, " shots": 6284, " plot": 6285, " iPhone": 6286, " threats": 6287, " Only": 6288, " enh": 6289, " brings": 6290, " 300": 6291, " spons": 6292, " academic": 6293, " react": 6294, "mbly": 6295, " Swed": 6296, " CNN": 6297, " trend": 6298, " bright": 6299, " remark": 6300, " offense": 6301, "dis": 6302, " stood": 6303, "twitter": 6304, "Most": 6305, " 33": 6306, " thank": 6307, "itati": 6308, " roughly": 6309, " rising": 6310, " bot": 6311, " Sto": 6312, "See": 6313, " Scot": 6314, " opposite": 6315, "aza": 6316, " lie": 6317, " Sports": 6318, " zero": 6319, " totally": 6320, " radical": 6321, " Aff": 6322, " chain": 6323, " DC": 6324, " bon": 6325, " Barack": 6326, " prominen": 6327, " flood": 6328, " button": 6329, "Then": 6330, " dedicate": 6331, " Asia": 6332, " confront": 6333, " NBA": 6334, "rizona": 6335, "lla": 6336, " Each": 6337, " apartmen": 6338, " Second": 6339, "\u00f3": 6340, " sought": 6341, " drink": 6342, " Hy": 6343, " existenc": 6344, "bel": 6345, "het": 6346, " scored": 6347, " pushed": 6348, " Bob": 6349, "aug": 6350, " snow": 6351, "imal": 6352, " boss": 6353, " nav": 6354, " sym": 6355, " blow": 6356, " graduate": 6357, " fairly": 6358, " Prem": 6359, " rally": 6360, "irty": 6361, " plane": 6362, " deaths": 6363, "UT": 6364, " protests": 6365, "etroit": 6366, " primar": 6367, " output": 6368, " sanction": 6369, " destroye": 6370, " buying": 6371, "rum": 6372, "forc": 6373, " library": 6374, " Wik": 6375, "\\x88\\x92": 6376, " instr": 6377, " classes": 6378, "IL": 6379, " emission": 6380, " Another": 6381, "ivale": 6382, "ppi": 6383, "Can": 6384, " default": 6385, "\u0441": 6386, " rat": 6387, " mechanis": 6388, " scre": 6389, "utch": 6390, "host": 6391, " tom": 6392, " warm": 6393, " succeed": 6394, " Art": 6395, " instrume": 6396, " ISIS": 6397, " defined": 6398, "astro": 6399, " lawsuit": 6400, " Ms": 6401, " moments": 6402, "awa": 6403, "yi": 6404, " links": 6405, " replaced": 6406, " practica": 6407, " knowing": 6408, " Eas": 6409, " ride": 6410, " younger": 6411, " rum": 6412, "****": 6413, " hardware": 6414, " warning": 6415, " Colorado": 6416, " diplom": 6417, " AT": 6418, " regulato": 6419, " Its": 6420, "En": 6421, "acts": 6422, " classic": 6423, " selectio": 6424, " prohibit": 6425, " anywhere": 6426, " stores": 6427, " unlikely": 6428, " Korean": 6429, " square": 6430, " laugh": 6431, " storage": 6432, "can": 6433, "Ob": 6434, " Cub": 6435, "ece": 6436, " sees": 6437, " 2002": 6438, "ideo": 6439, " foundati": 6440, " expectat": 6441, " Soviet": 6442, " facility": 6443, "atives": 6444, " heavily": 6445, "76": 6446, " guid": 6447, " Games": 6448, " Bat": 6449, " speculat": 6450, " acts": 6451, "06": 6452, "rsial": 6453, "game": 6454, "prof": 6455, "Cont": 6456, " allegedl": 6457, " recordin": 6458, " Image": 6459, " fraud": 6460, "illy": 6461, "overty": 6462, " print": 6463, " favour": 6464, " breaking": 6465, "rad": 6466, " Hist": 6467, "bou": 6468, " bat": 6469, " voluntee": 6470, " targets": 6471, " promise": 6472, " lock": 6473, " universe": 6474, "ollywoo": 6475, "DS": 6476, "86": 6477, " descript": 6478, "ille": 6479, " liberal": 6480, " sche": 6481, "lli": 6482, " holds": 6483, "\u0440": 6484, " somewhat": 6485, " rely": 6486, " Lord": 6487, " overw": 6488, " temporar": 6489, " tiny": 6490, " motion": 6491, "ricult": 6492, "ooks": 6493, "tered": 6494, " hoping": 6495, "adow": 6496, " regional": 6497, " Valley": 6498, " closely": 6499, " Ram": 6500, "car": 6501, " Dan": 6502, " Project": 6503, "asp": 6504, " teaching": 6505, " shif": 6506, " fewer": 6507, " desc": 6508, " resistan": 6509, " manage": 6510, "onom": 6511, "ius": 6512, "uster": 6513, " squad": 6514, "Sub": 6515, "cut": 6516, " evolutio": 6517, "ko": 6518, " vice": 6519, " native": 6520, " returns": 6521, " monit": 6522, " hur": 6523, " lobby": 6524, "orat": 6525, "llec": 6526, "cho": 6527, " relevant": 6528, " Wis": 6529, " hat": 6530, " grown": 6531, " kinds": 6532, "endar": 6533, " authors": 6534, " wound": 6535, " currency": 6536, "istic": 6537, "Man": 6538, "izi": 6539, " capabili": 6540, " bike": 6541, " destruct": 6542, "NC": 6543, "mble": 6544, "iger": 6545, " sav": 6546, " CIA": 6547, " symbol": 6548, " campus": 6549, " punish": 6550, " ped": 6551, " adults": 6552, " Rights": 6553, " bra": 6554, " Cle": 6555, "\u00e4": 6556, " 49": 6557, " lies": 6558, " femin": 6559, " Land": 6560, " approval": 6561, " provisio": 6562, " versions": 6563, " househol": 6564, "ture": 6565, " isol": 6566, "ouston": 6567, " sufferin": 6568, " skill": 6569, " cul": 6570, " featured": 6571, " sick": 6572, " cruc": 6573, " Di": 6574, " fashion": 6575, "brid": 6576, " Sar": 6577, " crazy": 6578, " unt": 6579, "Per": 6580, " narrativ": 6581, "OC": 6582, " Boy": 6583, " Top": 6584, " string": 6585, " YouTube": 6586, " 37": 6587, " Hel": 6588, " spell": 6589, "\u043d": 6590, " doctors": 6591, "rive": 6592, " objectiv": 6593, " alcohol": 6594, " harder": 6595, " pregn": 6596, "ogue": 6597, "Get": 6598, " Club": 6599, " Py": 6600, " Constitu": 6601, " 38": 6602, " cheap": 6603, "ograph": 6604, " formed": 6605, " cycle": 6606, "sive": 6607, " Jesus": 6608, " indicati": 6609, " heads": 6610, " Cy": 6611, "FP": 6612, " ring": 6613, " wave": 6614, " Year": 6615, "gor": 6616, " trick": 6617, " detailed": 6618, " decline": 6619, "ERS": 6620, " earned": 6621, " Grand": 6622, " asp": 6623, " extent": 6624, "you": 6625, "look": 6626, " journey": 6627, "pon": 6628, "Sec": 6629, " pip": 6630, " ancient": 6631, " metal": 6632, "crip": 6633, "related": 6634, "OD": 6635, " illustra": 6636, "usion": 6637, " wins": 6638, " advent": 6639, "teen": 6640, "kel": 6641, " IP": 6642, " unus": 6643, " quant": 6644, " acting": 6645, " termin": 6646, " referred": 6647, "esh": 6648, " Old": 6649, "\u2022\u2022": 6650, "berg": 6651, "\u00f6": 6652, " marketin": 6653, " column": 6654, " sho": 6655, "board": 6656, " manner": 6657, "ockey": 6658, "IR": 6659, "ORE": 6660, " pit": 6661, " contr": 6662, " Arizona": 6663, " carrying": 6664, " Eric": 6665, "azi": 6666, " sensitiv": 6667, " battery": 6668, " flu": 6669, " 48": 6670, " Sky": 6671, "aint": 6672, " signing": 6673, " pushing": 6674, " legitima": 6675, "\\xef\\xbf": 6676, " Young": 6677, "iami": 6678, " posts": 6679, " guide": 6680, " king": 6681, " sharing": 6682, " Os": 6683, " assets": 6684, " mouth": 6685, " sustain": 6686, " pled": 6687, "ensio": 6688, "uri": 6689, " adm": 6690, " attitude": 6691, "09": 6692, " alongsid": 6693, "ocket": 6694, " updated": 6695, " mine": 6696, "Despite": 6697, " rape": 6698, " creature": 6699, " Men": 6700, " chairman": 6701, "itud": 6702, " \\xce": 6703, " fer": 6704, "qua": 6705, " attempte": 6706, " newslett": 6707, "dit": 6708, " Die": 6709, " Wars": 6710, " Putin": 6711, " continui": 6712, "point": 6713, " Watch": 6714, " wire": 6715, " lawmaker": 6716, " permissi": 6717, " Energy": 6718, "hus": 6719, " bitcoin": 6720, " latter": 6721, "zy": 6722, " valu": 6723, " reput": 6724, " basket": 6725, "iction": 6726, "agree": 6727, " struck": 6728, "state": 6729, "allas": 6730, " owned": 6731, " fasc": 6732, " Vict": 6733, " Conn": 6734, " bac": 6735, "athan": 6736, " mayor": 6737, " Lit": 6738, " Card": 6739, " artists": 6740, " Offic": 6741, "08": 6742, " upcoming": 6743, " observed": 6744, "heas": 6745, " meat": 6746, " criticiz": 6747, "owntown": 6748, " subsid": 6749, " 34": 6750, " folks": 6751, " literall": 6752, " 1970": 6753, " dealing": 6754, "esome": 6755, " disaster": 6756, " surveill": 6757, " walked": 6758, "Like": 6759, " Wild": 6760, "tative": 6761, " studio": 6762, " suicide": 6763, "nation": 6764, "04": 6765, " 75": 6766, "istra": 6767, " Aut": 6768, " Ann": 6769, "orse": 6770, " Charles": 6771, "rich": 6772, "otic": 6773, " Jr": 6774, "erso": 6775, "ibil": 6776, "Two": 6777, " OF": 6778, "ml": 6779, " liqu": 6780, " arrang": 6781, " pal": 6782, "ohn": 6783, " causing": 6784, " coffee": 6785, " realized": 6786, " Miller": 6787, "van": 6788, " Right": 6789, "ronic": 6790, "aries": 6791, " dependen": 6792, " watched": 6793, " desk": 6794, " usual": 6795, " inspired": 6796, " Detroit": 6797, " Davis": 6798, "sen": 6799, " agenda": 6800, " narrow": 6801, " format": 6802, " congress": 6803, " Java": 6804, " Fam": 6805, " cro": 6806, " Div": 6807, " Supp": 6808, " deeply": 6809, " certif": 6810, " virtual": 6811, " tas": 6812, " Defense": 6813, " Again": 6814, " sample": 6815, " protecte": 6816, " shoulder": 6817, " Dar": 6818, "ically": 6819, " Way": 6820, "People": 6821, " exciting": 6822, "ped": 6823, " hotel": 6824, "atell": 6825, "zing": 6826, "abis": 6827, " noticed": 6828, " dogs": 6829, "avor": 6830, " Van": 6831, "otal": 6832, " depth": 6833, " Long": 6834, " hunt": 6835, " forth": 6836, " alive": 6837, "wat": 6838, " mainstre": 6839, "auc": 6840, " mechanic": 6841, " Bas": 6842, "gas": 6843, "icio": 6844, "rors": 6845, " Econom": 6846, " extended": 6847, "erm": 6848, "ibl": 6849, " aside": 6850, "78": 6851, "adel": 6852, " fixed": 6853, "efull": 6854, "sole": 6855, " Ford": 6856, " bear": 6857, " proof": 6858, "pira": 6859, " targeted": 6860, "romi": 6861, "ums": 6862, " adult": 6863, " Doc": 6864, " extend": 6865, " diet": 6866, "ludin": 6867, " overwhel": 6868, " urban": 6869, " simpl": 6870, " NY": 6871, " involvin": 6872, "esta": 6873, " settleme": 6874, " extensio": 6875, "kl": 6876, " plain": 6877, "iliti": 6878, " passion": 6879, "gi": 6880, " sending": 6881, " eating": 6882, "FA": 6883, " stream": 6884, "des": 6885, "boar": 6886, " tested": 6887, " configur": 6888, " teachers": 6889, " serving": 6890, " Tay": 6891, " height": 6892, " Class": 6893, " promised": 6894, "Or": 6895, " gap": 6896, " volume": 6897, " understo": 6898, "ologi": 6899, "oken": 6900, "hment": 6901, " tag": 6902, "nally": 6903, " wage": 6904, " acce": 6905, " Tit": 6906, "rance": 6907, "\u2019.": 6908, "lock": 6909, " fort": 6910, " publicat": 6911, "erves": 6912, " publish": 6913, "overy": 6914, "andal": 6915, "alian": 6916, "leme": 6917, " Enter": 6918, "icle": 6919, " Child": 6920, " blame": 6921, " properti": 6922, "May": 6923, "otes": 6924, " orders": 6925, " rush": 6926, " variable": 6927, "born": 6928, " dry": 6929, " Camer": 6930, " attacked": 6931, "icken": 6932, " explore": 6933, " selected": 6934, " risks": 6935, " anyway": 6936, "eno": 6937, " Women": 6938, " gang": 6939, " requests": 6940, " Company": 6941, " supports": 6942, "axy": 6943, " phenomen": 6944, "onymou": 6945, "',": 6946, " slowly": 6947, " sweet": 6948, " hall": 6949, " Home": 6950, " northern": 6951, " promote": 6952, " west": 6953, " properly": 6954, " Max": 6955, " channel": 6956, " Houston": 6957, " crash": 6958, " egg": 6959, " winter": 6960, " unknown": 6961, " decrease": 6962, " mistake": 6963, " disorder": 6964, " Kevin": 6965, " Down": 6966, "payer": 6967, "ancy": 6968, "atellit": 6969, " assume": 6970, " Wilson": 6971, " reti": 6972, " reductio": 6973, " reward": 6974, " equivale": 6975, " sky": 6976, "apped": 6977, " refugees": 6978, " wake": 6979, " welcome": 6980, "poses": 6981, " Real": 6982, " worried": 6983, "bec": 6984, "\u00fc": 6985, " chose": 6986, "98": 6987, " defeat": 6988, "table": 6989, "xy": 6990, "zens": 6991, " evil": 6992, "300": 6993, "vy": 6994, " maximum": 6995, " drag": 6996, "aze": 6997, "ogan": 6998, " puts": 6999, " consult": 7000, " Luc": 7001, "gery": 7002, " retire": 7003, " matches": 7004, "iner": 7005, "nam": 7006, "uo": 7007, " detect": 7008, "acc": 7009, " condem": 7010, " interfac": 7011, "eli": 7012, " typical": 7013, "Go": 7014, " deals": 7015, "certai": 7016, " teacher": 7017, " license": 7018, " Network": 7019, " pic": 7020, " withdraw": 7021, " Fil": 7022, "foot": 7023, "assin": 7024, " refe": 7025, " neut": 7026, " allies": 7027, " somehow": 7028, " ut": 7029, " Stand": 7030, " merely": 7031, "redit": 7032, " unemploy": 7033, "VER": 7034, "\u043e\\xd0": 7035, " east": 7036, "nesot": 7037, "iants": 7038, " kne": 7039, " topic": 7040, " promotio": 7041, " donation": 7042, " Attorney": 7043, " nomine": 7044, "inue": 7045, "quar": 7046, "dy": 7047, "ograp": 7048, " Oct": 7049, " Latin": 7050, "umber": 7051, " suddenly": 7052, "96": 7053, " likes": 7054, " consciou": 7055, " smartpho": 7056, " Love": 7057, "ially": 7058, " Italy": 7059, " breath": 7060, " faciliti": 7061, " Society": 7062, "cow": 7063, " phase": 7064, "uy": 7065, "tatives": 7066, " Miami": 7067, " limits": 7068, " disagree": 7069, " apolog": 7070, " obtained": 7071, " bunch": 7072, " critics": 7073, " bid": 7074, " scheme": 7075, " oblig": 7076, " fees": 7077, " theme": 7078, "gro": 7079, "long": 7080, " trees": 7081, " prote": 7082, " classifi": 7083, " exposed": 7084, " Cruz": 7085, " Cre": 7086, " strongly": 7087, " hits": 7088, " Pan": 7089, " sole": 7090, " employer": 7091, " Hollywoo": 7092, "ads": 7093, " diagn": 7094, "</": 7095, "elin": 7096, " cart": 7097, " bench": 7098, " NHL": 7099, "urin": 7100, "ii": 7101, "Te": 7102, "56": 7103, " Asian": 7104, " Ul": 7105, " Best": 7106, " infl": 7107, " somewher": 7108, "ipula": 7109, " %": 7110, " Disney": 7111, " NASA": 7112, " decent": 7113, "unning": 7114, " empty": 7115, " sin": 7116, " strange": 7117, " confirm": 7118, " Brad": 7119, " installe": 7120, " Sea": 7121, " Dam": 7122, " seats": 7123, " compromi": 7124, " batt": 7125, "owe": 7126, "07": 7127, "Rel": 7128, " honor": 7129, " Despite": 7130, " magic": 7131, " Joseph": 7132, " answers": 7133, " rub": 7134, "dro": 7135, "NE": 7136, " purposes": 7137, " operator": 7138, " Rus": 7139, " regions": 7140, " directed": 7141, " coalitio": 7142, "oman": 7143, " colon": 7144, "illing": 7145, "apers": 7146, " Polit": 7147, " chosen": 7148, "orin": 7149, " tort": 7150, " Agency": 7151, "dge": 7152, " falling": 7153, " stim": 7154, " CD": 7155, " ideal": 7156, " spin": 7157, " DNA": 7158, " headline": 7159, "ncy": 7160, " Mic": 7161, "owa": 7162, " fold": 7163, " intellec": 7164, "ela": 7165, "RC": 7166, " sight": 7167, " gotten": 7168, "tel": 7169, "asts": 7170, " southern": 7171, " End": 7172, " Administ": 7173, "wi": 7174, "rup": 7175, " unp": 7176, "rain": 7177, "02": 7178, " Thank": 7179, " Daniel": 7180, " democrat": 7181, " winner": 7182, "inem": 7183, " sequence": 7184, " opt": 7185, "regon": 7186, " ble": 7187, " payments": 7188, "tere": 7189, "03": 7190, "cep": 7191, " escape": 7192, " choices": 7193, " village": 7194, "GBT": 7195, " Scotland": 7196, " polls": 7197, " Jersey": 7198, "pla": 7199, "boy": 7200, " stronger": 7201, " Labor": 7202, " cutting": 7203, " captured": 7204, " Book": 7205, "sea": 7206, " poverty": 7207, "++": 7208, " Steven": 7209, " Georgia": 7210, "quir": 7211, " Ins": 7212, " somebody": 7213, "raid": 7214, "mun": 7215, " Four": 7216, " adventur": 7217, " syn": 7218, " retain": 7219, " Though": 7220, "wood": 7221, " fighters": 7222, "\ufffd": 7223, " Ali": 7224, " perfectl": 7225, " Academ": 7226, "itar": 7227, "aser": 7228, "59": 7229, " cru": 7230, " Elect": 7231, " desperat": 7232, "eld": 7233, " enemies": 7234, "consi": 7235, "spe": 7236, " reputati": 7237, " baseball": 7238, " Stephen": 7239, "uin": 7240, "Any": 7241, " icon": 7242, " category": 7243, " Moore": 7244, "husia": 7245, " rival": 7246, "ulted": 7247, "rage": 7248, "MP": 7249, "ENT": 7250, " profile": 7251, "ileg": 7252, " Nations": 7253, "fun": 7254, " driven": 7255, " payment": 7256, " actor": 7257, " Author": 7258, "ja": 7259, "igati": 7260, " Southern": 7261, "ito": 7262, " drawn": 7263, "antl": 7264, "57": 7265, " ruled": 7266, " Dallas": 7267, " Gall": 7268, " resultin": 7269, " Spanish": 7270, " anx": 7271, " finds": 7272, " Cross": 7273, "ala": 7274, " goods": 7275, " Turk": 7276, " flex": 7277, " divers": 7278, " anymore": 7279, "osa": 7280, " meetings": 7281, " exposure": 7282, " outcome": 7283, "atterns": 7284, " truck": 7285, " claiming": 7286, "usly": 7287, "onna": 7288, " worldwid": 7289, "cript": 7290, " thread": 7291, " extensiv": 7292, " ties": 7293, " letters": 7294, "wart": 7295, " antic": 7296, " fifth": 7297, " Av": 7298, "ously": 7299, " audio": 7300, " deleg": 7301, " amounts": 7302, "lder": 7303, "tual": 7304, "hoo": 7305, " Cam": 7306, "UR": 7307, " pod": 7308, " profit": 7309, " Dun": 7310, "ingu": 7311, " Brian": 7312, " artif": 7313, " Linux": 7314, " Medic": 7315, "ila": 7316, " Irish": 7317, " Bell": 7318, "rt": 7319, " Services": 7320, "ivery": 7321, " elsewher": 7322, " Roman": 7323, " aspects": 7324, "essio": 7325, " deck": 7326, " wis": 7327, "scap": 7328, " regularl": 7329, " terrible": 7330, " penalty": 7331, " weird": 7332, " founder": 7333, " angry": 7334, "gorith": 7335, " wonderfu": 7336, " courts": 7337, "0000": 7338, " SC": 7339, " storm": 7340, "rer": 7341, " Where": 7342, "Police": 7343, " rejected": 7344, " parking": 7345, " raising": 7346, " tied": 7347, " ending": 7348, "nting": 7349, " depressi": 7350, " mixed": 7351, " trading": 7352, " implicat": 7353, " ticket": 7354, " estate": 7355, " consumpt": 7356, " boot": 7357, " row": 7358, " diplomat": 7359, "LC": 7360, " clar": 7361, " Civil": 7362, " loan": 7363, " keeps": 7364, " Arch": 7365, " observat": 7366, "illian": 7367, " dozen": 7368, " rig": 7369, " nobody": 7370, " fields": 7371, " Avenue": 7372, "anda": 7373, "ami": 7374, " vacc": 7375, "ducatio": 7376, " awesome": 7377, " Minnesot": 7378, "anchest": 7379, " primaril": 7380, " Cop": 7381, " Water": 7382, " proved": 7383, " manipula": 7384, "thon": 7385, " witnesse": 7386, " defender": 7387, " athle": 7388, "58": 7389, " notif": 7390, " reflect": 7391, " flying": 7392, " Spain": 7393, " Pers": 7394, " Adam": 7395, " machines": 7396, " OS": 7397, " Night": 7398, " Cat": 7399, "uted": 7400, " upper": 7401, "sion": 7402, " writers": 7403, " pin": 7404, " excess": 7405, "rate": 7406, " drinking": 7407, "writ": 7408, " Italian": 7409, " informed": 7410, "Also": 7411, "ointe": 7412, " controls": 7413, " receiver": 7414, " demands": 7415, " recru": 7416, " exists": 7417, " joint": 7418, " spirit": 7419, "Because": 7420, " nominati": 7421, " conven": 7422, " \u2019": 7423, " Carl": 7424, " stuck": 7425, "arn": 7426, " valuable": 7427, " imper": 7428, " prisoner": 7429, "post": 7430, " Dark": 7431, " taste": 7432, ".\"[": 7433, " Egypt": 7434, "there": 7435, "err": 7436, "bly": 7437, " kil": 7438, " Bru": 7439, " Light": 7440, " 1999": 7441, " ven": 7442, " Sk": 7443, " cloud": 7444, " View": 7445, " 39": 7446, " dominate": 7447, " myth": 7448, " houses": 7449, " phones": 7450, " employme": 7451, " roster": 7452, " newly": 7453, " framewor": 7454, " Ash": 7455, " Still": 7456, " Bull": 7457, " degrees": 7458, " Jo": 7459, " param": 7460, "angers": 7461, "aling": 7462, "Once": 7463, " jun": 7464, " feedback": 7465, " designer": 7466, " Tri": 7467, " compensa": 7468, " transpar": 7469, " Rog": 7470, " innoc": 7471, "pecte": 7472, " crucial": 7473, "Mar": 7474, " Parliame": 7475, "onary": 7476, " chances": 7477, " dism": 7478, " enthusia": 7479, " 42": 7480, " returnin": 7481, " capture": 7482, " commande": 7483, " satisf": 7484, " nut": 7485, " suffic": 7486, "mi": 7487, " Organ": 7488, " tor": 7489, " corrupti": 7490, "fire": 7491, " warming": 7492, " racial": 7493, " stead": 7494, " finger": 7495, " signatur": 7496, " synt": 7497, " organisa": 7498, " taught": 7499, " pilot": 7500, " passes": 7501, " granted": 7502, "pson": 7503, " Tem": 7504, " Hot": 7505, "Today": 7506, "ria": 7507, "nty": 7508, " blind": 7509, " predicti": 7510, " recovery": 7511, " sufficie": 7512, " aimed": 7513, " funny": 7514, "ye": 7515, "51": 7516, "entiv": 7517, "di": 7518, " satellit": 7519, " Turn": 7520, "HS": 7521, " Care": 7522, " hidden": 7523, " cable": 7524, "owed": 7525, "phia": 7526, " comic": 7527, " god": 7528, " enable": 7529, " MS": 7530, "lera": 7531, " gaming": 7532, " accompan": 7533, "rome": 7534, "ML": 7535, " tracks": 7536, " processi": 7537, " patterns": 7538, " Viet": 7539, "Rec": 7540, "itie": 7541, " Nick": 7542, " Navy": 7543, "EA": 7544, " tall": 7545, "apping": 7546, "!<|": 7547, "cies": 7548, " personne": 7549, "lines": 7550, " Moscow": 7551, " Ha": 7552, " Oregon": 7553, " titles": 7554, "ules": 7555, "rehe": 7556, " sympt": 7557, " Thanks": 7558, " bills": 7559, " iron": 7560, " fake": 7561, "itua": 7562, "omet": 7563, " Wisconsi": 7564, "erved": 7565, " scenes": 7566, " Ray": 7567, "RS": 7568, " index": 7569, " phr": 7570, " clients": 7571, " operate": 7572, " categori": 7573, "67": 7574, " harass": 7575, " 64": 7576, " Oper": 7577, " Take": 7578, " Kelly": 7579, " marked": 7580, " Senator": 7581, " Foreign": 7582, "tin": 7583, " bom": 7584, " bes": 7585, " county": 7586, " Ah": 7587, " predict": 7588, "ira": 7589, " elite": 7590, " lawyers": 7591, " ads": 7592, " vent": 7593, " rating": 7594, "aph": 7595, " attended": 7596, "ading": 7597, " Moh": 7598, "MS": 7599, " Dig": 7600, " Lew": 7601, " IT": 7602, "iscal": 7603, "iro": 7604, " dollar": 7605, "olen": 7606, " shell": 7607, " displ": 7608, " browser": 7609, "amm": 7610, "everal": 7611, " express": 7612, " Tony": 7613, " solve": 7614, "ibera": 7615, " shares": 7616, "han": 7617, " 55": 7618, "azz": 7619, " engage": 7620, " habit": 7621, " Program": 7622, "alt": 7623, "Qu": 7624, " Gir": 7625, " Pacific": 7626, " veteran": 7627, "BO": 7628, "from": 7629, " downtown": 7630, " visited": 7631, "izon": 7632, " root": 7633, " troub": 7634, "ivor": 7635, " duty": 7636, " survive": 7637, " Taylor": 7638, "fin": 7639, " enjoyed": 7640, " privileg": 7641, " algorith": 7642, "68": 7643, " fought": 7644, "Dr": 7645, " pounds": 7646, " regardle": 7647, " Bowl": 7648, " Hom": 7649, "pat": 7650, " suspicio": 7651, "rete": 7652, " explicit": 7653, " defence": 7654, " assessme": 7655, "abama": 7656, " Special": 7657, " Dead": 7658, " substanc": 7659, " portion": 7660, "aed": 7661, " Anth": 7662, " gall": 7663, "porti": 7664, "ifer": 7665, " anticipa": 7666, " Coll": 7667, " Eastern": 7668, "ntary": 7669, " mail": 7670, " Henry": 7671, " 150": 7672, " comprehe": 7673, " Tw": 7674, " Series": 7675, "aturin": 7676, "ureau": 7677, " pace": 7678, " Emp": 7679, "ingl": 7680, "har": 7681, " connect": 7682, " Work": 7683, " therap": 7684, "izz": 7685, " adopted": 7686, "400": 7687, "\u2019,": 7688, " tank": 7689, " lights": 7690, " resulted": 7691, " Kingdom": 7692, "lis": 7693, " commenta": 7694, "evitab": 7695, "sia": 7696, " afraid": 7697, " Technolo": 7698, " dependin": 7699, " ESP": 7700, "umer": 7701, " firms": 7702, "kings": 7703, " compete": 7704, " Zeal": 7705, "hous": 7706, " busy": 7707, " hang": 7708, "gun": 7709, " collecte": 7710, "inge": 7711, " 65": 7712, " uncertai": 7713, "hemat": 7714, "%.": 7715, " rarely": 7716, " dict": 7717, "cipa": 7718, "oft": 7719, "\u0101": 7720, "yard": 7721, " minority": 7722, " PR": 7723, " bath": 7724, " cup": 7725, " cited": 7726, " engaged": 7727, " Nation": 7728, " AD": 7729, "overe": 7730, " mainly": 7731, " ($": 7732, " Developm": 7733, " bridge": 7734, "enny": 7735, " stations": 7736, " Jordan": 7737, "ems": 7738, " blocks": 7739, "PC": 7740, " mel": 7741, " inspir": 7742, " strict": 7743, " western": 7744, " taxpayer": 7745, " shit": 7746, " Call": 7747, " gro": 7748, "imate": 7749, " Has": 7750, " Kent": 7751, "repre": 7752, "ifica": 7753, " hadn": 7754, " depart": 7755, " surgery": 7756, "urb": 7757, " unusual": 7758, "Getty": 7759, " consulta": 7760, " aspect": 7761, " LGBT": 7762, " Er": 7763, "this": 7764, " Amendmen": 7765, " everywhe": 7766, " adapt": 7767, " Policy": 7768, "month": 7769, " basketba": 7770, " emerged": 7771, " cerem": 7772, " Ep": 7773, "ipli": 7774, " wing": 7775, " finance": 7776, " brut": 7777, "olars": 7778, " affiliat": 7779, "tier": 7780, " \\xe2\\x96": 7781, " river": 7782, " Li": 7783, " feelings": 7784, " behalf": 7785, " enorm": 7786, " Northern": 7787, "Co": 7788, " 400": 7789, " discipli": 7790, " behaviou": 7791, " Coast": 7792, " shortly": 7793, " Rose": 7794, " conspira": 7795, " formal": 7796, " Business": 7797, " plastic": 7798, "iving": 7799, " worker": 7800, " visible": 7801, " 1998": 7802, "ering": 7803, " Conf": 7804, "iel": 7805, " odd": 7806, "iculo": 7807, " Before": 7808, " cameras": 7809, " Educatio": 7810, " medicine": 7811, "Star": 7812, "54": 7813, " neuro": 7814, " Iowa": 7815, " plate": 7816, " entit": 7817, " pow": 7818, " recip": 7819, " thick": 7820, " veget": 7821, " inevitab": 7822, " mount": 7823, " Live": 7824, "arry": 7825, " clubs": 7826, " Hit": 7827, " dozens": 7828, " magn": 7829, " laid": 7830, " creates": 7831, " borrow": 7832, "bus": 7833, " Philadel": 7834, "upid": 7835, " priority": 7836, " Pay": 7837, " Mu": 7838, "isher": 7839, "aron": 7840, " Guardian": 7841, " losses": 7842, "imp": 7843, " fee": 7844, "ao": 7845, " toler": 7846, " strikes": 7847, " infectio": 7848, " Hor": 7849, "var": 7850, "comp": 7851, "2014": 7852, "eding": 7853, " Op": 7854, " NBC": 7855, "gra": 7856, " Sol": 7857, " Rick": 7858, " Greg": 7859, "ashes": 7860, "away": 7861, " Fund": 7862, "orough": 7863, " delivery": 7864, " medium": 7865, "igure": 7866, "redie": 7867, " HT": 7868, "oti": 7869, " beliefs": 7870, " airport": 7871, "who": 7872, " perceive": 7873, " uncom": 7874, " headed": 7875, " loyal": 7876, "phe": 7877, " Manchest": 7878, " relief": 7879, " unif": 7880, "ouve": 7881, " cyber": 7882, "will": 7883, " vi": 7884, "52": 7885, " Thus": 7886, " Academy": 7887, " ships": 7888, " militant": 7889, "ylv": 7890, "agger": 7891, "erry": 7892, " Jac": 7893, "amsung": 7894, " banned": 7895, "97": 7896, "isi": 7897, " gained": 7898, " Fort": 7899, " 1960": 7900, "Donald": 7901, " plug": 7902, "umpti": 7903, " Premier": 7904, "rient": 7905, "obile": 7906, "acked": 7907, " Food": 7908, " Key": 7909, " external": 7910, " Sn": 7911, " Come": 7912, "Meanwhil": 7913, " hole": 7914, "ighter": 7915, " NC": 7916, " Jun": 7917, " gift": 7918, " Fair": 7919, " enormous": 7920, " scoring": 7921, " edition": 7922, "iot": 7923, "hop": 7924, " stable": 7925, " Lo": 7926, " Global": 7927, " Sat": 7928, " drawing": 7929, "aska": 7930, " Royal": 7931, " Spring": 7932, "FF": 7933, " Mid": 7934, "sk": 7935, "otyp": 7936, "astat": 7937, " Josh": 7938, " dinner": 7939, " unfortun": 7940, " struggli": 7941, "dri": 7942, " CO": 7943, " transgen": 7944, " petition": 7945, " Fed": 7946, " Major": 7947, " Kansas": 7948, "Add": 7949, "idespre": 7950, "hab": 7951, "arlier": 7952, " Test": 7953, " witness": 7954, ":<|": 7955, " saved": 7956, "sels": 7957, "riers": 7958, "plac": 7959, "idenc": 7960, " achieved": 7961, " Rac": 7962, " hitting": 7963, "ATO": 7964, " hun": 7965, " Communit": 7966, "poo": 7967, "CE": 7968, "seaso": 7969, " yield": 7970, "urers": 7971, " remarkab": 7972, "ATE": 7973, " agricult": 7974, "))": 7975, " preventi": 7976, " containi": 7977, "amber": 7978, " Alabama": 7979, " delibera": 7980, "uer": 7981, "lix": 7982, " Snow": 7983, "irin": 7984, " founded": 7985, "Col": 7986, " hired": 7987, " footage": 7988, " accounta": 7989, "isin": 7990, "esy": 7991, "auty": 7992, " Greek": 7993, "HA": 7994, " roles": 7995, "elle": 7996, "aled": 7997, " UFC": 7998, " cannabis": 7999, "ifest": 8000, " Mayor": 8001, "opt": 8002, "hold": 8003, " teammate": 8004, " gear": 8005, " 41": 8006, "53": 8007, " entering": 8008, "eni": 8009, " Did": 8010, "Those": 8011, " recognit": 8012, "tely": 8013, " tackle": 8014, " Jason": 8015, " flaw": 8016, " elev": 8017, " Foot": 8018, " Us": 8019, " ju": 8020, " Centre": 8021, " pray": 8022, "found": 8023, " frequenc": 8024, "aning": 8025, "rsy": 8026, " landscap": 8027, " episodes": 8028, " 47": 8029, " FC": 8030, " tap": 8031, " nominee": 8032, " Review": 8033, " festival": 8034, "ened": 8035, " doors": 8036, " Produc": 8037, " universa": 8038, "uper": 8039, "Before": 8040, " Brew": 8041, " AR": 8042, " ESPN": 8043, " VR": 8044, "uss": 8045, " chat": 8046, " Hay": 8047, "gage": 8048, " Perhaps": 8049, " liked": 8050, " Arabia": 8051, "henti": 8052, " Hun": 8053, "aki": 8054, "PG": 8055, " unn": 8056, " 44": 8057, " tickets": 8058, " Prin": 8059, " Oak": 8060, " Conferen": 8061, " Full": 8062, " Report": 8063, " robot": 8064, "timon": 8065, " backed": 8066, " Radio": 8067, "allel": 8068, " AS": 8069, "abs": 8070, " smooth": 8071, " aver": 8072, "issile": 8073, " dele": 8074, " addic": 8075, " Zealand": 8076, "John": 8077, " Independ": 8078, "Dav": 8079, "sl": 8080, "eman": 8081, " proporti": 8082, "style": 8083, " sharp": 8084, " Atlanta": 8085, " anger": 8086, "iring": 8087, " biolog": 8088, " Three": 8089, "Med": 8090, " interfer": 8091, "ilton": 8092, " pump": 8093, "lad": 8094, " listenin": 8095, "eping": 8096, " cau": 8097, " Arm": 8098, "nsylv": 8099, " sacrific": 8100, " chart": 8101, " racist": 8102, " remote": 8103, "uma": 8104, " Judge": 8105, " rose": 8106, "Fin": 8107, "ratio": 8108, " Market": 8109, " 46": 8110, " begun": 8111, "list": 8112, " Diego": 8113, "ensu": 8114, " prepare": 8115, "via": 8116, "achu": 8117, " Ly": 8118, " Bry": 8119, "struct": 8120, " unex": 8121, " Fred": 8122, " forever": 8123, " asks": 8124, " accelera": 8125, "inder": 8126, " proven": 8127, " producin": 8128, " wheel": 8129, "Inst": 8130, "ios": 8131, " incentiv": 8132, "action": 8133, " Turkish": 8134, "ocati": 8135, "Car": 8136, " notion": 8137, " Ut": 8138, "issa": 8139, "icing": 8140, " reviews": 8141, " ant": 8142, "oned": 8143, "make": 8144, " widespre": 8145, " wed": 8146, "87": 8147, " gonna": 8148, " Reuters": 8149, "ements": 8150, "abinet": 8151, " stadium": 8152, " farmers": 8153, "urie": 8154, " perpet": 8155, " convicte": 8156, "bra": 8157, "bin": 8158, "ancouve": 8159, "ders": 8160, "assad": 8161, " Hospital": 8162, " barely": 8163, " amendmen": 8164, "icia": 8165, " Music": 8166, "kers": 8167, " Columbia": 8168, "acking": 8169, " wid": 8170, " Walker": 8171, " smoke": 8172, " retired": 8173, "izes": 8174, " Mah": 8175, " Allen": 8176, " hide": 8177, " carefull": 8178, " walls": 8179, "https": 8180, "asse": 8181, "herent": 8182, " appointe": 8183, " fantasti": 8184, "Post": 8185, " equally": 8186, "sa": 8187, " loud": 8188, " rapidly": 8189, " ocean": 8190, "eratu": 8191, " branch": 8192, " Data": 8193, " tox": 8194, "uction": 8195, " Kir": 8196, " reaching": 8197, "appy": 8198, " Rand": 8199, "\\xe3\\x80": 8200, "ref": 8201, " Rober": 8202, " cycl": 8203, " asser": 8204, " subjects": 8205, " Bra": 8206, "rson": 8207, "Who": 8208, " Continue": 8209, "umes": 8210, " je": 8211, " welfare": 8212, "Presiden": 8213, " hardly": 8214, " shock": 8215, " ing": 8216, " Harry": 8217, " thrown": 8218, "odd": 8219, "agra": 8220, " NSA": 8221, " Cameron": 8222, "Ed": 8223, "inding": 8224, "orders": 8225, " Hard": 8226, "sness": 8227, " Note": 8228, " Pack": 8229, " Circ": 8230, "ecu": 8231, " McG": 8232, "recti": 8233, " secre": 8234, " Ra": 8235, "pass": 8236, "arras": 8237, " preserve": 8238, " exem": 8239, " Sept": 8240, " roads": 8241, " trigger": 8242, " trail": 8243, " About": 8244, "press": 8245, " tail": 8246, " Field": 8247, "hea": 8248, " invited": 8249, "nedy": 8250, " involvem": 8251, " deeper": 8252, "zation": 8253, " grass": 8254, " Ron": 8255, " Lind": 8256, " pipeline": 8257, "pes": 8258, " spiritua": 8259, " samples": 8260, "Under": 8261, " flash": 8262, "ultan": 8263, "ji": 8264, " Mars": 8265, " featurin": 8266, " rational": 8267, " API": 8268, "page": 8269, " McCain": 8270, "levelan": 8271, " intense": 8272, " reducing": 8273, "wan": 8274, " replacem": 8275, " Brand": 8276, "ulus": 8277, "iciou": 8278, " deputy": 8279, " 43": 8280, "rien": 8281, " websites": 8282, "icipa": 8283, " wra": 8284, " anybody": 8285, " HD": 8286, " Xbox": 8287, " 1997": 8288, "stract": 8289, " elig": 8290, "arett": 8291, " unclear": 8292, " steal": 8293, " Square": 8294, " recover": 8295, " bail": 8296, " Pennsylv": 8297, " reflecti": 8298, " milk": 8299, " contest": 8300, " Further": 8301, " testimon": 8302, " frag": 8303, " normally": 8304, "bn": 8305, " wages": 8306, " Matthe": 8307, " undermin": 8308, " peak": 8309, " friendly": 8310, " compound": 8311, " Informat": 8312, "onic": 8313, "apor": 8314, " promot": 8315, " failing": 8316, " OK": 8317, " Mir": 8318, " Stone": 8319, " electora": 8320, "sters": 8321, " murd": 8322, "timor": 8323, "ively": 8324, " logic": 8325, " Ministry": 8326, " socialis": 8327, " Ont": 8328, " ->": 8329, " viewers": 8330, "PP": 8331, " soul": 8332, " presenta": 8333, " stretch": 8334, "racte": 8335, " vary": 8336, " Professo": 8337, " tip": 8338, " Int": 8339, " suspecte": 8340, " Patri": 8341, "pi": 8342, " loop": 8343, " 1996": 8344, " Anton": 8345, " assumpti": 8346, " Never": 8347, " ho": 8348, "oured": 8349, " remarks": 8350, "ilita": 8351, "89": 8352, " holiday": 8353, "inois": 8354, " trem": 8355, " percepti": 8356, " accus": 8357, " Intellig": 8358, " Brother": 8359, " Beach": 8360, " Gov": 8361, " dre": 8362, "stat": 8363, "oen": 8364, "aba": 8365, " Austin": 8366, "EG": 8367, " touchdow": 8368, " spaces": 8369, " scores": 8370, " jury": 8371, " casual": 8372, " Sir": 8373, " Bernie": 8374, "%,": 8375, "Spe": 8376, " populari": 8377, "olt": 8378, "athered": 8379, " judgment": 8380, " lists": 8381, "vo": 8382, " economis": 8383, " Economic": 8384, " factory": 8385, "intendo": 8386, " citizen": 8387, " fruit": 8388, " cos": 8389, " vital": 8390, "NS": 8391, " attackin": 8392, "gener": 8393, " theat": 8394, " devastat": 8395, " Brook": 8396, " ren": 8397, " layer": 8398, " recall": 8399, " tasks": 8400, " executio": 8401, " luck": 8402, " ownershi": 8403, " joining": 8404, " Arg": 8405, "imm": 8406, " chapter": 8407, "ouri": 8408, " Marc": 8409, " brothers": 8410, " referrin": 8411, " Iranian": 8412, "igarett": 8413, " distur": 8414, " Little": 8415, " array": 8416, " define": 8417, " expanded": 8418, " Marvel": 8419, " Lu": 8420, " Queen": 8421, " ABC": 8422, "dged": 8423, " trained": 8424, " fro": 8425, "Back": 8426, "arre": 8427, "setts": 8428, " gathered": 8429, " Next": 8430, "Mc": 8431, " Patrick": 8432, "800": 8433, " sugar": 8434, "icial": 8435, " Kat": 8436, " AND": 8437, " rhe": 8438, " appoint": 8439, " III": 8440, " Chair": 8441, ".-": 8442, " UC": 8443, " Anthony": 8444, "ticle": 8445, " affairs": 8446, " eastern": 8447, "\u043b": 8448, "69": 8449, "72": 8450, "includin": 8451, " convenie": 8452, "uilding": 8453, " legs": 8454, " alt": 8455, " reads": 8456, " minds": 8457, " Action": 8458, " suspende": 8459, " stupid": 8460, " serves": 8461, "toric": 8462, " moderate": 8463, " versus": 8464, " licens": 8465, " scr": 8466, " pens": 8467, " Ball": 8468, " euro": 8469, " neighbou": 8470, "heti": 8471, " incorpor": 8472, "ixt": 8473, " Buff": 8474, " Phili": 8475, " papers": 8476, " tone": 8477, " fantasy": 8478, " counterp": 8479, " stake": 8480, " opinions": 8481, " alter": 8482, " dynamic": 8483, "rics": 8484, " visitors": 8485, " symptoms": 8486, "Will": 8487, " attempti": 8488, " certific": 8489, " salary": 8490, " headquar": 8491, " presum": 8492, " Albert": 8493, "aka": 8494, " soph": 8495, " handful": 8496, " alien": 8497, "mell": 8498, " horse": 8499, "abb": 8500, " seemingl": 8501, "stal": 8502, "regat": 8503, " collect": 8504, " Golden": 8505, " foll": 8506, " designat": 8507, " inquir": 8508, " spokespe": 8509, " races": 8510, " brillian": 8511, " preferen": 8512, " viewed": 8513, "teria": 8514, " extremis": 8515, " Budd": 8516, " _": 8517, " menu": 8518, "ucking": 8519, "aired": 8520, " choo": 8521, "night": 8522, " sorry": 8523, " Roy": 8524, " forgot": 8525, "TE": 8526, " rural": 8527, "Stat": 8528, "'.": 8529, " fiscal": 8530, " covers": 8531, " fab": 8532, "obs": 8533, "Che": 8534, "ecto": 8535, " explosio": 8536, " Freedom": 8537, " Marsh": 8538, "asing": 8539, " resign": 8540, " reproduc": 8541, " fulf": 8542, " heading": 8543, " Medical": 8544, "low": 8545, " tomorrow": 8546, " involves": 8547, " tweeted": 8548, " noise": 8549, " attached": 8550, " \u20ac": 8551, " Harris": 8552, "vard": 8553, " scholars": 8554, " Revoluti": 8555, "asty": 8556, " www": 8557, " screens": 8558, " formatio": 8559, "74": 8560, " bug": 8561, " ranked": 8562, "inter": 8563, " Season": 8564, "Where": 8565, " spark": 8566, " Ba": 8567, " reven": 8568, " Division": 8569, " profits": 8570, " fears": 8571, " Such": 8572, "cles": 8573, " convicti": 8574, " Battle": 8575, " SP": 8576, " accessib": 8577, "Sen": 8578, " assist": 8579, " Vancouve": 8580, " inner": 8581, " bars": 8582, " coc": 8583, "oval": 8584, "iatio": 8585, "WS": 8586, " Kennedy": 8587, "hour": 8588, " throwing": 8589, "itchen": 8590, "anna": 8591, " por": 8592, " covering": 8593, "cat": 8594, " Santa": 8595, " Moon": 8596, " ignore": 8597, " separati": 8598, "acar": 8599, " 52": 8600, " captain": 8601, "CA": 8602, " amid": 8603, " embarras": 8604, " qualifie": 8605, " humanity": 8606, " fallen": 8607, " fiction": 8608, " intens": 8609, " Jay": 8610, " steel": 8611, "fs": 8612, "uli": 8613, "iverpoo": 8614, " wine": 8615, " ham": 8616, " 00": 8617, " raw": 8618, " awarenes": 8619, " Ret": 8620, " Clevelan": 8621, "obi": 8622, "unes": 8623, " mathemat": 8624, "mary": 8625, " History": 8626, " ?": 8627, " monitor": 8628, " Governor": 8629, "roc": 8630, "ixed": 8631, " SS": 8632, " affordab": 8633, "hs": 8634, " Hell": 8635, " gam": 8636, " Town": 8637, " Howard": 8638, " teenager": 8639, " revel": 8640, " mad": 8641, " porn": 8642, " stone": 8643, "pha": 8644, "dated": 8645, " cogn": 8646, "enin": 8647, " depends": 8648, " insist": 8649, " stayed": 8650, "isel": 8651, " gal": 8652, "VE": 8653, " suffer": 8654, " absence": 8655, " offices": 8656, " Cit": 8657, " Ted": 8658, " rhetoric": 8659, " Sony": 8660, " rook": 8661, " draf": 8662, "osu": 8663, " Unfortun": 8664, " Bad": 8665, " clothes": 8666, " Disc": 8667, "aga": 8668, " grounds": 8669, " Make": 8670, " unions": 8671, " Prince": 8672, "ahoma": 8673, " Samsung": 8674, " reader": 8675, " handed": 8676, " Broad": 8677, " ment": 8678, " virtuall": 8679, " les": 8680, "About": 8681, "Please": 8682, " missile": 8683, " actors": 8684, "pload": 8685, " Id": 8686, " 1994": 8687, " completi": 8688, " prioriti": 8689, " wrest": 8690, " handling": 8691, " protocol": 8692, " noting": 8693, " Environm": 8694, " Massachu": 8695, " iOS": 8696, "oster": 8697, "!)": 8698, " poly": 8699, " Anderson": 8700, "Related": 8701, " loans": 8702, " colors": 8703, "ione": 8704, "EE": 8705, "light": 8706, " coaches": 8707, "misse": 8708, " careful": 8709, " Det": 8710, " Head": 8711, " Core": 8712, "mic": 8713, " swing": 8714, " ingredie": 8715, "klahoma": 8716, " boat": 8717, " Pit": 8718, "ept": 8719, "........": 8720, " copies": 8721, " roof": 8722, " inflatio": 8723, "79": 8724, " drew": 8725, " dismisse": 8726, " Engine": 8727, " preced": 8728, " Ice": 8729, " diversit": 8730, "ais": 8731, "nsive": 8732, "AG": 8733, " Master": 8734, " scan": 8735, " craft": 8736, " cha": 8737, " principa": 8738, " spoken": 8739, "arms": 8740, " Illinois": 8741, " Family": 8742, " 2019": 8743, " Vegas": 8744, " km": 8745, "pol": 8746, " settings": 8747, "Russi": 8748, " sustaina": 8749, "\".[": 8750, "oving": 8751, " upset": 8752, "\u2588": 8753, " Bang": 8754, " voter": 8755, " moon": 8756, "rones": 8757, "PM": 8758, "Both": 8759, " forest": 8760, " gains": 8761, " jur": 8762, "ente": 8763, "lar": 8764, " mas": 8765, " CH": 8766, "rik": 8767, " judges": 8768, " brown": 8769, "nary": 8770, " silver": 8771, "helsea": 8772, " Stadium": 8773, "\")": 8774, "eland": 8775, " lucky": 8776, " joke": 8777, " subs": 8778, " Museum": 8779, "enni": 8780, " premium": 8781, " 1995": 8782, "ulate": 8783, " measured": 8784, "wise": 8785, "was": 8786, " Share": 8787, " Nev": 8788, " subj": 8789, " lowest": 8790, "Wor": 8791, "ette": 8792, " console": 8793, " drama": 8794, "letes": 8795, "anny": 8796, " maps": 8797, "Ac": 8798, " Ars": 8799, " composit": 8800, " ballot": 8801, "mation": 8802, " senti": 8803, " Iraqi": 8804, " locked": 8805, "vill": 8806, " paint": 8807, " astron": 8808, " Adv": 8809, "tify": 8810, "oked": 8811, " foss": 8812, " Abd": 8813, "itage": 8814, "\\xe0\\xa4": 8815, " rear": 8816, " Cook": 8817, "ijing": 8818, " WW": 8819, " stages": 8820, " promises": 8821, " exhib": 8822, " closing": 8823, " parallel": 8824, " Dub": 8825, " tries": 8826, "rise": 8827, " speaks": 8828, " Mountain": 8829, " naturall": 8830, "ras": 8831, " genetic": 8832, "nat": 8833, " lets": 8834, " NATO": 8835, " authenti": 8836, "omic": 8837, "Ass": 8838, " scandal": 8839, " improvin": 8840, " authoriz": 8841, "orted": 8842, " trillion": 8843, "2016": 8844, " horror": 8845, "dog": 8846, " divided": 8847, " Acc": 8848, "61": 8849, " tex": 8850, "ouch": 8851, " Mexican": 8852, "rai": 8853, " referend": 8854, " protein": 8855, " rom": 8856, "ikes": 8857, "ordon": 8858, "angle": 8859, " marks": 8860, " dur": 8861, " Pent": 8862, " bonus": 8863, " grid": 8864, " NOT": 8865, " sup": 8866, "lers": 8867, "cks": 8868, "Cons": 8869, " Denver": 8870, "athy": 8871, " CBS": 8872, " accommod": 8873, " Photos": 8874, "iley": 8875, "endin": 8876, " cust": 8877, "entle": 8878, "bro": 8879, " threw": 8880, " contradi": 8881, " propagan": 8882, "ropo": 8883, " homeless": 8884, " Which": 8885, " Getty": 8886, " painting": 8887, "Your": 8888, "Red": 8889, " lying": 8890, " Hind": 8891, " twenty": 8892, " Check": 8893, " joy": 8894, " abandone": 8895, " Baltimor": 8896, "yo": 8897, " portray": 8898, " yellow": 8899, " mining": 8900, "scale": 8901, "xit": 8902, "aced": 8903, " shopping": 8904, " achievem": 8905, " midfield": 8906, " retireme": 8907, "pher": 8908, " ranks": 8909, " dad": 8910, " tea": 8911, " comedy": 8912, " cens": 8913, " Stat": 8914, "zes": 8915, " Lyn": 8916, " Fal": 8917, " permit": 8918, " dump": 8919, " Tour": 8920, " burden": 8921, "cit": 8922, "Note": 8923, "CS": 8924, "urer": 8925, "600": 8926, " repeal": 8927, " falls": 8928, " literatu": 8929, " inequ": 8930, "ardi": 8931, " musical": 8932, " legacy": 8933, " Ros": 8934, " blocked": 8935, " funded": 8936, " innocent": 8937, "ietie": 8938, " dates": 8939, " consensu": 8940, "icket": 8941, " ordinary": 8942, " breaks": 8943, " Pot": 8944, " upgrade": 8945, "bertar": 8946, " swim": 8947, "cop": 8948, " intent": 8949, " Asse": 8950, " iP": 8951, " destinat": 8952, "ecutiv": 8953, "ander": 8954, " ves": 8955, " Sometime": 8956, " concrete": 8957, " Indeed": 8958, " variatio": 8959, "63": 8960, " Bron": 8961, " fo": 8962, "elect": 8963, " distract": 8964, " Age": 8965, " 51": 8966, "ppers": 8967, " Lim": 8968, "plus": 8969, " shout": 8970, "mad": 8971, " Olympic": 8972, "mes": 8973, "unicipa": 8974, "nell": 8975, " guitar": 8976, " ratio": 8977, " studied": 8978, " blast": 8979, " march": 8980, " Kong": 8981, " buff": 8982, "2015": 8983, " (\u201c": 8984, "amacar": 8985, " symp": 8986, " rescue": 8987, " Plus": 8988, "annels": 8989, " Es": 8990, "ancin": 8991, " warrant": 8992, "turn": 8993, "---": 8994, " counts": 8995, " requeste": 8996, " Control": 8997, " Pres": 8998, " Galaxy": 8999, " na": 9000, " Gri": 9001, "shot": 9002, " motivati": 9003, " extraord": 9004, " rot": 9005, " deficit": 9006, "Facebook": 9007, " Gaza": 9008, " soil": 9009, " welcom": 9010, "\">": 9011, " mistakes": 9012, " bub": 9013, " mult": 9014, " Orig": 9015, " paramete": 9016, "shed": 9017, "frie": 9018, " Ap": 9019, " recon": 9020, " dance": 9021, "ammed": 9022, " Dutch": 9023, " follower": 9024, "conf": 9025, "ennis": 9026, "ilitie": 9027, " insisted": 9028, "lects": 9029, "UN": 9030, "News": 9031, " fur": 9032, " Nintendo": 9033, " Greece": 9034, " Ol": 9035, " checks": 9036, " Cost": 9037, "esse": 9038, "62": 9039, " reliable": 9040, " tracking": 9041, " arrive": 9042, "arin": 9043, " Indiana": 9044, " Tro": 9045, " racism": 9046, "plate": 9047, "Pre": 9048, "ols": 9049, " scope": 9050, " fighter": 9051, " stolen": 9052, " bread": 9053, " peaceful": 9054, " Bridge": 9055, " fascinat": 9056, " List": 9057, " guest": 9058, " Portland": 9059, " Without": 9060, " supplies": 9061, " rif": 9062, "RL": 9063, " \u201d": 9064, " emphasiz": 9065, " Dave": 9066, " password": 9067, " gatherin": 9068, " commonly": 9069, " hoped": 9070, " Does": 9071, " ridiculo": 9072, " monitori": 9073, " Ott": 9074, " superior": 9075, " performi": 9076, "usale": 9077, "keep": 9078, "AF": 9079, " diverse": 9080, " Use": 9081, " arrangem": 9082, " Award": 9083, " auto": 9084, " bow": 9085, " absor": 9086, " regulate": 9087, " tie": 9088, "::": 9089, " Empire": 9090, "door": 9091, "bas": 9092, "anti": 9093, " abroad": 9094, " membersh": 9095, " manifest": 9096, " !": 9097, "aeda": 9098, "\":\"": 9099, " projecti": 9100, "rais": 9101, " ignored": 9102, " Ross": 9103, " dust": 9104, " arbit": 9105, " Line": 9106, " whenever": 9107, " bacteria": 9108, " Eag": 9109, "cur": 9110, " Six": 9111, " guidelin": 9112, " acquired": 9113, "case": 9114, "merce": 9115, " Authorit": 9116, " warn": 9117, "cr": 9118, " Utah": 9119, "olph": 9120, " Gun": 9121, " usage": 9122, " gig": 9123, " striking": 9124, " exit": 9125, "uits": 9126, " Las": 9127, " ~": 9128, " Tes": 9129, "orge": 9130, "igate": 9131, " replied": 9132, "flix": 9133, "93": 9134, "84": 9135, " AI": 9136, " Price": 9137, " Lewis": 9138, " Hu": 9139, " wars": 9140, "only": 9141, " counsel": 9142, " punishme": 9143, " persons": 9144, "lem": 9145, "aware": 9146, " hung": 9147, " drove": 9148, " beauty": 9149, " rent": 9150, "they": 9151, " incl": 9152, " disclose": 9153, " forecast": 9154, " Magic": 9155, " Code": 9156, "ught": 9157, " prompt": 9158, " Oklahoma": 9159, "Yet": 9160, " hockey": 9161, "ptian": 9162, "UST": 9163, " NE": 9164, "David": 9165, "cest": 9166, "CL": 9167, " quote": 9168, "73": 9169, "shir": 9170, "emed": 9171, " spokeswo": 9172, " ramp": 9173, " Som": 9174, " Harvard": 9175, "season": 9176, " Atlantic": 9177, " secondar": 9178, "BM": 9179, " tactics": 9180, " Sus": 9181, "\\xef\\xbc": 9182, " meaningf": 9183, " skept": 9184, " intercep": 9185, " clinical": 9186, " equality": 9187, " banking": 9188, " Russell": 9189, "break": 9190, "olunt": 9191, " pursue": 9192, " 2020": 9193, " wider": 9194, " submitte": 9195, "ient": 9196, "ngs": 9197, "Her": 9198, " Inf": 9199, " tear": 9200, " letting": 9201, " exceed": 9202, " visiting": 9203, " registra": 9204, " employed": 9205, " domain": 9206, "stei": 9207, "high": 9208, "arts": 9209, "enez": 9210, " origin": 9211, " Ale": 9212, " centers": 9213, " Sweden": 9214, "Still": 9215, " transit": 9216, "xu": 9217, " senator": 9218, "ilari": 9219, " monthly": 9220, "inson": 9221, " Pop": 9222, " Bureau": 9223, "reati": 9224, "OK": 9225, " predicte": 9226, "type": 9227, "92": 9228, " compare": 9229, " Capit": 9230, "Part": 9231, " Football": 9232, " museum": 9233, " Ontario": 9234, " Vi": 9235, "produc": 9236, "inin": 9237, " supervis": 9238, " Alexande": 9239, " waters": 9240, "atta": 9241, "orti": 9242, "atib": 9243, " motivate": 9244, " Mach": 9245, "abe": 9246, " ax": 9247, " enterpri": 9248, " Beijing": 9249, " overseas": 9250, " liquid": 9251, "Sm": 9252, " assign": 9253, "phs": 9254, " Gulf": 9255, "ocolat": 9256, "ags": 9257, " Bon": 9258, " patch": 9259, " CS": 9260, "rence": 9261, " assassin": 9262, " Death": 9263, "stan": 9264, " entitled": 9265, " Victoria": 9266, " Roberts": 9267, "orte": 9268, "div": 9269, "IF": 9270, "eness": 9271, " helpful": 9272, " Jam": 9273, " hyper": 9274, " DO": 9275, "ping": 9276, " designs": 9277, " dub": 9278, " obligati": 9279, "fas": 9280, " targetin": 9281, " rank": 9282, "itter": 9283, " Cry": 9284, " Rh": 9285, " feminist": 9286, "haust": 9287, " Run": 9288, "Sim": 9289, " acid": 9290, " Saf": 9291, "94": 9292, " urged": 9293, "made": 9294, " correlat": 9295, " Start": 9296, "weet": 9297, "friend": 9298, "Chris": 9299, " WH": 9300, " lunch": 9301, " Jerusale": 9302, " Liverpoo": 9303, "zi": 9304, " adj": 9305, "Ke": 9306, " okay": 9307, " weigh": 9308, "El": 9309, " loose": 9310, " Among": 9311, " rocket": 9312, " Justin": 9313, " annivers": 9314, " Silver": 9315, " servers": 9316, " render": 9317, " deadline": 9318, "dic": 9319, " Set": 9320, " Carter": 9321, "die": 9322, " thorough": 9323, "Though": 9324, " neck": 9325, " shadow": 9326, " broader": 9327, " Link": 9328, " accusati": 9329, " phrase": 9330, "71": 9331, " journal": 9332, " focusing": 9333, " clock": 9334, " toxic": 9335, "Are": 9336, "argo": 9337, " explosiv": 9338, " wealthy": 9339, " unexpect": 9340, " obs": 9341, "pow": 9342, " stepped": 9343, " Vietnam": 9344, " pig": 9345, " Kurd": 9346, " Hon": 9347, " settled": 9348, " dialogue": 9349, "dney": 9350, " Nob": 9351, "tena": 9352, " circulat": 9353, " Nic": 9354, "\u0092": 9355, " tape": 9356, " processo": 9357, " Mas": 9358, " Rap": 9359, " 1992": 9360, " fool": 9361, " Bud": 9362, " mit": 9363, " quoted": 9364, " stabilit": 9365, " firing": 9366, " \u2212": 9367, " Hop": 9368, "phic": 9369, " boom": 9370, "osexu": 9371, "estyl": 9372, " actively": 9373, " Az": 9374, " semi": 9375, " Ele": 9376, "FO": 9377, "oded": 9378, " overs": 9379, " fram": 9380, " submit": 9381, "rite": 9382, " forcing": 9383, " YOU": 9384, " ec": 9385, " childhoo": 9386, " shield": 9387, "isan": 9388, "inch": 9389, " relax": 9390, " Fall": 9391, " shame": 9392, " smell": 9393, " delegate": 9394, " nic": 9395, " LA": 9396, " tent": 9397, " inspirat": 9398, "\u2014\u2014\u2014\u2014": 9399, " Equ": 9400, "unct": 9401, " artifici": 9402, " preparin": 9403, " contempo": 9404, " outrage": 9405, " surely": 9406, " sear": 9407, " anonymou": 9408, " cow": 9409, "cide": 9410, " attacker": 9411, "dep": 9412, " harassme": 9413, "oty": 9414, "step": 9415, " silence": 9416, " Hur": 9417, " Ell": 9418, " weekly": 9419, " argues": 9420, " errors": 9421, " arguing": 9422, "rait": 9423, " odds": 9424, "fall": 9425, "lash": 9426, " soccer": 9427, " Bible": 9428, "fit": 9429, " ratings": 9430, " keys": 9431, " dimensio": 9432, " Graham": 9433, " ages": 9434, " Tech": 9435, "tons": 9436, "agic": 9437, " reverse": 9438, "cap": 9439, "itche": 9440, " greatly": 9441, " demandin": 9442, " saving": 9443, "burg": 9444, " deadly": 9445, " titled": 9446, " tips": 9447, "utio": 9448, " smoking": 9449, " Cas": 9450, " preparat": 9451, " occupati": 9452, " 95": 9453, " unpre": 9454, "held": 9455, " healthca": 9456, " entrepre": 9457, " abilitie": 9458, " streamin": 9459, "viousl": 9460, "ainia": 9461, " Meanwhil": 9462, "some": 9463, " channels": 9464, " bias": 9465, "ihad": 9466, " Edward": 9467, "pack": 9468, " precisel": 9469, " deserve": 9470, " deny": 9471, " Sarah": 9472, " voices": 9473, " spots": 9474, " particle": 9475, " landing": 9476, " Was": 9477, " Obamacar": 9478, " ceremony": 9479, " Cow": 9480, " Vill": 9481, " Uber": 9482, " Maryland": 9483, " MORE": 9484, " Dev": 9485, " waves": 9486, " cream": 9487, " poison": 9488, "ritio": 9489, " virus": 9490, " alliance": 9491, "ION": 9492, "\u00b7": 9493, " Hand": 9494, "\\xe2\\x94": 9495, " anxiety": 9496, " mortgage": 9497, " encry": 9498, " Base": 9499, "html": 9500, "sti": 9501, "ista": 9502, " tremendo": 9503, "minute": 9504, " survival": 9505, " stored": 9506, " centurie": 9507, " veterans": 9508, "EST": 9509, " animatio": 9510, " lapt": 9511, " reforms": 9512, " shr": 9513, " inequali": 9514, " Chelsea": 9515, " Philippi": 9516, " calm": 9517, " Standard": 9518, " promisin": 9519, " sorts": 9520, "iller": 9521, "iest": 9522, " reveals": 9523, "umble": 9524, "reate": 9525, "eria": 9526, "ierce": 9527, " grade": 9528, "NT": 9529, " savings": 9530, " Leader": 9531, " windows": 9532, " whereas": 9533, " tonight": 9534, " Warren": 9535, " Hamp": 9536, " dispute": 9537, " alarm": 9538, " Addition": 9539, " Trib": 9540, " releases": 9541, " borders": 9542, " surge": 9543, " circle": 9544, " Hold": 9545, " spectrum": 9546, " assumed": 9547, " emerging": 9548, " Egyptian": 9549, " aer": 9550, " inches": 9551, " drives": 9552, " birds": 9553, "oric": 9554, " wond": 9555, " persu": 9556, " discount": 9557, "erg": 9558, "VD": 9559, "asury": 9560, " sentimen": 9561, " 1950": 9562, " trials": 9563, "HT": 9564, " san": 9565, " gre": 9566, " fet": 9567, " competin": 9568, " salt": 9569, " Credit": 9570, " hook": 9571, " burning": 9572, " seg": 9573, "AND": 9574, " Bruce": 9575, "iere": 9576, " quit": 9577, "lyi": 9578, " fate": 9579, " PD": 9580, "cor": 9581, " 1993": 9582, "je": 9583, "Dem": 9584, " facilita": 9585, " Scottish": 9586, " distingu": 9587, " Eff": 9588, " reinforc": 9589, " minim": 9590, "elson": 9591, " continuo": 9592, " assigned": 9593, " recipe": 9594, " rookie": 9595, " Ark": 9596, " beach": 9597, " mos": 9598, "acre": 9599, "author": 9600, "wich": 9601, " Have": 9602, " Jonathan": 9603, "EP": 9604, " repeat": 9605, " Design": 9606, " rooms": 9607, "ormal": 9608, "Scri": 9609, " Common": 9610, " ethnic": 9611, " Ak": 9612, " Corporat": 9613, " battles": 9614, "poi": 9615, " pointing": 9616, " Leon": 9617, "vereig": 9618, " Ren": 9619, " exhaust": 9620, " chicken": 9621, "bits": 9622, " suspects": 9623, " Lam": 9624, "oding": 9625, " revelati": 9626, " \u2022": 9627, " Belg": 9628, "aved": 9629, " dying": 9630, " Yeah": 9631, "chant": 9632, " unfair": 9633, " renewabl": 9634, "acket": 9635, " drone": 9636, " blockcha": 9637, " theories": 9638, " Charlie": 9639, " sevent": 9640, " prototyp": 9641, "wered": 9642, "anges": 9643, " eligible": 9644, "emic": 9645, " managing": 9646, " Son": 9647, "rar": 9648, "ingers": 9649, " Story": 9650, " Reagan": 9651, " bab": 9652, " simultan": 9653, " biologic": 9654, "bow": 9655, " awarded": 9656, "agh": 9657, " hydro": 9658, "remy": 9659, "AY": 9660, " fault": 9661, "wei": 9662, "ictiona": 9663, "NG": 9664, "81": 9665, " Left": 9666, " wounded": 9667, " wanting": 9668, " staying": 9669, "size": 9670, "asin": 9671, " playoffs": 9672, " ministry": 9673, " puzz": 9674, " Liberal": 9675, "iev": 9676, " clothing": 9677, " Ban": 9678, " Instagra": 9679, " 53": 9680, "ester": 9681, "Google": 9682, " evaluate": 9683, " pron": 9684, " smile": 9685, " measurem": 9686, "lee": 9687, "Reuters": 9688, "oenix": 9689, " margin": 9690, " Affairs": 9691, " invasion": 9692, " dominant": 9693, " Ast": 9694, "ancia": 9695, " gif": 9696, " analyst": 9697, "rele": 9698, "Source": 9699, " contacte": 9700, " 120": 9701, " residenc": 9702, " athletes": 9703, " Protecti": 9704, "vit": 9705, "83": 9706, " stem": 9707, " damaged": 9708, "test": 9709, " defeated": 9710, " Boe": 9711, " illness": 9712, " chest": 9713, " Feder": 9714, " Click": 9715, "CO": 9716, "orous": 9717, "Mus": 9718, " picks": 9719, " openly": 9720, "??": 9721, " Assembly": 9722, "raig": 9723, "ativi": 9724, " charity": 9725, "rus": 9726, "ingt": 9727, " tweets": 9728, " bin": 9729, " Hong": 9730, " opens": 9731, " Dog": 9732, "ylum": 9733, "urgen": 9734, "umin": 9735, " Trade": 9736, " GT": 9737, "hist": 9738, "alia": 9739, " sect": 9740, "uat": 9741, " managers": 9742, " Lt": 9743, " dish": 9744, " Vice": 9745, "inf": 9746, " appointm": 9747, "izabet": 9748, " suppleme": 9749, "nigh": 9750, "PL": 9751, " vig": 9752, " rounds": 9753, " sou": 9754, "ctic": 9755, " consent": 9756, "even": 9757, " autonom": 9758, " Assad": 9759, " suppress": 9760, "claim": 9761, " graphics": 9762, " studying": 9763, "aying": 9764, "uh": 9765, " hosted": 9766, " athletic": 9767, "Fi": 9768, " limitati": 9769, "91": 9770, " passage": 9771, " shipping": 9772, " pocket": 9773, " defendan": 9774, "82": 9775, " suspensi": 9776, " stops": 9777, " aged": 9778, " memories": 9779, " Berlin": 9780, " Mrs": 9781, "ecess": 9782, " stere": 9783, " orbit": 9784, " tiss": 9785, " Murray": 9786, "Click": 9787, " Pass": 9788, " defendin": 9789, " 54": 9790, "dations": 9791, " prev": 9792, " intim": 9793, " evaluati": 9794, " beings": 9795, " ML": 9796, "hoods": 9797, " molec": 9798, " 1991": 9799, " interior": 9800, " comics": 9801, "igeno": 9802, "party": 9803, "aren": 9804, " Indust": 9805, " apologiz": 9806, " overcome": 9807, "week": 9808, "assy": 9809, " musician": 9810, "riors": 9811, " sovereig": 9812, " keyboard": 9813, "ffick": 9814, " Tennesse": 9815, " hopefull": 9816, "Dis": 9817, " missions": 9818, " dies": 9819, " 250": 9820, " recognis": 9821, " dating": 9822, " Gil": 9823, "tory": 9824, "core": 9825, "atar": 9826, " spac": 9827, "2013": 9828, " Ruby": 9829, " torture": 9830, " gross": 9831, " adap": 9832, " divor": 9833, " Children": 9834, "irds": 9835, "uz": 9836, "endi": 9837, "Rem": 9838, " racing": 9839, " Expl": 9840, "spec": 9841, " memo": 9842, " discon": 9843, "oln": 9844, "enci": 9845, " utility": 9846, " lifetime": 9847, " Represen": 9848, "ringe": 9849, " scrutin": 9850, " Brooklyn": 9851, " backing": 9852, "\u00e2": 9853, " Main": 9854, "flow": 9855, " promotin": 9856, " continen": 9857, " Crime": 9858, "}}": 9859, " gate": 9860, " Bloom": 9861, " filter": 9862, " glad": 9863, " picking": 9864, " Yan": 9865, "avi": 9866, " underlyi": 9867, " Keep": 9868, "Story": 9869, " emphasis": 9870, " 56": 9871, " tired": 9872, " Gary": 9873, " adviser": 9874, " CA": 9875, " custody": 9876, "yste": 9877, " legally": 9878, "making": 9879, " echo": 9880, " ease": 9881, "annon": 9882, "enezuel": 9883, " riding": 9884, "yes": 9885, "VP": 9886, " sed": 9887, "sub": 9888, "py": 9889, " helic": 9890, " Sean": 9891, " Executiv": 9892, " Sure": 9893, " knee": 9894, " ideologi": 9895, " organic": 9896, "Ms": 9897, "onals": 9898, " gene": 9899, " Andre": 9900, " Iron": 9901, " Netflix": 9902, " Video": 9903, " Through": 9904, " enhance": 9905, "Ag": 9906, " eager": 9907, " fossil": 9908, " Clark": 9909, "Out": 9910, "bott": 9911, "bian": 9912, " chronic": 9913, " Ox": 9914, " Brexit": 9915, " Thompson": 9916, "tak": 9917, " diseases": 9918, " tower": 9919, " beating": 9920, " lad": 9921, " endorse": 9922, " blank": 9923, " bold": 9924, " tables": 9925, " prol": 9926, "left": 9927, " fled": 9928, " trends": 9929, "organ": 9930, " lineup": 9931, "akh": 9932, " bless": 9933, "uto": 9934, "oking": 9935, " hip": 9936, "eces": 9937, " MLS": 9938, " removal": 9939, "\u0103": 9940, " preferre": 9941, "rator": 9942, " spectac": 9943, " historia": 9944, " expandin": 9945, " kitchen": 9946, " hypothes": 9947, " timing": 9948, " escal": 9949, " roots": 9950, " mac": 9951, " loves": 9952, " memor": 9953, " chip": 9954, " module": 9955, " notable": 9956, " celebrit": 9957, " nerv": 9958, " fundrais": 9959, "\u0443": 9960, " installa": 9961, " coaching": 9962, " requirin": 9963, " Po": 9964, "don": 9965, " explaini": 9966, " Yemen": 9967, " magnet": 9968, " Ukrainia": 9969, " Pentagon": 9970, " Libya": 9971, " Exper": 9972, " Sydney": 9973, "yal": 9974, "\",\"": 9975, "enal": 9976, " whis": 9977, " periods": 9978, " pollutio": 9979, " gest": 9980, " Sab": 9981, " answered": 9982, " Box": 9983, "lie": 9984, " searchin": 9985, " Kentucky": 9986, " info": 9987, " lux": 9988, " Wat": 9989, "tifie": 9990, " muscle": 9991, " sty": 9992, "ribi": 9993, "250": 9994, " routine": 9995, " talented": 9996, " birthday": 9997, "anes": 9998, " uniform": 9999, " Pict": 10000, " justify": 10001, " retailer": 10002, " hire": 10003, " setup": 10004, " Sound": 10005, " badly": 10006, "herla": 10007, " Gordon": 10008, "ingly": 10009, " bene": 10010, " Phill": 10011, "\u00b0": 10012, " ).": 10013, " fu": 10014, " engageme": 10015, " carries": 10016, " stance": 10017, " Metro": 10018, " pulling": 10019, " Edit": 10020, "omi": 10021, " lands": 10022, " obsc": 10023, " Hamilton": 10024, " Ur": 10025, " Festival": 10026, "Finally": 10027, "rigue": 10028, " Roll": 10029, " nin": 10030, " Station": 10031, " Cro": 10032, " Ext": 10033, " therapy": 10034, " speaker": 10035, " attendan": 10036, "izza": 10037, "Ge": 10038, " everyday": 10039, " Look": 10040, " invent": 10041, " shoes": 10042, "RO": 10043, "La": 10044, "atural": 10045, " tons": 10046, " Store": 10047, "Hz": 10048, " Marx": 10049, "ALL": 10050, " concepts": 10051, "itan": 10052, "uine": 10053, " pill": 10054, " Simon": 10055, "onesi": 10056, " Priv": 10057, " Holl": 10058, " Manageme": 10059, " Hawai": 10060, " outlets": 10061, " arrival": 10062, " deliveri": 10063, " Captain": 10064, "elli": 10065, " Kick": 10066, "gus": 10067, " weakness": 10068, " span": 10069, "sor": 10070, " telephon": 10071, " Bow": 10072, " pharm": 10073, "dly": 10074, "Reg": 10075, " coincide": 10076, "2011": 10077, "boa": 10078, " cancel": 10079, " Finally": 10080, " Ho": 10081, "asa": 10082, "Ro": 10083, " bottle": 10084, " NS": 10085, "ected": 10086, "comes": 10087, " Using": 10088, " embrac": 10089, "obb": 10090, " Delhi": 10091, " Sud": 10092, "\u043a": 10093, " arc": 10094, " Wales": 10095, " Email": 10096, " theore": 10097, "IO": 10098, " bure": 10099, " Antonio": 10100, " resist": 10101, " Event": 10102, "trans": 10103, " logo": 10104, " sixth": 10105, " upload": 10106, " Prov": 10107, " deployed": 10108, "jud": 10109, "dem": 10110, " helicopt": 10111, " ru": 10112, " partly": 10113, " Friend": 10114, "she": 10115, " genre": 10116, " 99": 10117, "TP": 10118, "elled": 10119, "Def": 10120, " topics": 10121, " cheaper": 10122, " craf": 10123, "aucr": 10124, " billions": 10125, " math": 10126, "cosyste": 10127, "figh": 10128, "umula": 10129, "ublishe": 10130, " vend": 10131, " nervous": 10132, " butter": 10133, " AL": 10134, " rolling": 10135, " Conventi": 10136, "aya": 10137, " Morgan": 10138, "NBC": 10139, " prize": 10140, " citing": 10141, "lando": 10142, " elder": 10143, " Han": 10144, " occurs": 10145, " Oakland": 10146, "ipedi": 10147, " parad": 10148, " Whether": 10149, "JP": 10150, " Final": 10151, " Election": 10152, " pleasure": 10153, "ilities": 10154, " Operatio": 10155, " unve": 10156, "ques": 10157, " signals": 10158, " hanging": 10159, " Nav": 10160, " Anna": 10161, " rebels": 10162, " lect": 10163, " disrupti": 10164, "Watch": 10165, "tsbur": 10166, " rend": 10167, " pul": 10168, "\u0627": 10169, "iano": 10170, "Mich": 10171, " Charlott": 10172, " prompted": 10173, " stamp": 10174, " export": 10175, " Therefor": 10176, "tail": 10177, " Rather": 10178, " dreams": 10179, " lifestyl": 10180, " Tok": 10181, "mers": 10182, "Earlier": 10183, " Dragon": 10184, "700": 10185, " urg": 10186, " adequ": 10187, " uncon": 10188, " Batman": 10189, " owns": 10190, " aims": 10191, "brace": 10192, " Given": 10193, "iban": 10194, " substitu": 10195, " diam": 10196, "vernme": 10197, "\u2010": 10198, "mir": 10199, "UM": 10200, " seized": 10201, " sections": 10202, "mor": 10203, " SD": 10204, " homosexu": 10205, " favourit": 10206, "js": 10207, "news": 10208, " foods": 10209, "missio": 10210, " utter": 10211, " clip": 10212, " Khan": 10213, "mann": 10214, " mystery": 10215, " Christop": 10216, " correctl": 10217, "ization": 10218, "\u00f1": 10219, "UL": 10220, " lift": 10221, " curious": 10222, " seed": 10223, " outs": 10224, " cler": 10225, " inquiry": 10226, " maintena": 10227, " voc": 10228, " abstract": 10229, " induc": 10230, "range": 10231, " tut": 10232, " labour": 10233, "ere": 10234, " sits": 10235, "Cur": 10236, " Intel": 10237, " (\"": 10238, "TO": 10239, " Nevada": 10240, " 85": 10241, "imb": 10242, "Top": 10243, "Pr": 10244, " entrance": 10245, "owing": 10246, " fabric": 10247, " Dur": 10248, " Bor": 10249, "oluntar": 10250, " emotions": 10251, "aco": 10252, "etary": 10253, " Harper": 10254, "fiel": 10255, "hal": 10256, "IE": 10257, "una": 10258, " sheet": 10259, "ctor": 10260, " cance": 10261, " pregnanc": 10262, "rot": 10263, "\u20ac": 10264, "Fr": 10265, " Linc": 10266, " asset": 10267, " arts": 10268, " Bul": 10269, " pleased": 10270, " fights": 10271, "rative": 10272, " undergro": 10273, " mood": 10274, " punch": 10275, " Der": 10276, "zo": 10277, " migrants": 10278, " McK": 10279, "augura": 10280, " unpreced": 10281, "Min": 10282, " Coal": 10283, " pregnant": 10284, " depic": 10285, " Leban": 10286, "uell": 10287, " cognitiv": 10288, " Library": 10289, " obst": 10290, " acceptab": 10291, " PA": 10292, " Trust": 10293, " Page": 10294, "iy": 10295, "tivat": 10296, " displaye": 10297, "HP": 10298, " bullet": 10299, "world": 10300, "ocat": 10301, " analysts": 10302, " shocked": 10303, " constrai": 10304, "***": 10305, "isive": 10306, "inish": 10307, " scrat": 10308, " ET": 10309, " posting": 10310, " knock": 10311, "orie": 10312, " insight": 10313, "rix": 10314, " Five": 10315, " complexi": 10316, "pled": 10317, " spr": 10318, " swit": 10319, " Wel": 10320, " guards": 10321, "BN": 10322, "\u2500": 10323, " rej": 10324, " bathroom": 10325, " colour": 10326, " departur": 10327, "anted": 10328, "ristics": 10329, " revers": 10330, "nan": 10331, " publishi": 10332, " girlfrie": 10333, "omed": 10334, " oppose": 10335, " benefici": 10336, ")<|": 10337, " traged": 10338, " nose": 10339, " Below": 10340, "outheas": 10341, " pm": 10342, " fatal": 10343, "pin": 10344, " survivor": 10345, "cated": 10346, " Tower": 10347, "2012": 10348, " municipa": 10349, " dens": 10350, " Jean": 10351, " lessons": 10352, " Whit": 10353, " segment": 10354, " afterwar": 10355, " Non": 10356, "rell": 10357, " genes": 10358, " pitc": 10359, " Cast": 10360, "ulty": 10361, " repair": 10362, " confused": 10363, " eggs": 10364, " Reserve": 10365, "KE": 10366, " BM": 10367, " Communis": 10368, " opposing": 10369, " Venezuel": 10370, "150": 10371, "Thanks": 10372, " sid": 10373, " Elizabet": 10374, "ampa": 10375, " Access": 10376, " sli": 10377, "trine": 10378, " demanded": 10379, "rior": 10380, "bul": 10381, " recruit": 10382, " conversi": 10383, "inity": 10384, " reserved": 10385, "hatta": 10386, " shirt": 10387, " Cer": 10388, ".]": 10389, " bureaucr": 10390, " adequate": 10391, "GO": 10392, " Sav": 10393, " Comey": 10394, "hard": 10395, " vocal": 10396, " resolve": 10397, "stor": 10398, "leans": 10399, " ecosyste": 10400, " bands": 10401, "\u00e8": 10402, "Paul": 10403, "Instead": 10404, " Lear": 10405, "aa": 10406, " sessions": 10407, " cock": 10408, "rentl": 10409, " persiste": 10410, " realisti": 10411, " Phoenix": 10412, " accumula": 10413, " Order": 10414, "plete": 10415, " Rome": 10416, " 57": 10417, " landed": 10418, " momentum": 10419, "lying": 10420, " Nazi": 10421, " Wolf": 10422, " guests": 10423, " dual": 10424, " Digital": 10425, " Alan": 10426, "(\"": 10427, " GDP": 10428, "olk": 10429, " 1989": 10430, " nod": 10431, " Transpor": 10432, " modified": 10433, " cheese": 10434, " scream": 10435, "rep": 10436, " jumped": 10437, " engines": 10438, " Ni": 10439, " yeah": 10440, " annoy": 10441, " ON": 10442, "rett": 10443, " teeth": 10444, " medicati": 10445, " sne": 10446, " disclosu": 10447, "base": 10448, "TER": 10449, " crypt": 10450, " concerni": 10451, " Matthew": 10452, " SH": 10453, " EPA": 10454, " Band": 10455, "ighth": 10456, " Staff": 10457, " summit": 10458, " ==": 10459, " 58": 10460, "wen": 10461, "iter": 10462, "oker": 10463, "GA": 10464, " imposed": 10465, " Cole": 10466, " camps": 10467, " royal": 10468, " bird": 10469, " refers": 10470, " pride": 10471, " Montreal": 10472, "aver": 10473, "immer": 10474, "ilitary": 10475, "Sy": 10476, "Mark": 10477, " dispos": 10478, " heroes": 10479, " Psych": 10480, " wonderin": 10481, " assembly": 10482, " buried": 10483, " Dick": 10484, "aci": 10485, " courtesy": 10486, " Area": 10487, " expense": 10488, " kit": 10489, " compatib": 10490, " monster": 10491, " desktop": 10492, " couples": 10493, " IM": 10494, " gameplay": 10495, " Mun": 10496, " Anti": 10497, " Online": 10498, "pg": 10499, " removing": 10500, "aints": 10501, " crossing": 10502, " subur": 10503, " recalled": 10504, " continua": 10505, " stranger": 10506, " describi": 10507, " attract": 10508, " Rs": 10509, " Indonesi": 10510, " vib": 10511, "peri": 10512, " Channel": 10513, " forum": 10514, " Duke": 10515, " Tax": 10516, " Raj": 10517, " Ever": 10518, "rod": 10519, "early": 10520, " isolated": 10521, " existed": 10522, "Israel": 10523, " DE": 10524, " Hart": 10525, "\u00e7": 10526, " confusio": 10527, " Move": 10528, " ancest": 10529, " Capitol": 10530, "anim": 10531, "QL": 10532, " brutal": 10533, " Sess": 10534, " Organiza": 10535, " genuine": 10536, " ideology": 10537, "iki": 10538, "eously": 10539, " nurs": 10540, " asylum": 10541, "Whe": 10542, "Fl": 10543, " routes": 10544, "open": 10545, "aping": 10546, " dropping": 10547, "tile": 10548, " physics": 10549, " Writ": 10550, " Form": 10551, "xx": 10552, " holes": 10553, "oga": 10554, " disabili": 10555, "rm": 10556, " enroll": 10557, " contrary": 10558, "angeli": 10559, " tab": 10560, " boxes": 10561, " bankrupt": 10562, "Cor": 10563, " Steel": 10564, " stack": 10565, "Dec": 10566, "SC": 10567, " jer": 10568, " Low": 10569, "owned": 10570, " lesson": 10571, "olves": 10572, " Hung": 10573, " meal": 10574, " SU": 10575, " mysterio": 10576, " buck": 10577, "rying": 10578, " integrit": 10579, " executed": 10580, " inherent": 10581, " Followin": 10582, " soldier": 10583, " donors": 10584, " Officer": 10585, "roris": 10586, " silent": 10587, " 600": 10588, " vegetabl": 10589, "rc": 10590, " refuse": 10591, "mont": 10592, " Orleans": 10593, "ixture": 10594, "irates": 10595, " mice": 10596, " explorat": 10597, "estri": 10598, " profound": 10599, " Engineer": 10600, " Custom": 10601, " expenses": 10602, " acquisit": 10603, " Total": 10604, " probabil": 10605, " FR": 10606, " traffick": 10607, "arget": 10608, " cigarett": 10609, "bles": 10610, "CD": 10611, " packages": 10612, "ounci": 10613, " Alliance": 10614, "gov": 10615, " travelin": 10616, " mile": 10617, " choosing": 10618, " Sant": 10619, " kicked": 10620, " Michel": 10621, " vert": 10622, " geograph": 10623, " Change": 10624, " Mail": 10625, "inite": 10626, "aining": 10627, "Hey": 10628, " Communic": 10629, "ounc": 10630, " Ta": 10631, "aud": 10632, " wedding": 10633, " survived": 10634, " Niger": 10635, " Manhatta": 10636, "AB": 10637, "has": 10638, "erts": 10639, "thod": 10640, " garden": 10641, " towns": 10642, " 66": 10643, "\u2212": 10644, " transcri": 10645, " Od": 10646, " speakers": 10647, " engaging": 10648, "unc": 10649, " probe": 10650, " Pittsbur": 10651, " credits": 10652, " Patriots": 10653, "Gener": 10654, " modest": 10655, " Know": 10656, " Capital": 10657, " embrace": 10658, "arie": 10659, "pto": 10660, "onate": 10661, " Treasury": 10662, " Later": 10663, "Speaking": 10664, " hunting": 10665, " Source": 10666, " fel": 10667, "actor": 10668, " checking": 10669, " Tesla": 10670, "wind": 10671, " sexually": 10672, " Spir": 10673, " BC": 10674, " Hunt": 10675, "rena": 10676, " stating": 10677, " bombs": 10678, " Missouri": 10679, " hal": 10680, " defended": 10681, " Morm": 10682, " Marine": 10683, " fleet": 10684, " loaded": 10685, " declarat": 10686, "ILL": 10687, " avo": 10688, " concert": 10689, " Griff": 10690, " Barb": 10691, "Next": 10692, " Wright": 10693, " charging": 10694, " Case": 10695, " printed": 10696, " scar": 10697, " Portug": 10698, " Perry": 10699, " Hitler": 10700, " outcomes": 10701, " refugee": 10702, " Point": 10703, " Sheriff": 10704, " GO": 10705, " Could": 10706, " physicia": 10707, " converte": 10708, "2017": 10709, " harsh": 10710, " earthqua": 10711, " flavor": 10712, "olds": 10713, "apes": 10714, " bitter": 10715, " athe": 10716, "ortheas": 10717, " CB": 10718, "fat": 10719, " JavaScri": 10720, "inar": 10721, " Orlando": 10722, " \u00a9": 10723, " lens": 10724, " Tai": 10725, "\u2026.": 10726, " nowhere": 10727, " editoria": 10728, " snap": 10729, " attendin": 10730, " Entertai": 10731, "riv": 10732, "charg": 10733, "Pal": 10734, " Lincoln": 10735, "ethel": 10736, " lane": 10737, "ighte": 10738, " Holy": 10739, " Jeremy": 10740, " sophisti": 10741, " MPs": 10742, " Everyone": 10743, " briefly": 10744, "ixon": 10745, " Join": 10746, "wel": 10747, " observer": 10748, " closest": 10749, " deemed": 10750, " imaginat": 10751, " ly": 10752, "DR": 10753, "Thank": 10754, " communis": 10755, " patri": 10756, " cabinet": 10757, " 72": 10758, " ric": 10759, " Having": 10760, "pecto": 10761, "izing": 10762, " activate": 10763, " Edition": 10764, " barg": 10765, " robust": 10766, "Mod": 10767, " endless": 10768, "Right": 10769, "mits": 10770, " demograp": 10771, "onda": 10772, " stro": 10773, "rows": 10774, "doc": 10775, "ateful": 10776, " packed": 10777, " solo": 10778, " parti": 10779, " examine": 10780, " scared": 10781, "ancer": 10782, " mirror": 10783, " Short": 10784, " Place": 10785, " decor": 10786, " Domin": 10787, "cessi": 10788, " da": 10789, " ambassad": 10790, "oves": 10791, " fingers": 10792, " Player": 10793, " Gh": 10794, "DE": 10795, "ext": 10796, "eri": 10797, " reserv": 10798, " evolved": 10799, "menta": 10800, "NY": 10801, " notor": 10802, " env": 10803, " alert": 10804, "Int": 10805, " impresse": 10806, "GE": 10807, " Dream": 10808, " Cooper": 10809, " Andy": 10810, "lynn": 10811, " flour": 10812, " attracte": 10813, " Dak": 10814, " 59": 10815, "GM": 10816, " wet": 10817, " Think": 10818, " Connecti": 10819, "ested": 10820, "Br": 10821, " stom": 10822, "Net": 10823, " organise": 10824, " Fa": 10825, " Command": 10826, "yc": 10827, "iment": 10828, " promoted": 10829, " Malay": 10830, " Giants": 10831, " CPU": 10832, "zone": 10833, " steady": 10834, " senators": 10835, " recovere": 10836, "onge": 10837, " Taliban": 10838, "panic": 10839, "income": 10840, " Les": 10841, " junior": 10842, " Studies": 10843, "acher": 10844, " Model": 10845, " Chairman": 10846, "gere": 10847, "pres": 10848, "agg": 10849, "cien": 10850, " brands": 10851, " Occ": 10852, " desp": 10853, " epic": 10854, " inher": 10855, " vit": 10856, "mind": 10857, " wireless": 10858, " shops": 10859, " bust": 10860, "Former": 10861, " criteria": 10862, " leaked": 10863, " brewer": 10864, " Russians": 10865, " bowl": 10866, " bits": 10867, " Map": 10868, " Louisian": 10869, " toll": 10870, " Ocean": 10871, " CON": 10872, " venture": 10873, " enact": 10874, " NO": 10875, " Wi": 10876, " 62": 10877, "ucker": 10878, " radiatio": 10879, " Opp": 10880, "ivals": 10881, " gut": 10882, " beta": 10883, " CC": 10884, " 800": 10885, "imir": 10886, "ias": 10887, "ethod": 10888, "Offic": 10889, " polar": 10890, " impacts": 10891, " identica": 10892, " meters": 10893, "profi": 10894, "char": 10895, "itual": 10896, "alog": 10897, " voluntar": 10898, " diagnose": 10899, "rams": 10900, "ATCH": 10901, "Yeah": 10902, "napp": 10903, "uctan": 10904, " Eb": 10905, " 1000": 10906, "olas": 10907, "good": 10908, " subtle": 10909, " figured": 10910, "tog": 10911, " disabled": 10912, " blamed": 10913, "ollar": 10914, " mouse": 10915, " Queens": 10916, " releasin": 10917, " blocking": 10918, " Log": 10919, "Ty": 10920, "lib": 10921, " proceedi": 10922, " consecut": 10923, " Olympics": 10924, " Argentin": 10925, "Share": 10926, " expectin": 10927, " obstacle": 10928, "View": 10929, " detentio": 10930, " hiring": 10931, "user": 10932, " hosts": 10933, " Oil": 10934, "nia": 10935, " killer": 10936, " accuracy": 10937, " Rou": 10938, " Vlad": 10939, "UC": 10940, " anarch": 10941, "amous": 10942, " endors": 10943, " Moreover": 10944, " produces": 10945, " chocolat": 10946, "iu": 10947, " knife": 10948, " formula": 10949, "thodox": 10950, " Robinson": 10951, " unnecess": 10952, " bombing": 10953, "asant": 10954, "Update": 10955, "forma": 10956, " rebuild": 10957, " Tam": 10958, " forgotte": 10959, "mati": 10960, "icaid": 10961, " expects": 10962, " embed": 10963, " wise": 10964, " None": 10965, " Gro": 10966, " Kings": 10967, " raises": 10968, " ignor": 10969, " Pant": 10970, "oting": 10971, " void": 10972, " riders": 10973, " Jerry": 10974, " Aaron": 10975, "oming": 10976, " checked": 10977, " backs": 10978, " Drug": 10979, "arian": 10980, " Poland": 10981, " breast": 10982, " stats": 10983, " recessio": 10984, " rotation": 10985, " chaos": 10986, "itchell": 10987, " uncomfor": 10988, " Fantas": 10989, "ocacy": 10990, " FA": 10991, " Mess": 10992, "Trans": 10993, " poster": 10994, " Gib": 10995, " presents": 10996, " burned": 10997, "scar": 10998, "rieve": 10999, "atson": 11000, " vo": 11001, " enabled": 11002, " slot": 11003, " fails": 11004, "speed": 11005, "non": 11006, " restore": 11007, "izin": 11008, " courage": 11009, " bases": 11010, " intimida": 11011, "white": 11012, "leep": 11013, " handled": 11014, " ally": 11015, "ropol": 11016, "ocu": 11017, " trailer": 11018, " reass": 11019, " influent": 11020, " evident": 11021, " ought": 11022, " Future": 11023, " Adams": 11024, " invested": 11025, " angle": 11026, "lay": 11027, " transmit": 11028, " Would": 11029, "Time": 11030, " flights": 11031, " bears": 11032, " Lad": 11033, " frac": 11034, " occupied": 11035, " Singapor": 11036, " Craig": 11037, " Francis": 11038, "hum": 11039, " nationwi": 11040, " cinem": 11041, " Word": 11042, "ICE": 11043, "Black": 11044, "nest": 11045, " Corp": 11046, " Stanley": 11047, " Arsenal": 11048, "cyc": 11049, " biz": 11050, " tanks": 11051, "ocial": 11052, " marginal": 11053, " Fun": 11054, " analys": 11055, "itiou": 11056, " Steam": 11057, " Hug": 11058, "ville": 11059, "oses": 11060, " similarl": 11061, ").[": 11062, " evac": 11063, " babies": 11064, " immune": 11065, " Stanford": 11066, "tery": 11067, "ishop": 11068, " Should": 11069, "oning": 11070, "ahoo": 11071, " hub": 11072, "Gl": 11073, " Est": 11074, "oub": 11075, " Pope": 11076, "Further": 11077, " Pa": 11078, " Islamist": 11079, " juris": 11080, " adopt": 11081, " commente": 11082, " 360": 11083, "ugh": 11084, " solely": 11085, " Murphy": 11086, "ogen": 11087, "iva": 11088, " inaugura": 11089, " flav": 11090, " complian": 11091, "SE": 11092, " Photogra": 11093, "ulin": 11094, "cted": 11095, " coup": 11096, " beneath": 11097, "hr": 11098, "jo": 11099, " earnings": 11100, " deployme": 11101, " backward": 11102, " acceptin": 11103, " absurd": 11104, " shelter": 11105, "dr": 11106, "bourn": 11107, " Warner": 11108, " Investig": 11109, "interes": 11110, "note": 11111, " undertak": 11112, " terminat": 11113, " balls": 11114, " Things": 11115, " admissio": 11116, "SL": 11117, " Netherla": 11118, "\u200b": 11119, " visits": 11120, " Reddit": 11121, " entity": 11122, "luded": 11123, "Obama": 11124, " assemble": 11125, " Afghan": 11126, "forward": 11127, " verify": 11128, " regarded": 11129, "celon": 11130, "?\u2019": 11131, " template": 11132, "usal": 11133, " Cold": 11134, "rav": 11135, " ranking": 11136, " bump": 11137, " flee": 11138, "ART": 11139, " insec": 11140, "State": 11141, "iate": 11142, "Three": 11143, "ining": 11144, " examined": 11145, "oop": 11146, "such": 11147, " nonprofi": 11148, "arson": 11149, "\\xf0\\x9f": 11150, " lean": 11151, " awards": 11152, " reck": 11153, "tha": 11154, " Reds": 11155, " keen": 11156, " Snowden": 11157, " Medicare": 11158, " wisdom": 11159, " Mother": 11160, " Hans": 11161, " patent": 11162, " PlayStat": 11163, " Pel": 11164, "atherin": 11165, " diver": 11166, " terrif": 11167, " imprison": 11168, " belt": 11169, " jihad": 11170, " singer": 11171, " males": 11172, " compelli": 11173, " Jenn": 11174, " whist": 11175, " consists": 11176, "istr": 11177, " jet": 11178, "quest": 11179, "Supp": 11180, " Mario": 11181, " drum": 11182, "Ps": 11183, " operated": 11184, "lle": 11185, "ardo": 11186, " rolled": 11187, " oxy": 11188, " mothers": 11189, "uestion": 11190, " shocking": 11191, "take": 11192, "Good": 11193, "Step": 11194, "bridg": 11195, "\u2588\u2588": 11196, " outstand": 11197, " interrup": 11198, " Nelson": 11199, "oints": 11200, "encer": 11201, " reflects": 11202, " Ottawa": 11203, "Har": 11204, "reshol": 11205, "cott": 11206, " premiere": 11207, " initiate": 11208, " contamin": 11209, " Nich": 11210, " Ca": 11211, " Vin": 11212, " Medicaid": 11213, "iders": 11214, " static": 11215, "million": 11216, " beaten": 11217, "aborat": 11218, " Ven": 11219, " adoption": 11220, "olid": 11221, " inbox": 11222, " robots": 11223, "vas": 11224, " stimulat": 11225, " reluctan": 11226, "phant": 11227, " Financia": 11228, " manual": 11229, " </": 11230, " inex": 11231, " Wiki": 11232, "XX": 11233, " bulk": 11234, " screw": 11235, " quar": 11236, "ika": 11237, "bably": 11238, " fulfill": 11239, " Doctor": 11240, "bat": 11241, " sake": 11242, " nu": 11243, "fied": 11244, "armed": 11245, " polling": 11246, "Comp": 11247, " seeks": 11248, " Cult": 11249, "gal": 11250, " mm": 11251, " Marg": 11252, "pers": 11253, " longtime": 11254, " liberty": 11255, "mates": 11256, "\u00e5": 11257, " applies": 11258, " 63": 11259, "TR": 11260, " tension": 11261, " pour": 11262, "attere": 11263, " tragedy": 11264, "approp": 11265, "keley": 11266, "ositi": 11267, " py": 11268, " attach": 11269, " quest": 11270, " guidance": 11271, " submissi": 11272, " iPad": 11273, "ushing": 11274, "sets": 11275, " breach": 11276, " gym": 11277, " finishin": 11278, " Na": 11279, "osing": 11280, " synd": 11281, " pose": 11282, "bacco": 11283, " Beck": 11284, "qui": 11285, "grade": 11286, " orient": 11287, " backup": 11288, " Grant": 11289, "dev": 11290, " graphic": 11291, " Several": 11292, "inel": 11293, "bb": 11294, " Unlike": 11295, "ERE": 11296, "hole": 11297, " fraction": 11298, " dressed": 11299, " Rangers": 11300, "Mon": 11301, " missiles": 11302, " Blood": 11303, " fron": 11304, " ED": 11305, "->": 11306, " inhab": 11307, " bags": 11308, "?)": 11309, " launchin": 11310, " excuse": 11311, " bol": 11312, " Forest": 11313, " FO": 11314, "####": 11315, " tears": 11316, "erald": 11317, " bother": 11318, "urches": 11319, " leverage": 11320, " Gill": 11321, " caps": 11322, " Quebec": 11323, " boards": 11324, " terminal": 11325, " notifica": 11326, " Citiz": 11327, " tale": 11328, " transmis": 11329, " Modi": 11330, "file": 11331, " Summer": 11332, " Bah": 11333, "agues": 11334, "large": 11335, "Among": 11336, " inventor": 11337, " fed": 11338, " Nothing": 11339, " 61": 11340, " Kal": 11341, " Nik": 11342, " necessit": 11343, " lady": 11344, "nor": 11345, " fits": 11346, "tu": 11347, " Dor": 11348, "olla": 11349, "erted": 11350, "List": 11351, " ambition": 11352, " Stock": 11353, " walks": 11354, " Alaska": 11355, " SN": 11356, " Film": 11357, "ador": 11358, " cleared": 11359, " addictio": 11360, " USB": 11361, "igg": 11362, "fr": 11363, " creator": 11364, " correcti": 11365, "Perhaps": 11366, " Caption": 11367, " Python": 11368, "?<|": 11369, " leak": 11370, " Airport": 11371, "uns": 11372, " originat": 11373, "nie": 11374, "Did": 11375, " stopping": 11376, " Everythi": 11377, " Aud": 11378, " strip": 11379, " Madrid": 11380, "linin": 11381, " praised": 11382, " Gard": 11383, " dealt": 11384, " Gene": 11385, " sustaine": 11386, " speeds": 11387, "SU": 11388, " recreati": 11389, " curve": 11390, "Followin": 11391, " contende": 11392, " projecte": 11393, "mig": 11394, " awful": 11395, " mandate": 11396, " layers": 11397, "bea": 11398, "Bar": 11399, " elaborat": 11400, "tage": 11401, "elve": 11402, " Similar": 11403, "kward": 11404, " migratio": 11405, "gt": 11406, " sleeping": 11407, "ele": 11408, " poet": 11409, " Hampshir": 11410, "odit": 11411, " vertical": 11412, " screenin": 11413, " prescrip": 11414, " ambitiou": 11415, " Ga": 11416, " Jimmy": 11417, "agine": 11418, "dec": 11419, " civiliza": 11420, " Level": 11421, " Flash": 11422, "gat": 11423, "aders": 11424, " spotted": 11425, " Mount": 11426, " Stewart": 11427, " Wy": 11428, " toss": 11429, " theoreti": 11430, " Sac": 11431, " Hamas": 11432, "anio": 11433, " Parent": 11434, "togeth": 11435, "arl": 11436, " suprem": 11437, " Had": 11438, " Federati": 11439, "oyd": 11440, " cops": 11441, " bone": 11442, " theater": 11443, " OR": 11444, " ranging": 11445, "ports": 11446, " traded": 11447, " Soft": 11448, "ether": 11449, " Abu": 11450, "rez": 11451, " stab": 11452, " rhy": 11453, " carrier": 11454, " shortage": 11455, " globe": 11456, " fucking": 11457, " Jane": 11458, " Being": 11459, " Father": 11460, "sis": 11461, " offender": 11462, " True": 11463, " luxury": 11464, " `": 11465, "asted": 11466, " scrutiny": 11467, " AFP": 11468, " HTML": 11469, "oda": 11470, " crossed": 11471, " Front": 11472, " Creat": 11473, "istri": 11474, " bicy": 11475, " affects": 11476, "lecom": 11477, "jamin": 11478, "force": 11479, "ption": 11480, " spo": 11481, "velope": 11482, " Coalitio": 11483, " sponsors": 11484, " cooking": 11485, " builds": 11486, "oof": 11487, "grow": 11488, " Nature": 11489, "\u2033": 11490, "SD": 11491, " horrible": 11492, " filing": 11493, "ppy": 11494, " meets": 11495, " 1988": 11496, "apper": 11497, "bes": 11498, " Ref": 11499, " murdered": 11500, " overnigh": 11501, " confirma": 11502, " Wayne": 11503, "untu": 11504, " adjustme": 11505, " predeces": 11506, " misc": 11507, " assists": 11508, " Singh": 11509, "nity": 11510, "EX": 11511, " iconic": 11512, " burst": 11513, "iteme": 11514, " tobacco": 11515, " Others": 11516, "uj": 11517, " winners": 11518, " Climate": 11519, "itle": 11520, " kiss": 11521, " demo": 11522, "ASH": 11523, "urg": 11524, " mini": 11525, " laptop": 11526, " colleg": 11527, " align": 11528, " libertar": 11529, "istol": 11530, "ologic": 11531, "fa": 11532, " Tokyo": 11533, "stein": 11534, "chestr": 11535, " reviewed": 11536, " Huff": 11537, "anyah": 11538, "\u2022\u2022\u2022\u2022": 11539, " panels": 11540, " Ronald": 11541, " undergo": 11542, " iter": 11543, " Dal": 11544, " Manning": 11545, "thr": 11546, " displays": 11547, "plane": 11548, " Third": 11549, " painful": 11550, "udge": 11551, "asy": 11552, " dictator": 11553, " Pear": 11554, "rende": 11555, " Trek": 11556, "strain": 11557, " combine": 11558, " stereoty": 11559, " revenues": 11560, " trips": 11561, " conducti": 11562, "linton": 11563, "friendly": 11564, "Only": 11565, " 68": 11566, " FOR": 11567, " sons": 11568, "Par": 11569, " golf": 11570, " 1986": 11571, " Hal": 11572, " Commons": 11573, " drops": 11574, "andr": 11575, "\u201d)": 11576, "activ": 11577, " fishing": 11578, " Section": 11579, "\u00f3n": 11580, " deserves": 11581, "Gr": 11582, " monument": 11583, " relie": 11584, "\u043c": 11585, "Each": 11586, " regret": 11587, " slide": 11588, " appearin": 11589, " McCon": 11590, " prayer": 11591, " overlook": 11592, " hiding": 11593, "asting": 11594, " billiona": 11595, " Fig": 11596, " Nash": 11597, " Jen": 11598, " Baker": 11599, " oldest": 11600, " Drive": 11601, "2010": 11602, " 67": 11603, "eston": 11604, " audit": 11605, " jurisdic": 11606, " convert": 11607, " acted": 11608, " Cav": 11609, " Burn": 11610, " delayed": 11611, " succ": 11612, " Winter": 11613, " Da": 11614, " hes": 11615, " Naz": 11616, " Ub": 11617, "ancing": 11618, " availabi": 11619, " anch": 11620, "ailed": 11621, " desert": 11622, " wore": 11623, " Cardinal": 11624, " Furtherm": 11625, "earing": 11626, " abund": 11627, "etrat": 11628, " dil": 11629, "Ins": 11630, " addressi": 11631, " Prop": 11632, " rivals": 11633, " specifie": 11634, " librarie": 11635, " hin": 11636, "ingh": 11637, " Deep": 11638, "eful": 11639, "isk": 11640, "profile": 11641, "acing": 11642, "THE": 11643, " dirty": 11644, " surfac": 11645, " explorin": 11646, " courses": 11647, "sized": 11648, " Tan": 11649, " resort": 11650, " reign": 11651, "wall": 11652, ">>>>": 11653, " hosting": 11654, " Local": 11655, " Ze": 11656, " Knight": 11657, " annually": 11658, "ivan": 11659, " DVD": 11660, " orientat": 11661, " torn": 11662, " Collins": 11663, " ritual": 11664, " equipped": 11665, " Mitchell": 11666, " pledge": 11667, "oples": 11668, "citation": 11669, "Gu": 11670, " tissue": 11671, " Luke": 11672, "limin": 11673, " excessiv": 11674, " adaptati": 11675, " Name": 11676, " Barcelon": 11677, " restrain": 11678, " Kurdish": 11679, "DC": 11680, " nights": 11681, " McDonald": 11682, " Heart": 11683, "Maybe": 11684, " singing": 11685, " logical": 11686, " CL": 11687, "ilst": 11688, " rewards": 11689, " arrests": 11690, " Larry": 11691, "boys": 11692, " Fergus": 11693, " reminder": 11694, " Magazine": 11695, " recipien": 11696, " Var": 11697, " classroo": 11698, " Malaysia": 11699, " safely": 11700, "FS": 11701, " sizes": 11702, " firearms": 11703, "ounti": 11704, " disg": 11705, "offs": 11706, " orange": 11707, "minat": 11708, " graduall": 11709, "eu": 11710, "eric": 11711, " bip": 11712, "limite": 11713, " earning": 11714, "accept": 11715, " violated": 11716, " passiona": 11717, " Swedish": 11718, "udeau": 11719, "arer": 11720, " themes": 11721, " EC": 11722, "foli": 11723, "century": 11724, " precise": 11725, "PDATE": 11726, " amongst": 11727, " Hub": 11728, " differ": 11729, " circuit": 11730, "gree": 11731, "enera": 11732, " Poll": 11733, " spray": 11734, "Unfortun": 11735, " commands": 11736, " duties": 11737, " Kickstar": 11738, " reflecte": 11739, "uriti": 11740, " Todd": 11741, "China": 11742, " coins": 11743, " argu": 11744, " optimist": 11745, " Ultimate": 11746, " Arts": 11747, " derived": 11748, "uerto": 11749, "fund": 11750, " radar": 11751, " cruel": 11752, " viable": 11753, " minimal": 11754, " Cos": 11755, "shore": 11756, " cave": 11757, "hered": 11758, "profit": 11759, "rane": 11760, " haz": 11761, " exhibiti": 11762, " bugs": 11763, " Sport": 11764, " Cloud": 11765, " offseaso": 11766, " Table": 11767, "xide": 11768, " psychiat": 11769, " Brus": 11770, ".),": 11771, " workplac": 11772, " node": 11773, "dict": 11774, "Bel": 11775, " toug": 11776, "usse": 11777, "ugby": 11778, "two": 11779, " bund": 11780, " oppressi": 11781, "omete": 11782, "PI": 11783, " cease": 11784, " replacin": 11785, " interrog": 11786, " Roc": 11787, " permitte": 11788, " Parker": 11789, " resemble": 11790, "rust": 11791, "ecra": 11792, " incorrec": 11793, " venue": 11794, " pending": 11795, " quietly": 11796, " Hunter": 11797, " weaken": 11798, "tz": 11799, " immun": 11800, " );": 11801, " forb": 11802, " Evans": 11803, " Crit": 11804, "owne": 11805, " notably": 11806, " corn": 11807, "isode": 11808, " 700": 11809, " Beat": 11810, "oa": 11811, " reserve": 11812, " ensuring": 11813, " Pas": 11814, " Block": 11815, " comed": 11816, " Rubio": 11817, "aching": 11818, " trains": 11819, " Bu": 11820, " Building": 11821, " Marshall": 11822, "Bre": 11823, " rebel": 11824, " bubble": 11825, " SEC": 11826, " Fro": 11827, " Blu": 11828, "ova": 11829, " threshol": 11830, "ishes": 11831, "eg": 11832, " flew": 11833, " detained": 11834, " catastro": 11835, "ionally": 11836, "110": 11837, " notoriou": 11838, " hearts": 11839, "bery": 11840, " peer": 11841, " countles": 11842, " tends": 11843, "than": 11844, " meanwhil": 11845, " impose": 11846, " Nap": 11847, " Eagles": 11848, "place": 11849, " Speaker": 11850, " Inn": 11851, "Ben": 11852, " poorly": 11853, " parks": 11854, " lighting": 11855, " awkward": 11856, " Mississi": 11857, " Collecti": 11858, " duration": 11859, "care": 11860, " intensit": 11861, " calendar": 11862, " Emer": 11863, "tious": 11864, "Fe": 11865, "pic": 11866, " Much": 11867, " trucks": 11868, " intersec": 11869, " arena": 11870, "Leak": 11871, " Round": 11872, "Cop": 11873, " ineff": 11874, " fragment": 11875, " Resource": 11876, " simulati": 11877, " generous": 11878, "sers": 11879, " seventh": 11880, " Fight": 11881, " entities": 11882, " replicat": 11883, " advocacy": 11884, "osito": 11885, "stop": 11886, " Richards": 11887, "usive": 11888, " stressed": 11889, " Flynn": 11890, " prevente": 11891, " conced": 11892, "ptor": 11893, "rone": 11894, " Pod": 11895, "umm": 11896, " seeds": 11897, " aspir": 11898, "fix": 11899, " subscrip": 11900, " climb": 11901, "guar": 11902, "/.": 11903, " worlds": 11904, " Mind": 11905, "onz": 11906, " 1984": 11907, "itting": 11908, " Mot": 11909, " hostile": 11910, " FI": 11911, " instantl": 11912, " diminish": 11913, " viewing": 11914, " 76": 11915, "esides": 11916, " Sex": 11917, "vinci": 11918, "\u0432": 11919, " partiall": 11920, " cam": 11921, " nutritio": 11922, " Express": 11923, "alk": 11924, " comply": 11925, " Shar": 11926, "iac": 11927, " Oxford": 11928, " twist": 11929, " drunk": 11930, " Cohen": 11931, "anged": 11932, "adin": 11933, " Benn": 11934, "oz": 11935, "ME": 11936, " buyers": 11937, " anth": 11938, " \\xcf": 11939, "TIS": 11940, " grants": 11941, " Motor": 11942, "Play": 11943, " starter": 11944, " Reid": 11945, "ige": 11946, " UI": 11947, "card": 11948, " planes": 11949, " Dean": 11950, "winning": 11951, " Peace": 11952, " doctrine": 11953, " receptio": 11954, " Vladimir": 11955, " horm": 11956, " Forces": 11957, "respon": 11958, "Their": 11959, " drinks": 11960, " Heat": 11961, " pricing": 11962, "kind": 11963, "walk": 11964, "iation": 11965, "normal": 11966, "link": 11967, " powered": 11968, " advised": 11969, "Men": 11970, " chamber": 11971, " fires": 11972, "\\xe2\\x84": 11973, " pound": 11974, " Smart": 11975, " Campbell": 11976, " Blog": 11977, " Bou": 11978, "uccess": 11979, " mul": 11980, " satisfie": 11981, " Lawrence": 11982, " altogeth": 11983, " revealin": 11984, " neutral": 11985, " beef": 11986, " theft": 11987, " till": 11988, " debates": 11989, " unre": 11990, " Vis": 11991, " Cuba": 11992, " Ay": 11993, " pronounc": 11994, "ben": 11995, "Twitter": 11996, "Referenc": 11997, " happines": 11998, "neur": 11999, " bargain": 12000, " praise": 12001, " ash": 12002, "eta": 12003, " spy": 12004, " chips": 12005, " commodit": 12006, " Hann": 12007, " Berkeley": 12008, "iology": 12009, " furn": 12010, " Dod": 12011, "ilin": 12012, " disturbi": 12013, " bizarre": 12014, " FCC": 12015, "wide": 12016, "lecto": 12017, "data": 12018, " stunning": 12019, " CR": 12020, "oral": 12021, " tablet": 12022, " nominate": 12023, " bonds": 12024, " dece": 12025, " Jess": 12026, " sword": 12027, " Pi": 12028, " styles": 12029, "MAN": 12030, " honestly": 12031, " Lady": 12032, "tations": 12033, " treating": 12034, " shake": 12035, " golden": 12036, " Watson": 12037, "specific": 12038, " shed": 12039, " safer": 12040, " tunnel": 12041, "person": 12042, " neur": 12043, " investin": 12044, "ilater": 12045, " Modern": 12046, "irl": 12047, " Lions": 12048, " ultra": 12049, "Several": 12050, " frank": 12051, " Wikipedi": 12052, "ULL": 12053, " Hispanic": 12054, " ugly": 12055, "liest": 12056, " receives": 12057, " Hotel": 12058, "map": 12059, "nai": 12060, "etch": 12061, "aboli": 12062, "Set": 12063, " NCAA": 12064, " damn": 12065, " Records": 12066, "aut": 12067, " makers": 12068, " Manager": 12069, " Bh": 12070, "icked": 12071, " Roger": 12072, " Terry": 12073, " indicato": 12074, " acceptan": 12075, " instant": 12076, " Type": 12077, " Melbourn": 12078, "witzer": 12079, "sci": 12080, " focuses": 12081, " detectiv": 12082, " printing": 12083, " justifie": 12084, " yard": 12085, "athon": 12086, " contents": 12087, "eling": 12088, "White": 12089, " nightmar": 12090, " crown": 12091, " discre": 12092, " alike": 12093, "unge": 12094, "\u03b1": 12095, " Progress": 12096, "crib": 12097, " pressing": 12098, " greenhou": 12099, " faculty": 12100, " Du": 12101, " cous": 12102, "Take": 12103, " wings": 12104, " HIV": 12105, " mot": 12106, " Article": 12107, " Fif": 12108, "redic": 12109, "DAY": 12110, " summary": 12111, " lone": 12112, " friendsh": 12113, " Temple": 12114, " Indians": 12115, " maxim": 12116, "first": 12117, "ernel": 12118, " density": 12119, " IV": 12120, " quantum": 12121, " operates": 12122, " ethics": 12123, " computin": 12124, " lung": 12125, "inna": 12126, "irth": 12127, " highway": 12128, " null": 12129, " epid": 12130, "onde": 12131, " customiz": 12132, "Second": 12133, " oxygen": 12134, " heaven": 12135, "heriff": 12136, "Republic": 12137, " mandator": 12138, " grateful": 12139, " Prom": 12140, " Mobile": 12141, " penaltie": 12142, " traveled": 12143, " tar": 12144, " dign": 12145, " lanes": 12146, " Iss": 12147, " DJ": 12148, "prin": 12149, " Saints": 12150, "ando": 12151, " fuck": 12152, " Ward": 12153, " Sessions": 12154, "outing": 12155, " painted": 12156, " longest": 12157, " Qual": 12158, " startup": 12159, " shooter": 12160, " devoted": 12161, " arguably": 12162, "Given": 12163, " Ferguson": 12164, "being": 12165, " incons": 12166, " Jacob": 12167, " condemne": 12168, "sible": 12169, " qualify": 12170, " liabilit": 12171, " Dakota": 12172, "ushes": 12173, "frien": 12174, "iah": 12175, " ceiling": 12176, " outbreak": 12177, "BL": 12178, "oks": 12179, "acon": 12180, "Hist": 12181, "\u044f": 12182, " greet": 12183, " divide": 12184, " applying": 12185, ".:": 12186, "byn": 12187, " stronges": 12188, " cats": 12189, " Medicine": 12190, " Tampa": 12191, " Assistan": 12192, " bell": 12193, " Sin": 12194, "lord": 12195, " ||": 12196, " Blake": 12197, "km": 12198, "Michael": 12199, " Storm": 12200, " toile": 12201, "valen": 12202, "df": 12203, " imperial": 12204, " judicial": 12205, " pays": 12206, " oversigh": 12207, " drafted": 12208, "Have": 12209, " sauce": 12210, " Orange": 12211, " Ent": 12212, "\u00d7": 12213, " clever": 12214, "about": 12215, " astronom": 12216, "atis": 12217, "anches": 12218, "\u2122": 12219, " stretche": 12220, " Tele": 12221, " Arena": 12222, " legend": 12223, " inspecti": 12224, " treasure": 12225, " Toy": 12226, " subsidie": 12227, " Ce": 12228, "ugs": 12229, " counties": 12230, " 1987": 12231, " 1979": 12232, " instinct": 12233, " fastest": 12234, "idal": 12235, "hips": 12236, " fib": 12237, " shar": 12238, " cultivat": 12239, " SE": 12240, " kidnapp": 12241, " Puerto": 12242, " Brussels": 12243, " vague": 12244, " systemat": 12245, " zones": 12246, " Remember": 12247, " Editor": 12248, "half": 12249, "Best": 12250, " Find": 12251, "ipher": 12252, "alin": 12253, " Ian": 12254, "gary": 12255, "election": 12256, " freely": 12257, " 1985": 12258, "ello": 12259, " cake": 12260, " respecte": 12261, " Lucas": 12262, " supremac": 12263, " infant": 12264, " denial": 12265, " Against": 12266, " mic": 12267, " metaph": 12268, "tent": 12269, " honey": 12270, "Off": 12271, " laborato": 12272, " floating": 12273, " auction": 12274, " surrende": 12275, " ft": 12276, " emerge": 12277, "auke": 12278, " respondi": 12279, " Chronic": 12280, " barrel": 12281, " McConnel": 12282, "War": 12283, " strain": 12284, " Ing": 12285, "iousl": 12286, "?'": 12287, "Mart": 12288, " detain": 12289, " Gab": 12290, "mons": 12291, "liver": 12292, " composed": 12293, " Alberta": 12294, " Ky": 12295, "marin": 12296, " Century": 12297, "Em": 12298, " Support": 12299, " Native": 12300, "thur": 12301, "atre": 12302, " hacking": 12303, " serial": 12304, " Benjamin": 12305, " Mand": 12306, "agi": 12307, " rumors": 12308, "ede": 12309, " preview": 12310, " displace": 12311, " Cel": 12312, "oard": 12313, "MB": 12314, " TR": 12315, " Girl": 12316, "ACK": 12317, " illegall": 12318, " Hawaii": 12319, " Fran": 12320, " Crow": 12321, " exploit": 12322, " Hurrican": 12323, "glas": 12324, " sideline": 12325, " \u00d7": 12326, " MA": 12327, "sur": 12328, " placing": 12329, " essay": 12330, " equity": 12331, " drones": 12332, " Arctic": 12333, "eller": 12334, " boundari": 12335, "ventur": 12336, "witzerl": 12337, "umbled": 12338, " Saint": 12339, " Consider": 12340, "ikh": 12341, " EX": 12342, " Brady": 12343, " Initi": 12344, " exped": 12345, " Tea": 12346, " Morris": 12347, "umina": 12348, " Circuit": 12349, "big": 12350, " Lat": 12351, " podcast": 12352, " expertis": 12353, " compress": 12354, " Beng": 12355, " worship": 12356, " distant": 12357, " Legislat": 12358, " balanced": 12359, " Hend": 12360, "drop": 12361, " Rail": 12362, " Bloomber": 12363, " spreadin": 12364, " Side": 12365, "onds": 12366, " thro": 12367, " partisan": 12368, " objectio": 12369, " circles": 12370, " recur": 12371, " tune": 12372, " comprise": 12373, "Ser": 12374, " crop": 12375, "fir": 12376, " 1930": 12377, "]<|": 12378, " animated": 12379, "abetes": 12380, " viral": 12381, " contenti": 12382, " armor": 12383, "orses": 12384, " pension": 12385, " equation": 12386, "regula": 12387, " tum": 12388, " perpetra": 12389, "oura": 12390, " pub": 12391, " Netanyah": 12392, "dad": 12393, " tub": 12394, " ghost": 12395, "town": 12396, " raid": 12397, " Ka": 12398, " grocer": 12399, " predator": 12400, " portfoli": 12401, "~~": 12402, "mid": 12403, " BJP": 12404, " dispar": 12405, " monetary": 12406, " Kirk": 12407, " EV": 12408, " Taiwan": 12409, " Abbott": 12410, "Euro": 12411, " stir": 12412, " fright": 12413, " Campaign": 12414, "Big": 12415, " Farm": 12416, "thro": 12417, "\u044b": 12418, " ears": 12419, " Swiss": 12420, " mutual": 12421, " Chap": 12422, "because": 12423, "anche": 12424, " rice": 12425, " jokes": 12426, " breakfas": 12427, "when": 12428, " throws": 12429, " grip": 12430, " Ry": 12431, " Small": 12432, "valid": 12433, "Key": 12434, " persuade": 12435, " formally": 12436, " resigned": 12437, " churches": 12438, "aults": 12439, " enjoying": 12440, " cultures": 12441, " chap": 12442, " bass": 12443, " \u00b1": 12444, " quotes": 12445, " gaining": 12446, " conj": 12447, "owell": 12448, " infer": 12449, " Awards": 12450, "ouds": 12451, " \u043f": 12452, "fil": 12453, " mild": 12454, " scary": 12455, " misle": 12456, " heritage": 12457, "kh": 12458, " schem": 12459, " secured": 12460, " Original": 12461, " Kyle": 12462, " Challeng": 12463, " magnetic": 12464, " corrupt": 12465, "nea": 12466, " Song": 12467, "tech": 12468, "inci": 12469, " economie": 12470, " panic": 12471, " naked": 12472, "elescop": 12473, " peers": 12474, "lsa": 12475, " lineback": 12476, " affair": 12477, "OV": 12478, " Chuck": 12479, " suitable": 12480, "IST": 12481, " shorter": 12482, " romantic": 12483, " Stein": 12484, " filling": 12485, "utical": 12486, " Jefferso": 12487, " vacation": 12488, " frozen": 12489, " companio": 12490, "UD": 12491, "aughte": 12492, " hier": 12493, " Posts": 12494, " tensions": 12495, " fru": 12496, " beloved": 12497, " 74": 12498, " rifle": 12499, "rike": 12500, "elo": 12501, " elderly": 12502, " McM": 12503, " Ger": 12504, "utter": 12505, " shifted": 12506, " Phys": 12507, " Bit": 12508, "gie": 12509, " vaccine": 12510, " unde": 12511, "ishi": 12512, "UTERS": 12513, " texts": 12514, " Rain": 12515, " Lynch": 12516, " suppose": 12517, " pressed": 12518, " Yang": 12519, " Brazilia": 12520, "cu": 12521, " prevalen": 12522, " Beh": 12523, "atoes": 12524, " Chance": 12525, "\u2500\u2500": 12526, " legendar": 12527, "DB": 12528, "VERTIS": 12529, "Tom": 12530, " Mormon": 12531, " knocked": 12532, " inject": 12533, " barriers": 12534, " acquire": 12535, "emar": 12536, " inval": 12537, "url": 12538, "UE": 12539, " inapprop": 12540, " Fle": 12541, " Early": 12542, " damaging": 12543, " Warriors": 12544, "start": 12545, "riel": 12546, " whites": 12547, " neutrali": 12548, " desired": 12549, " announci": 12550, " navigati": 12551, "kee": 12552, " stomach": 12553, " Safety": 12554, "ois": 12555, "attoo": 12556, " pink": 12557, " minoriti": 12558, "Id": 12559, " touched": 12560, " approve": 12561, "power": 12562, "ockets": 12563, " flexible": 12564, "supp": 12565, " worthy": 12566, " magical": 12567, " assured": 12568, " appeals": 12569, " GB": 12570, " Rice": 12571, " fluid": 12572, " timeline": 12573, "FI": 12574, " om": 12575, "azy": 12576, " Bund": 12577, "controll": 12578, " curren": 12579, " Bab": 12580, " spacecra": 12581, " preceden": 12582, " pledged": 12583, " offset": 12584, "licat": 12585, "\u00e3": 12586, " sensatio": 12587, " Trudeau": 12588, "seud": 12589, " 69": 12590, " GPU": 12591, "uther": 12592, "aditio": 12593, " presumab": 12594, " Pur": 12595, " Lie": 12596, "source": 12597, "oners": 12598, "never": 12599, " Bos": 12600, "vanc": 12601, " Tyler": 12602, " Treat": 12603, " Gray": 12604, "sign": 12605, "estheti": 12606, "Sem": 12607, " wallet": 12608, " genet": 12609, " trusted": 12610, " triggere": 12611, " crowds": 12612, " Norway": 12613, " 77": 12614, "Look": 12615, " reaches": 12616, " briefing": 12617, " editors": 12618, "Through": 12619, " innings": 12620, " fare": 12621, " immen": 12622, " bones": 12623, "poin": 12624, "Which": 12625, "Eng": 12626, " URL": 12627, " Madison": 12628, " Bart": 12629, " reminded": 12630, " pupp": 12631, "pling": 12632, "incinna": 12633, " societie": 12634, " posed": 12635, " portrait": 12636, " welcomed": 12637, "Media": 12638, " dose": 12639, " cryptocu": 12640, "stra": 12641, "ixel": 12642, " fitness": 12643, "polit": 12644, "\u0434": 12645, " sends": 12646, " humanita": 12647, " refusing": 12648, " molecule": 12649, " grasp": 12650, "health": 12651, " spectacu": 12652, " Corps": 12653, "MI": 12654, " grave": 12655, " fertil": 12656, " editing": 12657, " Universe": 12658, "governme": 12659, "Inter": 12660, " deciding": 12661, " crops": 12662, " Barry": 12663, " une": 12664, " Thor": 12665, "icula": 12666, " satisfac": 12667, " meantime": 12668, " Loc": 12669, " avoided": 12670, "nge": 12671, "ashi": 12672, "ATED": 12673, " Sox": 12674, " Row": 12675, " wrapped": 12676, "ifferen": 12677, " provinci": 12678, " profitab": 12679, " Official": 12680, "awks": 12681, " resolved": 12682, " Maine": 12683, " exciteme": 12684, "fro": 12685, "ysi": 12686, "Having": 12687, " mask": 12688, " batterie": 12689, " trapped": 12690, " pedestri": 12691, " Philip": 12692, "emor": 12693, "\u0094": 12694, " endanger": 12695, " Buffalo": 12696, " Kas": 12697, "xual": 12698, " earliest": 12699, " abandon": 12700, "pop": 12701, " flip": 12702, " Matter": 12703, " Erd": 12704, "wauke": 12705, "perial": 12706, " hatred": 12707, " assuming": 12708, "900": 12709, " flexibil": 12710, " caution": 12711, " Ju": 12712, "esis": 12713, " dispatch": 12714, " cluster": 12715, " barrier": 12716, "block": 12717, " Polish": 12718, " qualit": 12719, " habits": 12720, "anka": 12721, " sla": 12722, " hopeful": 12723, " dys": 12724, " 73": 12725, " magnitud": 12726, " Partners": 12727, "North": 12728, " unders": 12729, " stocks": 12730, " zomb": 12731, "thal": 12732, "AV": 12733, " decides": 12734, " Laure": 12735, " WikiLeak": 12736, " tourists": 12737, " declare": 12738, " detected": 12739, " overd": 12740, "Pres": 12741, " rushed": 12742, " clicking": 12743, " Franklin": 12744, "ometr": 12745, " pursuit": 12746, " silly": 12747, " Ped": 12748, "oca": 12749, "Never": 12750, "Addition": 12751, " reserves": 12752, " planets": 12753, " donated": 12754, "emin": 12755, " expend": 12756, " Bol": 12757, " pursuing": 12758, " Ts": 12759, " laser": 12760, " Mom": 12761, "ski": 12762, " islands": 12763, " Cambridg": 12764, " Tig": 12765, " rocks": 12766, "========": 12767, " token": 12768, " Verizon": 12769, "umph": 12770, "hat": 12771, " monop": 12772, " waited": 12773, "ahl": 12774, "achi": 12775, " reply": 12776, " Vers": 12777, " Brandon": 12778, " pad": 12779, " cho": 12780, " sensor": 12781, "ocus": 12782, " tong": 12783, " reun": 12784, " Switzerl": 12785, " Columbus": 12786, " Cris": 12787, "peror": 12788, "anne": 12789, " tutorial": 12790, " Liberty": 12791, "code": 12792, "uar": 12793, "del": 12794, "cen": 12795, " urge": 12796, " draws": 12797, " Kur": 12798, " Scar": 12799, " Eve": 12800, " Cou": 12801, "udios": 12802, "uctio": 12803, " rushing": 12804, " Stre": 12805, "agrap": 12806, "\u044c": 12807, " lifted": 12808, " casting": 12809, "Check": 12810, "Char": 12811, "riate": 12812, "\\xe4\\xb8": 12813, "Game": 12814, " Lock": 12815, "ths": 12816,
[...]
