{"\u0000": 0, "\u0001": 1, "\u0002": 2, "\u0003": 3, "\u0004": 4, "\u0005": 5, "\u0006": 6, "\u0007": 7, "\b": 8, "\t": 9, "\n": 10, "\u000b": 11, "\f": 12, "\r": 13, "\u000e": 14, "\u000f": 15, "\u0010": 16, "\u0011": 17, "\u0012": 18, "\u0013": 19, "\u0014": 20, "\u0015": 21, "\u0016": 22, "\u0017": 23, "\u0018": 24, "\u0019": 25, "\u001a": 26, "\u001b": 27, "\u001c": 28, "\u001d": 29, "\u001e": 30, "\u001f": 31, " ": 32, "!": 33, "\"": 34, "#": 35, "$": 36, "%": 37, "&": 38, "'": 39, "(": 40, ")": 41, "*": 42, "+": 43, ",": 44, "-": 45, ".": 46, "/": 47, "0": 48, "1": 49, "2": 50, "3": 51, "4": 52, "5": 53, "6": 54, "7": 55, "8": 56, "9": 57, ":": 58, ";": 59, "<": 60, "=": 61, ">": 62, "?": 63, "@": 64, "A": 65, "B": 66, "C": 67, "D": 68, "E": 69, "F": 70, "G": 71, "H": 72, "I": 73, "J": 74, "K": 75, "L": 76, "M": 77, "N": 78, "O": 79, "P": 80, "Q": 81, "R": 82, "S": 83, "T": 84, "U": 85, "V": 86, "W": 87, "X": 88, "Y": 89, "Z": 90, "[": 91, "\\": 92, "]": 93, "^": 94, "_": 95, "`": 96, "a": 97, "b": 98, "c": 99, "d": 100, "e": 101, "f": 102, "g": 103, "h": 104, "i": 105, "j": 106, "k": 107, "l": 108, "m": 109, "n": 110, "o": 111, "p": 112, "q": 113, "r": 114, "s": 115, "t": 116, "u": 117, "v": 118, "w": 119, "x": 120, "y": 121, "z": 122, "{": 123, "|": 124, "}": 125, "~": 126, "\u007f": 127, "\\x80": 128, "\\x81": 129, "\\x82": 130, "\\x83": 131, "\\x84": 132, "\\x85": 133, "\\x86": 134, "\\x87": 135, "\\x88": 136, "\\x89": 137, "\\x8a": 138, "\\x8b": 139, "\\x8c": 140, "\\x8d": 141, "\\x8e": 142, "\\x8f": 143, "\\x90": 144, "\\x91": 145, "\\x92": 146, "\\x93": 147, "\\x94": 148, "\\x95": 149, "\\x96": 150, "\\x97": 151, "\\x98": 152, "\\x99": 153, "\\x9a": 154, "\\x9b": 155, "\\x9c": 156, "\\x9d": 157, "\\x9e": 158, "\\x9f": 159, "\\xa0": 160, "\\xa1": 161, "\\xa2": 162, "\\xa3": 163, "\\xa4": 164, "\\xa5": 165, "\\xa6": 166, "\\xa7": 167, "\\xa8": 168, "\\xa9": 169, "\\xaa": 170, "\\xab": 171, "\\xac": 172, "\\xad": 173, "\\xae": 174, "\\xaf": 175, "\\xb0": 176, "\\xb1": 177, "\\xb2": 178, "\\xb3": 179, "\\xb4": 180, "\\xb5": 181, "\\xb6": 182, "\\xb7": 183, "\\xb8": 184, "\\xb9": 185, "\\xba": 186, "\\xbb": 187, "\\xbc": 188, "\\xbd": 189, "\\xbe": 190, "\\xbf": 191, "\\xc0": 192, "\\xc1": 193, "\\xc2": 194, "\\xc3": 195, "\\xc4": 196, "\\xc5": 197, "\\xc6": 198, "\\xc7": 199, "\\xc8": 200, "\\xc9": 201, "\\xca": 202, "\\xcb": 203, "\\xcc": 204, "\\xcd": 205, "\\xce": 206, "\\xcf": 207, "\\xd0": 208, "\\xd1": 209, "\\xd2": 210, "\\xd3": 211, "\\xd4": 212, "\\xd5": 213, "\\xd6": 214, "\\xd7": 215, "\\xd8": 216, "\\xd9": 217, "\\xda": 218, "\\xdb": 219, "\\xdc": 220, "\\xdd": 221, "\\xde": 222, "\\xdf": 223, "\\xe0": 224, "\\xe1": 225, "\\xe2": 226, "\\xe3": 227, "\\xe4": 228, "\\xe5": 229, "\\xe6": 230, "\\xe7": 231, "\\xe8": 232, "\\xe9": 233, "\\xea": 234, "\\xeb": 235, "\\xec": 236, "\\xed": 237, "\\xee": 238, "\\xef": 239, "\\xf0": 240, "\\xf1": 241, "\\xf2": 242, "\\xf3": 243, "\\xf4": 244, "\\xf5": 245, "\\xf6": 246, "\\xf7": 247, "\\xf8": 248, "\\xf9": 249, "\\xfa": 250, "\\xfb": 251, "\\xfc": 252, "\\xfd": 253, "\\xfe": 254, "\\xff": 255, "<|endoftext|>": 256, " t": 257, "he": 258, " a": 259, " s": 260, "nd": 261, " w": 262, " the": 263, "ed": 264, " b": 265, " to": 266, " and": 267, " h": 268, " f": 269, "in": 270, " T": 271, " wa": 272, "re": 273, "it": 274, "ou": 275, " l": 276, " d": 277, " c": 278, " p": 279, "ay": 280, " m": 281, "er": 282, " was": 283, "om": 284, " The": 285, " he": 286, "is": 287, "ar": 288, " n": 289, "im": 290, "on": 291, " sa": 292, "id": 293, "ll": 294, " ha": 295, " g": 296, "at": 297, " S": 298, "ing": 299, "ot": 300, "en": 301, "an": 302, "le": 303, "or": 304, "end": 305, "ir": 306, "of": 307, "am": 308, "et": 309, " H": 310, " it": 311, " th": 312, "ig": 313, " They": 314, " in": 315, "il": 316, " pl": 317, " He": 318, " \"": 319, "ow": 320, "ver": 321, "ri": 322, "ut": 323, " be": 324, " u": 325, " said": 326, " play": 327, "ith": 328, " day": 329, " with": 330, "pp": 331, "On": 332, " y": 333, "oo": 334, "ked": 335, " r": 336, " her": 337, "ex": 338, "ce": 339, " I": 340, " She": 341, "ld": 342, " Tim": 343, " his": 344, " st": 345, "ke": 346, " big": 347, "nt": 348, "ck": 349, " you": 350, "very": 351, "st": 352, "ve": 353, " on": 354, "un": 355, " happ": 356, "riend": 357, " friend": 358, "all": 359, "ily": 360, "ext": 361, " L": 362, " they": 363, "oft": 364, " we": 365, " had": 366, " not": 367, " li": 368, " up": 369, "her": 370, " want": 371, " of": 372, "ad": 373, "itt": 374, "|>": 375, "<|": 376, "oftext": 377, "endoftext": 378, "se": 379, " B": 380, " do": 381, " e": 382, " happy": 383, "ent": 384, " very": 385, " M": 386, "es": 387, " that": 388, " saw": 389, "One": 390, "'s": 391, "ould": 392, " mom": 393, " for": 394, " sh": 395, "ittle": 396, " little": 397, " she": 398, "ch": 399, "ime": 400, " nam": 401, ".\"": 402, " time": 403, " k": 404, "ound": 405, " so": 406, " there": 407, " named": 408, " sm": 409, " bo": 410, " were": 411, " Lily": 412, " ne": 413, " wanted": 414, " but": 415, "out": 416, "The": 417, " friends": 418, "ved": 419, "!\"": 420, "ht": 421, " Tom": 422, "ird": 423, "el": 424, " bird": 425, "al": 426, " an": 427, "ake": 428, " too": 429, "ome": 430, " It": 431, "ug": 432, "ide": 433, " went": 434, " wh": 435, " hel": 436, "Once": 437, " is": 438, " all": 439, " help": 440, "ue": 441, " loo": 442, " lo": 443, "ter": 444, " A": 445, " upon": 446, "ry": 447, "ore": 448, "ind": 449, " fun": 450, "get": 451, " toy": 452, "ill": 453, "ame": 454, " as": 455, " at": 456, "ra": 457, " j": 458, " did": 459, "gether": 460, " re": 461, "ur": 462, " o": 463, " se": 464, " together": 465, "ack": 466, " cat": 467, "ly": 468, " tre": 469, "ood": 470, "ic": 471, "ted": 472, " dog": 473, " could": 474, " can": 475, " their": 476, "ard": 477, "ec": 478, "ark": 479, " gir": 480, " played": 481, " him": 482, " ball": 483, "?\"": 484, " girl": 485, " ro": 486, "way": 487, " go": 488, "hed": 489, "my": 490, " are": 491, " out": 492, " le": 493, " fr": 494, "ain": 495, " kn": 496, "hen": 497, " them": 498, "um": 499, "'t": 500, "ax": 501, " sad": 502, "ul": 503, " boy": 504, " tree": 505, "other": 506, " have": 507, " man": 508, " cl": 509, " loved": 510, " looked": 511, "oug": 512, " found": 513, " sp": 514, " star": 515, " Sue": 516, "one": 517, "hing": 518, " sc": 519, " back": 520, "own": 521, " Max": 522, "are": 523, " like": 524, "ful": 525, "side": 526, " me": 527, " bec": 528, " park": 529, "ight": 530, "ong": 531, " car": 532, "op": 533, "elt": 534, " One": 535, " liked": 536, " would": 537, " make": 538, "round": 539, " la": 540, " fa": 541, " felt": 542, "You": 543, " W": 544, "ell": 545, " see": 546, " But": 547, "omet": 548, " asked": 549, "ag": 550, " new": 551, " no": 552, "ice": 553, " Sam": 554, "ouse": 555, " started": 556, "ared": 557, " came": 558, " Ben": 559, " al": 560, " other": 561, "ought": 562, "iled": 563, " somet": 564, " ag": 565, " good": 566, " small": 567, "ss": 568, " br": 569, " smiled": 570, " say": 571, "ried": 572, "ade": 573, "ings": 574, "ob": 575, "pot": 576, " wor": 577, " find": 578, "ia": 579, " away": 580, "ty": 581, " put": 582, " ex": 583, " what": 584, " something": 585, " from": 586, " made": 587, " thought": 588, "ened": 589, " home": 590, " playing": 591, " co": 592, "ook": 593, " every": 594, " wal": 595, " mu": 596, "uc": 597, "ach": 598, "arn": 599, " Spot": 600, " ran": 601, "ile": 602, " F": 603, "ie": 604, " J": 605, "ave": 606, " again": 607, " some": 608, " laug": 609, "dd": 610, " house": 611, " down": 612, " fl": 613, "king": 614, " took": 615, " scared": 616, " pr": 617, "ny": 618, "ure": 619, " toys": 620, " learn": 621, " You": 622, "if": 623, " will": 624, " box": 625, "ick": 626, "ret": 627, "ab": 628, "ep": 629, " my": 630, " around": 631, " things": 632, " your": 633, "oud": 634, " bl": 635, "uck": 636, " when": 637, "ish": 638, " lived": 639, " fe": 640, " then": 641, " sun": 642, "as": 643, " sw": 644, ",\"": 645, " ch": 646, "us": 647, "pped": 648, " ab": 649, " Mia": 650, "ank": 651, " get": 652, "ucy": 653, "Tim": 654, "ump": 655, "Th": 656, " lot": 657, "ist": 658, "oth": 659, " tried": 660, "ap": 661, " know": 662, " says": 663, " got": 664, "ited": 665, " who": 666, " kne": 667, "ust": 668, " many": 669, "nder": 670, " int": 671, " about": 672, "Lily": 673, " pret": 674, " dec": 675, " any": 676, " red": 677, " D": 678, "ive": 679, " knew": 680, "ace": 681, "ous": 682, " more": 683, "ise": 684, " v": 685, " care": 686, "ally": 687, " pic": 688, "au": 689, "qu": 690, " hug": 691, " Lucy": 692, " learned": 693, " po": 694, " water": 695, "fter": 696, " became": 697, " best": 698, "ause": 699, " op": 700, " gre": 701, " exc": 702, "urp": 703, "ways": 704, "\\xe2\\x80": 705, " outside": 706, " laughed": 707, " look": 708, " always": 709, " decid": 710, " show": 711, " un": 712, "ant": 713, " Bob": 714, " room": 715, "fe": 716, " decided": 717, " ho": 718, " because": 719, " into": 720, " So": 721, " eat": 722, "ite": 723, " jump": 724, " And": 725, " pe": 726, " both": 727, "ers": 728, " Mom": 729, " dad": 730, "They": 731, "udd": 732, " ke": 733, " one": 734, "nn": 735, " this": 736, " excited": 737, " fast": 738, " nice": 739, " E": 740, " feel": 741, "Tom": 742, "Yes": 743, " run": 744, " long": 745, " told": 746, " sk": 747, " am": 748, "urpr": 749, "our": 750, " inside": 751, "ull": 752, " tr": 753, " surpr": 754, " mo": 755, "ink": 756, " pretty": 757, "iny": 758, " sor": 759, "Wh": 760, " take": 761, "og": 762, " sl": 763, " each": 764, " gave": 765, " much": 766, " gra": 767, "lew": 768, "nna": 769, " rock": 770, " how": 771, " str": 772, "ara": 773, "imal": 774, " animal": 775, "ged": 776, " need": 777, " than": 778, "But": 779, "ven": 780, "etter": 781, " tow": 782, " or": 783, " C": 784, " under": 785, "ess": 786, " old": 787, " sorry": 788, "ge": 789, "ised": 790, "ro": 791, "urt": 792, " cle": 793, " fish": 794, " walked": 795, " clo": 796, "and": 797, " bear": 798, "ase": 799, "ast": 800, " hand": 801, "urn": 802, " We": 803, " kind": 804, " His": 805, "here": 806, " happened": 807, " just": 808, " flow": 809, " food": 810, " list": 811, " didn": 812, " te": 813, " animals": 814, " hig": 815, "pl": 816, " near": 817, " wat": 818, " ide": 819, " try": 820, "ched": 821, " sky": 822, "ine": 823, " sn": 824, "ving": 825, " fi": 826, "rom": 827, " us": 828, " idea": 829, " better": 830, " Amy": 831, " bug": 832, " heard": 833, "gry": 834, " its": 835, " tw": 836, " let": 837, "pec": 838, "ate": 839, "able": 840, "ff": 841, " en": 842, " careful": 843, " share": 844, " if": 845, "Thank": 846, "Mom": 847, " fly": 848, " stor": 849, "ial": 850, " flew": 851, "more": 852, " anymore": 853, " Th": 854, " spec": 855, " special": 856, "ion": 857, " com": 858, " lots": 859, " never": 860, " by": 861, "lf": 862, "ream": 863, " dan": 864, " bu": 865, " fo": 866, " wind": 867, " don": 868, " tal": 869, " clean": 870, "ort": 871, " gr": 872, " love": 873, "rm": 874, "ber": 875, " end": 876, " Then": 877, "ople": 878, " even": 879, "\n\n": 880, " mag": 881, " hard": 882, " shiny": 883, "udden": 884, " fore": 885, " over": 886, " cake": 887, "ak": 888, " book": 889, " col": 890, " turn": 891, " fam": 892, " bad": 893, " safe": 894, " after": 895, "ady": 896, " Anna": 897, "uddenly": 898, " people": 899, " proud": 900, " Every": 901, " surprised": 902, "pected": 903, "Let": 904, " high": 905, " cu": 906, " hurt": 907, " come": 908, "imb": 909, "arden": 910, " door": 911, " garden": 912, "bb": 913, " ground": 914, " opened": 915, " picked": 916, " loud": 917, " climb": 918, "expected": 919, " unexpected": 920, " gl": 921, " che": 922, "ild": 923, " im": 924, "As": 925, " give": 926, " way": 927, "ail": 928, "'m": 929, " thanked": 930, " color": 931, " blue": 932, " still": 933, " ever": 934, " hugged": 935, " From": 936, " call": 937, " far": 938, "ip": 939, " Her": 940, " Sara": 941, " When": 942, "No": 943, " off": 944, " magic": 945, "iz": 946, "ough": 947, "age": 948, "ummy": 949, " K": 950, " jumped": 951, " should": 952, " family": 953, " par": 954, "ool": 955, " kid": 956, " smile": 957, "hes": 958, "uff": 959, " place": 960, "kay": 961, " walk": 962, " now": 963, "ct": 964, " In": 965, " great": 966, "em": 967, " qu": 968, "les": 969, " strong": 970, " stay": 971, " unt": 972, " sto": 973, "aut": 974, " forest": 975, "ture": 976, "ane": 977, " bra": 978, "itty": 979, " P": 980, " frog": 981, " bro": 982, " until": 983, "oon": 984, " beaut": 985, "dy": 986, " squ": 987, " stick": 988, " next": 989, " boat": 990, "lease": 991, "ning": 992, " happily": 993, " listen": 994, "aking": 995, " kids": 996, " tra": 997, "ies": 998, "iful": 999, " beautiful": 1000, " app": 1001, "th": 1002, " helped": 1003, " dra": 1004, " showed": 1005, " clos": 1006, "be": 1007, " imp": 1008, " story": 1009, "unny": 1010, "oy": 1011, " while": 1012, " town": 1013, "rel": 1014, "pt": 1015, " rain": 1016, "ress": 1017, " picture": 1018, " being": 1019, " rem": 1020, " everyone": 1021, "It": 1022, "ary": 1023, "ree": 1024, " mor": 1025, " hat": 1026, " called": 1027, " met": 1028, " stopped": 1029, " ad": 1030, " game": 1031, "Now": 1032, "He": 1033, " wo": 1034, "Can": 1035, " angry": 1036, "ger": 1037, "uffy": 1038, " soft": 1039, " open": 1040, " truck": 1041, " keep": 1042, "When": 1043, " cry": 1044, " yummy": 1045, " lost": 1046, " bed": 1047, " Let": 1048, " Sally": 1049, " warm": 1050, "by": 1051, "vent": 1052, " brave": 1053, " mouse": 1054, " Wh": 1055, " ate": 1056, " Kitty": 1057, "ished": 1058, " de": 1059, "fore": 1060, " doll": 1061, "so": 1062, " couldn": 1063, " watch": 1064, " leave": 1065, " also": 1066, "dded": 1067, " fell": 1068, " green": 1069, " face": 1070, " two": 1071, "gan": 1072, "iss": 1073, " flowers": 1074, "bit": 1075, "What": 1076, " R": 1077, "ble": 1078, " noise": 1079, "abbit": 1080, "irst": 1081, "owl": 1082, " where": 1083, "az": 1084, "ock": 1085, " soon": 1086, "self": 1087, " slide": 1088, " rabbit": 1089, " hole": 1090, "luffy": 1091, " before": 1092, "irrel": 1093, " pus": 1094, "ired": 1095, " sat": 1096, "illy": 1097, " hear": 1098, " use": 1099, "\u201d": 1100, "Hi": 1101, " pa": 1102, " kept": 1103, "\u201c": 1104, "That": 1105, " squirrel": 1106, "ear": 1107, "Then": 1108, "ma": 1109, " nodded": 1110, " expl": 1111, " store": 1112, " cook": 1113, " hands": 1114, "Look": 1115, " birds": 1116, " pain": 1117, " going": 1118, " funny": 1119, " having": 1120, "day": 1121, " sing": 1122, "aybe": 1123, "uch": 1124, " ey": 1125, "aug": 1126, " catch": 1127, "aught": 1128, " Can": 1129, " Fluffy": 1130, "uit": 1131, " yell": 1132, " think": 1133, "leep": 1134, " cra": 1135, " fin": 1136, "Ben": 1137, " bre": 1138, " fix": 1139, " tired": 1140, " bunny": 1141, " used": 1142, " looking": 1143, " bus": 1144, "ange": 1145, "air": 1146, " work": 1147, " wr": 1148, "ting": 1149, " our": 1150, " pull": 1151, "We": 1152, " thr": 1153, "thing": 1154, " Now": 1155, " wait": 1156, " kit": 1157, " sound": 1158, " jo": 1159, " has": 1160, " G": 1161, " mean": 1162, " pond": 1163, "ember": 1164, " beh": 1165, " dr": 1166, " sunny": 1167, "led": 1168, " others": 1169, " ask": 1170, "ng": 1171, "chen": 1172, " kitchen": 1173, " talk": 1174, " flo": 1175, " dif": 1176, "rew": 1177, " pie": 1178, " Jo": 1179, " head": 1180, " real": 1181, " first": 1182, " tri": 1183, " mommy": 1184, " eyes": 1185, "ello": 1186, " import": 1187, "Hello": 1188, " fav": 1189, "ath": 1190, "joy": 1191, " z": 1192, " remember": 1193, " right": 1194, " flower": 1195, " con": 1196, " mess": 1197, " party": 1198, " cold": 1199, " Do": 1200, " vo": 1201, " swe": 1202, "ious": 1203, "ft": 1204, " sand": 1205, " \u201c": 1206, "ac": 1207, "orn": 1208, " race": 1209, " curi": 1210, "imes": 1211, " important": 1212, " duck": 1213, " moral": 1214, " shared": 1215, "zy": 1216, "ount": 1217, " Jack": 1218, " ice": 1219, " okay": 1220, " advent": 1221, " worked": 1222, "llow": 1223, "At": 1224, " enjoy": 1225, " dress": 1226, " bright": 1227, " making": 1228, " curious": 1229, " own": 1230, " tall": 1231, " dir": 1232, " hop": 1233, "reed": 1234, " hid": 1235, " favor": 1236, " ri": 1237, "hn": 1238, " sleep": 1239, " dis": 1240, "Wow": 1241, " favorite": 1242, " thing": 1243, " began": 1244, " mon": 1245, " bag": 1246, " hill": 1247, "Don": 1248, " cla": 1249, " draw": 1250, " rest": 1251, " here": 1252, " yard": 1253, " tell": 1254, " Fin": 1255, "ster": 1256, " watched": 1257, "que": 1258, " follow": 1259, " move": 1260, " bel": 1261, "ect": 1262, " cut": 1263, " night": 1264, " agreed": 1265, " pick": 1266, "co": 1267, " block": 1268, " hun": 1269, "aper": 1270, "lly": 1271, " stop": 1272, " behind": 1273, " This": 1274, " surprise": 1275, "ied": 1276, " sho": 1277, " hot": 1278, "After": 1279, " table": 1280, " grass": 1281, " worry": 1282, " dark": 1283, " trees": 1284, " voice": 1285, " walking": 1286, "fere": 1287, " floor": 1288, " farm": 1289, " lion": 1290, " top": 1291, " differe": 1292, " please": 1293, " ru": 1294, " song": 1295, " butter": 1296, " tail": 1297, " sweet": 1298, "Max": 1299, " shout": 1300, " colors": 1301, " read": 1302, " Dad": 1303, " lady": 1304, " forg": 1305, "isy": 1306, " leaves": 1307, " closer": 1308, "ign": 1309, " cars": 1310, " turned": 1311, " needed": 1312, " tast": 1313, "Why": 1314, "aring": 1315, " wood": 1316, " cried": 1317, " different": 1318, " laugh": 1319, " del": 1320, " piece": 1321, "\u2019": 1322, "ered": 1323, " Mr": 1324, " roll": 1325, " adventure": 1326, " fire": 1327, " does": 1328, "ike": 1329, " cr": 1330, " hungry": 1331, " hair": 1332, " Suddenly": 1333, " paper": 1334, " feeling": 1335, " yellow": 1336, " full": 1337, "bo": 1338, " prin": 1339, "Sue": 1340, " touch": 1341, " As": 1342, "Anna": 1343, "Sam": 1344, " wet": 1345, " friendly": 1346, " per": 1347, "oom": 1348, "ken": 1349, "cked": 1350, "ached": 1351, " swing": 1352, " fruit": 1353, "ient": 1354, " broken": 1355, " ready": 1356, "bye": 1357, "ppy": 1358, " prom": 1359, " That": 1360, " another": 1361, " light": 1362, " pretend": 1363, " dance": 1364, "ater": 1365, " climbed": 1366, "where": 1367, " listened": 1368, " Bobo": 1369, " danc": 1370, " running": 1371, " only": 1372, " plan": 1373, " gone": 1374, " swim": 1375, "bbed": 1376, "Suddenly": 1377, "sh": 1378, " train": 1379, "ila": 1380, "ndma": 1381, "Sara": 1382, " Jane": 1383, " close": 1384, "av": 1385, "She": 1386, " smell": 1387, "aby": 1388, " amaz": 1389, "So": 1390, " hold": 1391, " blocks": 1392, " wonder": 1393, " Timmy": 1394, " repl": 1395, " All": 1396, " butterf": 1397, " sees": 1398, " reached": 1399, " wall": 1400, " pu": 1401, "oney": 1402, "red": 1403, " slow": 1404, " helping": 1405, " dri": 1406, " cream": 1407, " cool": 1408, " glad": 1409, "af": 1410, " ant": 1411, " less": 1412, " been": 1413, " goodbye": 1414, " ac": 1415, " fight": 1416, "ather": 1417, "Mia": 1418, " pushed": 1419, "iced": 1420, " fair": 1421, " must": 1422, " hide": 1423, " moment": 1424, " window": 1425, " O": 1426, " sit": 1427, " balloon": 1428, " snow": 1429, " child": 1430, " explore": 1431, " Everyone": 1432, " ar": 1433, " wished": 1434, " baby": 1435, " done": 1436, " wag": 1437, " ste": 1438, " buy": 1439, " stuck": 1440, " perf": 1441, " thank": 1442, " might": 1443, "icy": 1444, " name": 1445, "ized": 1446, " trying": 1447, " bit": 1448, " coming": 1449, " bar": 1450, " quick": 1451, " fall": 1452, " apple": 1453, "ash": 1454, " scary": 1455, " looks": 1456, " build": 1457, " doing": 1458, " win": 1459, " underst": 1460, "aisy": 1461, " din": 1462, " dream": 1463, " dirty": 1464, " held": 1465, "ames": 1466, " books": 1467, " mar": 1468, "In": 1469, " butterfly": 1470, " left": 1471, " shouted": 1472, " count": 1473, " replied": 1474, "avy": 1475, " reach": 1476, " tiny": 1477, " through": 1478, "ott": 1479, " dro": 1480, " why": 1481, " air": 1482, " bran": 1483, " land": 1484, "key": 1485, " three": 1486, " pulled": 1487, " spl": 1488, " grow": 1489, " treat": 1490, " brother": 1491, " wise": 1492, " woods": 1493, " sure": 1494, "'re": 1495, " chair": 1496, "ix": 1497, " mat": 1498, "ins": 1499, " seen": 1500, " pink": 1501, " clapped": 1502, " plant": 1503, "ely": 1504, " owl": 1505, " cup": 1506, "ield": 1507, " sometimes": 1508, "andy": 1509, " fill": 1510, " cloud": 1511, "ask": 1512, " swam": 1513, "outh": 1514, " job": 1515, " colorful": 1516, " remembered": 1517, " bigger": 1518, " nest": 1519, " mouth": 1520, "pe": 1521, "Okay": 1522, " lesson": 1523, " join": 1524, " cre": 1525, "ph": 1526, " There": 1527, "oup": 1528, "room": 1529, "art": 1530, " waved": 1531, "uddy": 1532, " grabbed": 1533, " stayed": 1534, "Oh": 1535, " paint": 1536, "This": 1537, " clot": 1538, " cont": 1539, " clothes": 1540, "ower": 1541, " After": 1542, " waited": 1543, " quickly": 1544, "cle": 1545, " word": 1546, " broke": 1547, "ucky": 1548, " games": 1549, " cast": 1550, " blew": 1551, " gent": 1552, " Mommy": 1553, " enjoyed": 1554, " noticed": 1555, "Jo": 1556, "ries": 1557, "ation": 1558, " set": 1559, " likes": 1560, " pictures": 1561, "ton": 1562, "de": 1563, " sea": 1564, " heavy": 1565, " mus": 1566, " alone": 1567, " gif": 1568, "asure": 1569, " anything": 1570, " spot": 1571, " miss": 1572, " hopped": 1573, " world": 1574, " turns": 1575, "orm": 1576, " year": 1577, "der": 1578, " bott": 1579, " pat": 1580, " pot": 1581, " pen": 1582, "lc": 1583, "Her": 1584, " mix": 1585, " arm": 1586, " bike": 1587, " tight": 1588, " everywhere": 1589, " won": 1590, "Lucy": 1591, " tower": 1592, " threw": 1593, " himself": 1594, " followed": 1595, " Buddy": 1596, " ride": 1597, "man": 1598, "less": 1599, " ju": 1600, " je": 1601, "amp": 1602, "Bob": 1603, "ape": 1604, " comp": 1605, " key": 1606, "row": 1607, "\".": 1608, " white": 1609, "ctor": 1610, " wrong": 1611, " Daisy": 1612, " makes": 1613, " What": 1614, " break": 1615, " black": 1616, "arent": 1617, "ee": 1618, "ner": 1619, "Spot": 1620, "Do": 1621, " deep": 1622, "thy": 1623, " music": 1624, " pol": 1625, " delic": 1626, "cess": 1627, "ued": 1628, " forgot": 1629, " bee": 1630, " parent": 1631, " castle": 1632, "ves": 1633, "olly": 1634, " em": 1635, "iet": 1636, " wear": 1637, " hit": 1638, " ve": 1639, "ister": 1640, "oun": 1641, " quiet": 1642, " round": 1643, "ance": 1644, " stu": 1645, " danced": 1646, " vis": 1647, "ully": 1648, " wants": 1649, " leaf": 1650, " monster": 1651, " nap": 1652, " John": 1653, " understand": 1654, "ang": 1655, " bowl": 1656, "os": 1657, "rot": 1658, "ren": 1659, " bor": 1660, " talked": 1661, "itten": 1662, " dry": 1663, " faster": 1664, " cookies": 1665, " brought": 1666, "fully": 1667, " leg": 1668, "ross": 1669, " mum": 1670, "zz": 1671, " side": 1672, "ts": 1673, "From": 1674, " sign": 1675, " Inside": 1676, " smart": 1677, "cy": 1678, " rocks": 1679, " someone": 1680, "His": 1681, " poin": 1682, " sec": 1683, " sharing": 1684, " fox": 1685, " well": 1686, " res": 1687, " rel": 1688, " happen": 1689, " button": 1690, " branch": 1691, " Lila": 1692, " really": 1693, " finished": 1694, "ence": 1695, "ards": 1696, " dinner": 1697, " sister": 1698, " flying": 1699, "eddy": 1700, " contin": 1701, " worried": 1702, " ele": 1703, " To": 1704, " visit": 1705, " Maybe": 1706, " beach": 1707, " que": 1708, " secret": 1709, " el": 1710, " Sarah": 1711, " king": 1712, "John": 1713, "gy": 1714, " today": 1715, " perfect": 1716, " river": 1717, " everything": 1718, " silly": 1719, " shin": 1720, " Joe": 1721, " danger": 1722, "ipp": 1723, " children": 1724, " gu": 1725, " Soon": 1726, " field": 1727, " filled": 1728, " fur": 1729, " else": 1730, " smiles": 1731, " welc": 1732, " At": 1733, " wish": 1734, " Em": 1735, "While": 1736, " sang": 1737, " gi": 1738, "ze": 1739, " pudd": 1740, " snack": 1741, " eating": 1742, " realized": 1743, " pieces": 1744, " promised": 1745, "ord": 1746, " spr": 1747, " pig": 1748, " free": 1749, " continued": 1750, " bite": 1751, "ead": 1752, " parents": 1753, " carefully": 1754, "ated": 1755, "itting": 1756, " ear": 1757, "Just": 1758, " jar": 1759, "Maybe": 1760, " cow": 1761, "Amy": 1762, " blank": 1763, " drag": 1764, "stead": 1765, " orange": 1766, " mud": 1767, " crying": 1768, " blanket": 1769, " enough": 1770, " rolled": 1771, "cket": 1772, " soup": 1773, " sail": 1774, " purp": 1775, "imi": 1776, " yes": 1777, "ale": 1778, " drink": 1779, " snake": 1780, "ses": 1781, " boun": 1782, " pet": 1783, " crab": 1784, " throw": 1785, " laughing": 1786, " fairy": 1787, " words": 1788, " amazing": 1789, " bath": 1790, "ich": 1791, " purple": 1792, " Z": 1793, " without": 1794, "ire": 1795, " bottle": 1796, " Billy": 1797, " gift": 1798, " grandma": 1799, "Fin": 1800, "used": 1801, "ons": 1802, " past": 1803, " money": 1804, "iver": 1805, "fort": 1806, " mail": 1807, " Gra": 1808, " barked": 1809, " wagged": 1810, " att": 1811, "chool": 1812, " monkey": 1813, " doctor": 1814, "unch": 1815, " brown": 1816, " moved": 1817, "ises": 1818, " asks": 1819, " getting": 1820, " closed": 1821, " whe": 1822, " welcome": 1823, " su": 1824, " candy": 1825, " school": 1826, " morning": 1827, " owner": 1828, "gg": 1829, " lon": 1830, " mother": 1831, " higher": 1832, " sitting": 1833, " treasure": 1834, ".\u201d": 1835, " smo": 1836, "!\u201d": 1837, " dangerous": 1838, " lonely": 1839, " Ch": 1840, " living": 1841, " apples": 1842, "ush": 1843, " shop": 1844, "ased": 1845, " strange": 1846, "vel": 1847, " shining": 1848, " road": 1849, "ere": 1850, " Tommy": 1851, " creat": 1852, "una": 1853, " paw": 1854, "ey": 1855, " ra": 1856, " shoes": 1857, " pre": 1858, "ible": 1859, " -": 1860, " stre": 1861, " talking": 1862, "althy": 1863, " caught": 1864, " egg": 1865, "ol": 1866, " pass": 1867, "me": 1868, " lake": 1869, " runs": 1870, " buck": 1871, " letter": 1872, " wings": 1873, " chee": 1874, "fish": 1875, " mad": 1876, " fan": 1877, "asket": 1878, " basket": 1879, "ass": 1880, " dragon": 1881, "app": 1882, "Mommy": 1883, "set": 1884, "cks": 1885, " stone": 1886, " thinks": 1887, " stand": 1888, " delicious": 1889, " nose": 1890, " puddle": 1891, " tom": 1892, " Bl": 1893, " Mimi": 1894, " belie": 1895, " farmer": 1896, " same": 1897, " years": 1898, "board": 1899, " teddy": 1900, " bat": 1901, "isk": 1902, "itch": 1903, " mine": 1904, " sear": 1905, " coat": 1906, "ches": 1907, "igh": 1908, " days": 1909, " bring": 1910, " gentle": 1911, " fit": 1912, " start": 1913, " finally": 1914, " whist": 1915, " cray": 1916, "igg": 1917, " scream": 1918, " kite": 1919, " pill": 1920, "phant": 1921, "arm": 1922, " vill": 1923, " cho": 1924, " singing": 1925, "ella": 1926, "sw": 1927, "ined": 1928, " tasty": 1929, " ph": 1930, " ben": 1931, " trou": 1932, " shell": 1933, " herself": 1934, " hoped": 1935, " answ": 1936, " wore": 1937, " swings": 1938, "sy": 1939, " hor": 1940, " belong": 1941, "Please": 1942, " push": 1943, " bush": 1944, "iskers": 1945, " carrot": 1946, " arri": 1947, "aughty": 1948, " teach": 1949, "bow": 1950, "ract": 1951, " naughty": 1952, " elephant": 1953, " dropped": 1954, " shap": 1955, "ier": 1956, " coll": 1957, "sc": 1958, " teac": 1959, "emy": 1960, " woke": 1961, "ball": 1962, " pile": 1963, " hiding": 1964, " cour": 1965, "isa": 1966, "erry": 1967, " touc": 1968, " min": 1969, " puppy": 1970, "'ll": 1971, " seem": 1972, "llie": 1973, " twins": 1974, "ama": 1975, " lunch": 1976, " bow": 1977, " sack": 1978, " pers": 1979, " course": 1980, " cheered": 1981, " shapes": 1982, " Jen": 1983, " grew": 1984, "fused": 1985, " rope": 1986, " village": 1987, "irth": 1988, "irthday": 1989, " juice": 1990, "ipped": 1991, " rainbow": 1992, " spin": 1993, "OK": 1994, " shook": 1995, "Jack": 1996, " spoon": 1997, " bench": 1998, " street": 1999, " fence": 2000, " cute": 2001, " Fred": 2002, " rob": 2003, " nut": 2004, " cheese": 2005, " prob": 2006, " touched": 2007, "idge": 2008, "col": 2009, " joy": 2010, " Whiskers": 2011, " arrived": 2012, " seed": 2013, " war": 2014, " teacher": 2015, " corn": 2016, "Good": 2017, " forever": 2018, " able": 2019, " bell": 2020, " few": 2021, " carry": 2022, " most": 2023, " plane": 2024, " Blue": 2025, "lem": 2026, " eas": 2027, " sounds": 2028, "lla": 2029, " des": 2030, " spo": 2031, " problem": 2032, " birthday": 2033, " power": 2034, " inc": 2035, "umb": 2036, "br": 2037, "\n ": 2038, " bugs": 2039, "ilk": 2040, " wonderful": 2041, " dolls": 2042, " busy": 2043, "ato": 2044, "irp": 2045, "eb": 2046, " wra": 2047, " promise": 2048, " Thank": 2049, " feels": 2050, "ian": 2051, " Emma": 2052, "eter": 2053, " bread": 2054, " neck": 2055, "Finally": 2056, " milk": 2057, " robot": 2058, " rec": 2059, " shy": 2060, "ountain": 2061, " kiss": 2062, "irt": 2063, " heart": 2064, " band": 2065, " cave": 2066, " pocket": 2067, "ub": 2068, " helpful": 2069, "gly": 2070, " slowly": 2071, " believe": 2072, " shake": 2073, "umpy": 2074, "eared": 2075, " patient": 2076, " pop": 2077, " ob": 2078, "arp": 2079, " live": 2080, " storm": 2081, " holding": 2082, " ugly": 2083, " towards": 2084, " upset": 2085, " turt": 2086, " shr": 2087, "adow": 2088, " cover": 2089, " kitten": 2090, "ost": 2091, " Remy": 2092, " sharp": 2093, " disapp": 2094, " stories": 2095, " suc": 2096, " honey": 2097, "ove": 2098, " Bella": 2099, "read": 2100, " noises": 2101, " Le": 2102, " cir": 2103, " balls": 2104, " spark": 2105, " gray": 2106, " dist": 2107, " dirt": 2108, "oggy": 2109, " late": 2110, " driver": 2111, " seat": 2112, " bucket": 2113, " meet": 2114, " young": 2115, " amazed": 2116, " turtle": 2117, "alm": 2118, " spid": 2119, " treats": 2120, " magical": 2121, "unt": 2122, "ator": 2123, " glow": 2124, " seek": 2125, " zoom": 2126, " lem": 2127, " sandw": 2128, "fortable": 2129, "umber": 2130, " trip": 2131, " mist": 2132, "ourn": 2133, " splas": 2134, " mark": 2135, " journ": 2136, " fold": 2137, " mach": 2138, " puzz": 2139, " part": 2140, "ling": 2141, " horse": 2142, " organ": 2143, " wild": 2144, " princess": 2145, "pping": 2146, "oose": 2147, " cookie": 2148, "Sure": 2149, "ens": 2150, " hugs": 2151, " Mark": 2152, " taking": 2153, "ung": 2154, " wheel": 2155, "epend": 2156, " cloth": 2157, " Lisa": 2158, " sug": 2159, " instead": 2160, " bubb": 2161, " string": 2162, " net": 2163, " drove": 2164, "iling": 2165, " rude": 2166, " huge": 2167, " Jim": 2168, " coin": 2169, " stars": 2170, " fighting": 2171, "Be": 2172, " spicy": 2173, " lucky": 2174, "Of": 2175, " craw": 2176, "Hey": 2177, " bone": 2178, " inv": 2179, " Grandma": 2180, "ors": 2181, "not": 2182, " ca": 2183, "pper": 2184, " forget": 2185, "up": 2186, " di": 2187, "aur": 2188, " sal": 2189, " Finally": 2190, " cannot": 2191, " whistle": 2192, " card": 2193, " sick": 2194, " path": 2195, " cou": 2196, " spider": 2197, " wide": 2198, "Lila": 2199, " foot": 2200, " snowman": 2201, " songs": 2202, " life": 2203, " pillow": 2204, "ize": 2205, "ular": 2206, " Just": 2207, "Later": 2208, "est": 2209, " Ann": 2210, "ert": 2211, " fixed": 2212, " giant": 2213, "oph": 2214, "rill": 2215, " nod": 2216, " boss": 2217, " last": 2218, " comes": 2219, " joke": 2220, " moon": 2221, " taste": 2222, "den": 2223, " machine": 2224, " grumpy": 2225, " wave": 2226, " thin": 2227, " drive": 2228, " cart": 2229, " ash": 2230, " ser": 2231, " grab": 2232, " peace": 2233, "lower": 2234, " daddy": 2235, " On": 2236, " Leo": 2237, "ery": 2238, " sel": 2239, " shelf": 2240, " hidden": 2241, "erest": 2242, " suddenly": 2243, " wasn": 2244, " write": 2245, " landed": 2246, " confused": 2247, " ring": 2248, " change": 2249, " worm": 2250, "oop": 2251, " interest": 2252, " chased": 2253, " fruits": 2254, " sour": 2255, "ity": 2256, " myster": 2257, " bark": 2258, " rad": 2259, " smooth": 2260, " Come": 2261, " adventures": 2262, " val": 2263, " stepped": 2264, " fle": 2265, "ope": 2266, " oven": 2267, " takes": 2268, " missed": 2269, " selfish": 2270, "kin": 2271, " sheep": 2272, " messy": 2273, " across": 2274, "To": 2275, " ent": 2276, " exp": 2277, "to": 2278, " ce": 2279, " later": 2280, "elly": 2281, " N": 2282, "ife": 2283, " sticks": 2284, " tie": 2285, "St": 2286, "ever": 2287, " Luna": 2288, " step": 2289, " bought": 2290, " drew": 2291, " tea": 2292, "pect": 2293, " ban": 2294, "irpy": 2295, "box": 2296, "?\u201d": 2297, " wash": 2298, " lay": 2299, " pour": 2300, " beak": 2301, "ose": 2302, " jog": 2303, " grate": 2304, " ducks": 2305, " spe": 2306, " legs": 2307, "ugg": 2308, " fil": 2309, " Bu": 2310, " emp": 2311, "mer": 2312, " hope": 2313, " empty": 2314, " slid": 2315, " feather": 2316, " sleepy": 2317, " drum": 2318, "amed": 2319, "ars": 2320, "eth": 2321, " zoo": 2322, " pan": 2323, " phone": 2324, " grateful": 2325, " fing": 2326, "ions": 2327, " lemon": 2328, "let": 2329, " Cat": 2330, " clever": 2331, " Molly": 2332, " smelly": 2333, " imag": 2334, " splash": 2335, " interesting": 2336, " Jill": 2337, " save": 2338, " chick": 2339, " calm": 2340, " med": 2341, " watching": 2342, "Soon": 2343, "izzy": 2344, "izz": 2345, " plate": 2346, " ign": 2347, "yard": 2348, " clouds": 2349, " banan": 2350, " line": 2351, " faces": 2352, " ba": 2353, " act": 2354, " though": 2355, " wolf": 2356, " backyard": 2357, "wel": 2358, " seemed": 2359, " dogs": 2360, " spray": 2361, "Come": 2362, " prot": 2363, " whole": 2364, " mot": 2365, " fancy": 2366, " Daddy": 2367, " quest": 2368, " arms": 2369, " puzzle": 2370, " healthy": 2371, " supp": 2372, "ward": 2373, " finish": 2374, "erly": 2375, " along": 2376, "llo": 2377, " rocket": 2378, " explain": 2379, "dge": 2380, " easy": 2381, " jewel": 2382, "ont": 2383, " pract": 2384, " jelly": 2385, " Chirpy": 2386, " tid": 2387, " fake": 2388, " crayons": 2389, " wondered": 2390, " maybe": 2391, " scar": 2392, " ship": 2393, " nothing": 2394, "onest": 2395, " emb": 2396, "iger": 2397, " pool": 2398, " longer": 2399, " anyone": 2400, " Be": 2401, " Jerry": 2402, "ually": 2403, " front": 2404, " working": 2405, " gives": 2406, "irr": 2407, " pack": 2408, " such": 2409, " Bunny": 2410, "ocked": 2411, "ment": 2412, " bossy": 2413, " Doggy": 2414, " trouble": 2415, " smelled": 2416, " saved": 2417, " pin": 2418, "rass": 2419, " neigh": 2420, "arrass": 2421, "iting": 2422, " honest": 2423, " av": 2424, "arge": 2425, " embarrass": 2426, " lift": 2427, " van": 2428, " forgive": 2429, " tidy": 2430, " weak": 2431, "urse": 2432, " puts": 2433, "unk": 2434, " kick": 2435, " shirt": 2436, " With": 2437, " mind": 2438, " Ollie": 2439, " neighb": 2440, " plants": 2441, " sol": 2442, " Momo": 2443, " gently": 2444, " cozy": 2445, "orrow": 2446, "ming": 2447, " explor": 2448, "sp": 2449, " mistake": 2450, " yog": 2451, "oc": 2452, "oomy": 2453, " pointed": 2454, " lad": 2455, " af": 2456, " stood": 2457, "ork": 2458, " onto": 2459, " waiting": 2460, " jumping": 2461, " prince": 2462, " cross": 2463, " lock": 2464, " cheer": 2465, " queen": 2466, " Why": 2467, " Mary": 2468, " wing": 2469, "ones": 2470, "we": 2471, " large": 2472, " lovely": 2473, "ult": 2474, " sur": 2475, " ret": 2476, "And": 2477, " deer": 2478, " chew": 2479, " couch": 2480, " bal": 2481, "aughter": 2482, " stret": 2483, "era": 2484, " Their": 2485, " places": 2486, " My": 2487, " ladder": 2488, " return": 2489, "raid": 2490, " ants": 2491, " dish": 2492, " afraid": 2493, " cleaned": 2494, " tomorrow": 2495, " building": 2496, " sandwich": 2497, " person": 2498, "Sally": 2499, "ek": 2500, "ned": 2501, " pretended": 2502, " bounce": 2503, " wip": 2504, "gest": 2505, " match": 2506, " rich": 2507, "uce": 2508, " pizz": 2509, " gather": 2510, " search": 2511, " boring": 2512, "oman": 2513, " Somet": 2514, " teeth": 2515, " hum": 2516, "Kitty": 2517, "My": 2518, "aced": 2519, " daughter": 2520, " woman": 2521, " scarf": 2522, " goes": 2523, " Together": 2524, " law": 2525, " stra": 2526, " swimming": 2527, " furry": 2528, " splashed": 2529, " pri": 2530, " loves": 2531, " true": 2532, " screamed": 2533, " lazy": 2534, " gen": 2535, " answer": 2536, " number": 2537, " eag": 2538, " ashamed": 2539, " pizza": 2540, "aw": 2541, " appeared": 2542, " fear": 2543, " nearby": 2544, " powerful": 2545, " flag": 2546, " St": 2547, " hang": 2548, "vous": 2549, " clown": 2550, " chase": 2551, " motor": 2552, " wand": 2553, " TV": 2554, " rub": 2555, " success": 2556, " chocol": 2557, " If": 2558, " creative": 2559, " trust": 2560, " wearing": 2561, " noisy": 2562, " matter": 2563, "pa": 2564, " dig": 2565, " hello": 2566, " ner": 2567, " tool": 2568, " saf": 2569, " Bird": 2570, "ado": 2571, " nervous": 2572, "elp": 2573, " test": 2574, " smiling": 2575, " sold": 2576, "icked": 2577, "oppy": 2578, "osaur": 2579, " circle": 2580, "mb": 2581, " map": 2582, " drank": 2583, " class": 2584, " tries": 2585, " chocolate": 2586, " Please": 2587, " impress": 2588, " knee": 2589, " gener": 2590, " dinosaur": 2591, " polite": 2592, " mirr": 2593, " Bobby": 2594, " Tiny": 2595, " balloons": 2596, " gold": 2597, " rare": 2598, " protect": 2599, " cand": 2600, "Stop": 2601, " Go": 2602, " carried": 2603, "ensive": 2604, " ap": 2605, " shadow": 2606, " mirror": 2607, " Don": 2608, " bald": 2609, " gun": 2610, "ina": 2611, " expensive": 2612, " reg": 2613, "iff": 2614, " mysterious": 2615, " Sp": 2616, " pump": 2617, " note": 2618, " hero": 2619, " march": 2620, " har": 2621, "arl": 2622, " icy": 2623, " respect": 2624, " weird": 2625, " snee": 2626, " cri": 2627, " gate": 2628, " soap": 2629, "rag": 2630, "ute": 2631, "issors": 2632, " these": 2633, " poor": 2634, " towel": 2635, " whale": 2636, " feet": 2637, " tape": 2638, " dizzy": 2639, "itter": 2640, " generous": 2641, "ndpa": 2642, " pres": 2643, " Benny": 2644, "nic": 2645, " disco": 2646, "Help": 2647, "ventually": 2648, " picnic": 2649, " mic": 2650, " lead": 2651, " sque": 2652, " embarrassed": 2653, " journey": 2654, " sugar": 2655, "isp": 2656, "scape": 2657, " boot": 2658, " tent": 2659, " peaceful": 2660, " fat": 2661, " Bear": 2662, " scissors": 2663, " tasted": 2664, " yelled": 2665, "Tommy": 2666, " tick": 2667, " mel": 2668, " brush": 2669, " dancing": 2670, "ness": 2671, " glue": 2672, " hur": 2673, " rough": 2674, " clap": 2675, " bridge": 2676, "ote": 2677, " decor": 2678, " closet": 2679, " crown": 2680, " stir": 2681, "ual": 2682, "imp": 2683, " print": 2684, " Sometimes": 2685, "owed": 2686, "airs": 2687, " How": 2688, "ume": 2689, " cap": 2690, " lamp": 2691, " vase": 2692, " scare": 2693, "lebr": 2694, " relie": 2695, "lves": 2696, "any": 2697, " eld": 2698, " tele": 2699, " celebr": 2700, " gigg": 2701, " whisp": 2702, " log": 2703, " blow": 2704, " painted": 2705, " sco": 2706, " Ducky": 2707, " pay": 2708, "erries": 2709, " wis": 2710, " berries": 2711, " mixed": 2712, " spread": 2713, " wouldn": 2714, " cage": 2715, " bake": 2716, "rob": 2717, "getable": 2718, " mountain": 2719, " adm": 2720, " drawing": 2721, " become": 2722, " famous": 2723, " knocked": 2724, " bean": 2725, " norm": 2726, " vegetable": 2727, "asp": 2728, " kicked": 2729, "ustr": 2730, " shark": 2731, "ser": 2732, " incred": 2733, " lose": 2734, " normal": 2735, " wrap": 2736, "ced": 2737, " group": 2738, " thick": 2739, " 3": 2740, " fine": 2741, " glass": 2742, " ignor": 2743, " clock": 2744, " team": 2745, " elderly": 2746, " clear": 2747, " corner": 2748, " frustr": 2749, " mighty": 2750, "robe": 2751, " cone": 2752, " incredible": 2753, " Br": 2754, "ighed": 2755, "Dad": 2756, " moms": 2757, " balance": 2758, " sock": 2759, " space": 2760, " jam": 2761, "ragile": 2762, " fright": 2763, " organized": 2764, " branches": 2765, " roar": 2766, "port": 2767, " sword": 2768, "alous": 2769, " Mama": 2770, " guess": 2771, " fool": 2772, " sell": 2773, " feed": 2774, " Some": 2775, " which": 2776, " horn": 2777, " present": 2778, " jealous": 2779, " yarn": 2780, "ony": 2781, " fragile": 2782, " burn": 2783, " understood": 2784, " mis": 2785, " stubb": 2786, " ter": 2787, " frustrated": 2788, "Where": 2789, "ray": 2790, " hose": 2791, "cient": 2792, " spent": 2793, " shoe": 2794, " taught": 2795, " stubborn": 2796, " twist": 2797, " creature": 2798, " chest": 2799, " spoiled": 2800, " relieved": 2801, " ancient": 2802, "ique": 2803, " wake": 2804, " fier": 2805, " pray": 2806, " fierce": 2807, " eggs": 2808, " cab": 2809, " terri": 2810, " barn": 2811, " pumpkin": 2812, " comfortable": 2813, " ord": 2814, "ym": 2815, " frightened": 2816, "orry": 2817, " toug": 2818, " unique": 2819, " measure": 2820, " goat": 2821, " wagon": 2822, " unus": 2823, " breath": 2824, " foolish": 2825, " useful": 2826, " exploring": 2827, "dle": 2828, " straw": 2829, " unusual": 2830, " dug": 2831, " clay": 2832, " discover": 2833, " tomato": 2834, " Pe": 2835, " dead": 2836, " finding": 2837, " police": 2838, " wrote": 2839, " clum": 2840, " exam": 2841, "lace": 2842, " waves": 2843, " square": 2844, " hears": 2845, " cabin": 2846, " tells": 2847, " necklace": 2848, " dull": 2849, " clumsy": 2850, " tough": 2851, " bubbles": 2852, " nosy": 2853, "kn": 2854, " searched": 2855, "Together": 2856, " washed": 2857, " bathroom": 2858, " paws": 2859, "bby": 2860, "ond": 2861, "unn": 2862, "anged": 2863, " board": 2864, "known": 2865, "fic": 2866, " asking": 2867, " crazy": 2868, " thankful": 2869, " sunf": 2870, " bitter": 2871, "yal": 2872, " pir": 2873, "berry": 2874, "alk": 2875, " ind": 2876, " diffic": 2877, " rose": 2878, "cil": 2879, " swan": 2880, " bloom": 2881, " unknown": 2882, " Ella": 2883, " covered": 2884, " difficult": 2885, " add": 2886, " pencil": 2887, " finger": 2888, " ham": 2889, " hoop": 2890, " jet": 2891, " witch": 2892, " drop": 2893, "Me": 2894, " '": 2895, " chicken": 2896, " gloomy": 2897, "apped": 2898, " loyal": 2899, "als": 2900, "Here": 2901, " wealthy": 2902, "com": 2903, "light": 2904, " unl": 2905, " cats": 2906, " ending": 2907, " guit": 2908, "bled": 2909, "shine": 2910, " dove": 2911, " joined": 2912, " cher": 2913, "anut": 2914, " mov": 2915, " terrible": 2916, " yours": 2917, "iant": 2918, " U": 2919, " Rex": 2920, " salad": 2921, " Andy": 2922, " nuts": 2923, " rat": 2924, " lif": 2925, "ground": 2926, " tiger": 2927, " potato": 2928, " mask": 2929, "xible": 2930, "selves": 2931, " value": 2932, " changed": 2933, " moving": 2934, " exciting": 2935, "ormous": 2936, " Many": 2937, " body": 2938, " Tr": 2939, " toast": 2940, " record": 2941, "erp": 2942, " zip": 2943, " disg": 2944, " cheap": 2945, " guitar": 2946, "irsty": 2947, " knowing": 2948, " adventur": 2949, " yourself": 2950, " enormous": 2951, " hairy": 2952, "Every": 2953, " shoot": 2954, " Brown": 2955, " bored": 2956, " pepper": 2957, " remind": 2958, "ory": 2959, "land": 2960, " acorn": 2961, " adventurous": 2962, " sunshine": 2963, " smaller": 2964, " stuff": 2965, " hats": 2966, " solve": 2967, " Jimmy": 2968, " flexible": 2969, " cost": 2970, "rilliant": 2971, " knife": 2972, " perform": 2973, " snacks": 2974, " nods": 2975, " shore": 2976, " brilliant": 2977, " thirsty": 2978, " delicate": 2979, " frown": 2980, " disgust": 2981, " collect": 2982, " stri": 2983, " seeds": 2984, " counted": 2985, " asleep": 2986, " banana": 2987, "reen": 2988, " mailbox": 2989, "iness": 2990, " dough": 2991, " trick": 2992, " neighbor": 2993, "ungle": 2994, " heal": 2995, "Who": 2996, "live": 2997, " stage": 2998, "ident": 2999, " market": 3000, " cube": 3001, " stat": 3002, " jungle": 3003, " squee": 3004, "mbre": 3005, " explained": 3006, "ates": 3007, " umbre": 3008, " disgusting": 3009, "Jim": 3010, " lab": 3011, " jolly": 3012, " flash": 3013, "und": 3014, " fridge": 3015, "inal": 3016, "pid": 3017, "ilt": 3018, " crane": 3019, "corn": 3020, " suit": 3021, " rh": 3022, "iddle": 3023, " sunflower": 3024, " times": 3025, " Al": 3026, "erpill": 3027, " caterpill": 3028, " relax": 3029, " shiver": 3030, " four": 3031, " island": 3032, "iginal": 3033, " harm": 3034, "ict": 3035, " While": 3036, "ying": 3037, " stupid": 3038, " medic": 3039, " Instead": 3040, " comb": 3041, " goose": 3042, " cro": 3043, "edient": 3044, " Will": 3045, " stove": 3046, "If": 3047, "Are": 3048, " independ": 3049, "Mum": 3050, "most": 3051, " spring": 3052, " gem": 3053, " batter": 3054, " sighed": 3055, " vegetables": 3056, " stones": 3057, "pes": 3058, " shine": 3059, "How": 3060, " medicine": 3061, " depend": 3062, " rug": 3063, " Your": 3064, " careless": 3065, " original": 3066, " stamp": 3067, " gar": 3068, " cries": 3069, "Inside": 3070, "gu": 3071, " carrots": 3072, " scr": 3073, " successful": 3074, " sauce": 3075, " jeep": 3076, " popcorn": 3077, " meal": 3078, " obedient": 3079, " almost": 3080, " middle": 3081, " magn": 3082, " study": 3083, " independent": 3084, " fearful": 3085, " jack": 3086, "met": 3087, "inky": 3088, "Sorry": 3089, " Sammy": 3090, " escape": 3091, " caterpillar": 3092, " serious": 3093, " peanut": 3094, " bedroom": 3095, " eager": 3096, "aken": 3097, " gets": 3098, " parrot": 3099, " statue": 3100, " helmet": 3101, " pebb": 3102, " No": 3103, " fountain": 3104, " raven": 3105, " ang": 3106, " pasta": 3107, " umbrella": 3108, " compet": 3109, "There": 3110, " jacket": 3111, " belonged": 3112, " dest": 3113, " filthy": 3114, " design": 3115, " borrow": 3116, " cam": 3117, "erable": 3118, " houses": 3119, " prize": 3120, " hay": 3121, " brace": 3122, " standing": 3123, " miserable": 3124, " raced": 3125, " taken": 3126, "ages": 3127, " fork": 3128, " crayon": 3129, " painting": 3130, "io": 3131, " triang": 3132, " impressive": 3133, " choose": 3134, " fig": 3135, " tied": 3136, "iable": 3137, " spotted": 3138, " lifted": 3139, " slipped": 3140, "ours": 3141, " tank": 3142, " thoughtful": 3143, " dependable": 3144, " steal": 3145, " garage": 3146, "enny": 3147, " built": 3148, " mush": 3149, " er": 3150, "ipe": 3151, " mole": 3152, " crawled": 3153, " scale": 3154, " boats": 3155, " pian": 3156, " pant": 3157, " hammer": 3158, " bottom": 3159, "lph": 3160, " cheerful": 3161, " using": 3162, " smoke": 3163, " picks": 3164, " moder": 3165, "berries": 3166, " shows": 3167, "rn": 3168, " piano": 3169, " magnet": 3170, "dile": 3171, "codile": 3172, " hurts": 3173, "inary": 3174, " ref": 3175, " crack": 3176, " eng": 3177, " aunt": 3178, " melon": 3179, " waff": 3180, " modern": 3181, " dolph": 3182, "unnel": 3183, "cream": 3184, "pack": 3185, " tunnel": 3186, "oin": 3187, " arrow": 3188, " reliable": 3189, " hopping": 3190, " mushroom": 3191, " jug": 3192, "Timmy": 3193, " squash": 3194, " gum": 3195, " sink": 3196, " movie": 3197, " tax": 3198, " flute": 3199, " beet": 3200, " lean": 3201, "Their": 3202, "iv": 3203, " popular": 3204, "opter": 3205, "icopter": 3206, " cryst": 3207, " ones": 3208, " sil": 3209, " competit": 3210, " helicopter": 3211, "aser": 3212, " needs": 3213, "ipop": 3214, "llipop": 3215, " crocodile": 3216, " liz": 3217, "Molly": 3218, " press": 3219, " troubled": 3220, " pige": 3221, " locked": 3222, " tricks": 3223, " lollipop": 3224, " playful": 3225, " humble": 3226, " taxi": 3227, " kissed": 3228, " low": 3229, "appy": 3230, "comfortable": 3231, "amond": 3232, " uncomfortable": 3233, " rid": 3234, "host": 3235, " wander": 3236, "atch": 3237, " angel": 3238, "edy": 3239, "cles": 3240, " torn": 3241, " grace": 3242, " anx": 3243, " wrapped": 3244, " muff": 3245, " twig": 3246, " pants": 3247, " disappoin": 3248, " Sn": 3249, " helps": 3250, " diamond": 3251, " camera": 3252, "atter": 3253, "oto": 3254, " anxious": 3255, " ghost": 3256, " tears": 3257, " ruined": 3258, "cident": 3259, " Jenny": 3260, "ilty": 3261, " quar": 3262, "aff": 3263, " Even": 3264, " fis": 3265, "opl": 3266, " belt": 3267, "eropl": 3268, " env": 3269, " guilty": 3270, " bull": 3271, " aeropl": 3272, " helpless": 3273, " happiness": 3274, " lizard": 3275, " boys": 3276, "cut": 3277, " cere": 3278, " walks": 3279, "cean": 3280, " passed": 3281, " meant": 3282, " ocean": 3283, " fluffy": 3284, " wire": 3285, " nail": 3286, " bracelet": 3287, " deaf": 3288, "zed": 3289, " stretch": 3290, " candle": 3291, " cact": 3292, "tt": 3293, " beetle": 3294, " mop": 3295, " harmless": 3296, "umpet": 3297, " ordinary": 3298, " answered": 3299, " collar": 3300, " cop": 3301, " bees": 3302, " tire": 3303, " shape": 3304, " quarrel": 3305, " radio": 3306, " flashlight": 3307, " crystal": 3308, " harder": 3309, " poured": 3310, " trumpet": 3311, " engine": 3312, "Mama": 3313, " persist": 3314, " hunt": 3315, " tooth": 3316, " cereal": 3317, " invited": 3318, " comput": 3319, " tag": 3320, " office": 3321, " melt": 3322, " spill": 3323, " charm": 3324, "coa": 3325, " lit": 3326, " scoot": 3327, " comet": 3328, " triangle": 3329, "ief": 3330, " mug": 3331, " rep": 3332, "ube": 3333, " yogurt": 3334, " spend": 3335, " compass": 3336, " accident": 3337, " shade": 3338, "hett": 3339, "aghett": 3340, "aghetti": 3341, " disappointed": 3342, " licked": 3343, " cactus": 3344, " pale": 3345, " cush": 3346, " figure": 3347, " regular": 3348, " giving": 3349, " avoc": 3350, " sheet": 3351, " whispered": 3352, "aze": 3353, "uth": 3354, "ellig": 3355, " create": 3356, " barber": 3357, " intellig": 3358, " pipe": 3359, " rode": 3360, " roof": 3361, "Jane": 3362, " thread": 3363, "ither": 3364, " vi": 3365, " load": 3366, " libr": 3367, " gifted": 3368, "ccol": 3369, " practiced": 3370, " delight": 3371, "ccoli": 3372, " harsh": 3373, "asses": 3374, " pow": 3375, " dust": 3376, " True": 3377, " bicy": 3378, "azz": 3379, " spaghetti": 3380, " compassion": 3381, " sailed": 3382, "urkey": 3383, "ubby": 3384, " forward": 3385, " persistent": 3386, " speed": 3387, " mitten": 3388, " pro": 3389, " cocoa": 3390, " envel": 3391, " questions": 3392, " computer": 3393, " coo": 3394, " feathers": 3395, "hip": 3396, " glove": 3397, "ging": 3398, "Bobo": 3399, " rice": 3400, " shrimp": 3401, " desk": 3402, " stream": 3403, " inse": 3404, " pigeon": 3405, " charming": 3406, " ears": 3407, " carp": 3408, "lcan": 3409, " envious": 3410, " knot": 3411, " turkey": 3412, " stronger": 3413, "omes": 3414, " coins": 3415, " tap": 3416, " raft": 3417, "lcano": 3418, "weet": 3419, " trap": 3420, "umbers": 3421, " aeroplane": 3422, " trunk": 3423, " wheat": 3424, " boxes": 3425, " chubby": 3426, " carpet": 3427, " restless": 3428, " intelligent": 3429, " tube": 3430, " spun": 3431, " dreams": 3432, " half": 3433, " friendship": 3434, "ulif": 3435, "olin": 3436, " loop": 3437, " crawl": 3438, " broccoli": 3439, " onion": 3440, " week": 3441, " deliver": 3442, "anger": 3443, " acce": 3444, " vide": 3445, " volcano": 3446, " Jake": 3447, " sle": 3448, " track": 3449, " bri": 3450, " caulif": 3451, " vine": 3452, "ye": 3453, " ticket": 3454, " thief": 3455, "essie": 3456, "cycle": 3457, " louder": 3458, " insect": 3459, " numbers": 3460, "asing": 3461, " yaw": 3462, " haircut": 3463, "ital": 3464, " sleeping": 3465, " mill": 3466, " eventually": 3467, " alert": 3468, " excite": 3469, " pebble": 3470, " hosp": 3471, " attract": 3472, " planet": 3473, " Today": 3474, " univer": 3475, "isted": 3476, "ulu": 3477, " hospital": 3478, " eraser": 3479, " returned": 3480, " destro": 3481, " graceful": 3482, " happening": 3483, "ache": 3484, " OK": 3485, " Emily": 3486, " decide": 3487, " learning": 3488, " screen": 3489, "rework": 3490, " nicely": 3491, " leop": 3492, " cauliflower": 3493, " competitive": 3494, " poem": 3495, " celebrate": 3496, " curt": 3497, " peach": 3498, " soldier": 3499, " saus": 3500, " parade": 3501, "atient": 3502, " attractive": 3503, " curtain": 3504, " dolphin": 3505, " base": 3506, " violin": 3507, " ways": 3508, "Go": 3509, "ats": 3510, " travel": 3511, " rod": 3512, " ignorant": 3513, "ulb": 3514, " wheels": 3515, " yach": 3516, " scatter": 3517, " deter": 3518, " compassionate": 3519, " barrel": 3520, " envelope": 3521, " bubble": 3522, " lying": 3523, " firework": 3524, " sort": 3525, " question": 3526, "zzy": 3527, " Pipp": 3528, " scooter": 3529, " determ": 3530, " rag": 3531, " thu": 3532, " bicycle": 3533, "elery": 3534, " needle": 3535, " Fr": 3536, " judge": 3537, " bulb": 3538, " leopard": 3539, " tem": 3540, " yacht": 3541, " pony": 3542, " cricket": 3543, " order": 3544, " homes": 3545, " ador": 3546, "tern": 3547, " truth": 3548, " hook": 3549, "dom": 3550, " rubbed": 3551, "ete": 3552, "igator": 3553, " bushes": 3554, "Sarah": 3555, " uncle": 3556, " cushion": 3557, " spell": 3558, " grown": 3559, " cooked": 3560, " adorable": 3561, " chalk": 3562, " soar": 3563, " purse": 3564, " skin": 3565, " themselves": 3566, " impatient": 3567, " celery": 3568, " tray": 3569, " shells": 3570, " pengu": 3571, " sniff": 3572, " prun": 3573, " walls": 3574, " seal": 3575, " lively": 3576, " case": 3577, " alligator": 3578, " distant": 3579, " radish": 3580, " saying": 3581, " speak": 3582, " motorcycle": 3583, " meat": 3584, " send": 3585, "illa": 3586, " spinning": 3587, " forth": 3588, " counting": 3589, " enth": 3590, " bounced": 3591, " chain": 3592, " ed": 3593, " cleaning": 3594, "ebra": 3595, " film": 3596, " slept": 3597, " pit": 3598, " surf": 3599, " marry": 3600, "usia": 3601, " wallet": 3602, " enthusia": 3603, " metal": 3604, "urb": 3605, "ebook": 3606, " bin": 3607, " notebook": 3608, " wiped": 3609, " skip": 3610, "ision": 3611, "chair": 3612, " biggest": 3613, " impro": 3614, " avocado": 3615, " behave": 3616, " destroy": 3617, "vator": 3618, " bandage": 3619, " laughs": 3620, " steak": 3621, " pattern": 3622, " Sh": 3623, " post": 3624, " elevator": 3625, " Buzz": 3626, "usie": 3627, " dive": 3628, " shut": 3629, " skipped": 3630, " unlock": 3631, " diary": 3632, "dest": 3633, "ject": 3634, " zebra": 3635, " bags": 3636, "ating": 3637, " armchair": 3638, "rage": 3639, "aged": 3640, " disturb": 3641, " oy": 3642, " pole": 3643, " showing": 3644, " gathered": 3645, " club": 3646, " nurse": 3647, "bul": 3648, " earth": 3649, " enc": 3650, " stranger": 3651, " sweater": 3652, " jellyfish": 3653, " screw": 3654, " temp": 3655, " Poppy": 3656, " compl": 3657, " mixer": 3658, "Give": 3659, " skull": 3660, " lime": 3661, " bump": 3662, "bulance": 3663, " ambulance": 3664, "nam": 3665, " father": 3666, " journal": 3667, "Gra": 3668, " loudly": 3669, "ito": 3670, " folder": 3671, " shield": 3672, " Bet": 3673, " Lulu": 3674, " library": 3675, " Peter": 3676, " buttons": 3677, " playground": 3678, " trucks": 3679, " ink": 3680, " lights": 3681, " tummy": 3682, " pointing": 3683, " city": 3684, " decorate": 3685, " station": 3686, "irit": 3687, " prep": 3688, " falls": 3689, "quito": 3690, " Polly": 3691, "Billy": 3692, " fu": 3693, " Fo": 3694, "ention": 3695, "nger": 3696, " Birdy": 3697, "lies": 3698, " herb": 3699, "nament": 3700, " ornament": 3701, " modest": 3702, " guard": 3703, " mos": 3704, " knows": 3705, " cord": 3706, " polish": 3707, " marble": 3708, "oby": 3709, " mosquito": 3710, "umbled": 3711, " salt": 3712, " attic": 3713, " whenever": 3714, " vest": 3715, "ctop": 3716, " resc": 3717, " yet": 3718, " ple": 3719, " disappeared": 3720, "ceed": 3721, " strawberry": 3722, " once": 3723, " Mum": 3724, " kay": 3725, " brothers": 3726, " itch": 3727, " pirate": 3728, " football": 3729, " split": 3730, "kele": 3731, "keleton": 3732, " hipp": 3733, " aut": 3734, " led": 3735, "uring": 3736, "ctopus": 3737, " driving": 3738, " cable": 3739, " support": 3740, " calling": 3741, " cupboard": 3742, "aky": 3743, "ushed": 3744, " wishes": 3745, " complet": 3746, " tripped": 3747, " root": 3748, " kayak": 3749, " octopus": 3750, "obile": 3751, " added": 3752, " edge": 3753, " mild": 3754, "stic": 3755, " determined": 3756, " succeed": 3757, "?\".": 3758, " reading": 3759, "omobile": 3760, " coal": 3761, "Well": 3762, "gl": 3763, "utes": 3764, "par": 3765, " suggest": 3766, " stack": 3767, " thunder": 3768, " kindness": 3769, " automobile": 3770, " complain": 3771, " enthusiastic": 3772, " sneeze": 3773, " cartoon": 3774, " yoga": 3775, " Little": 3776, " growl": 3777, "htub": 3778, " flea": 3779, "la": 3780, " meadow": 3781, " drawer": 3782, " bathtub": 3783, " ribb": 3784, "ophone": 3785, " means": 3786, " hall": 3787, " golf": 3788, " skeleton": 3789, " math": 3790, " veil": 3791, " hunter": 3792, " gor": 3793, " flame": 3794, " poke": 3795, " video": 3796, " chess": 3797, " troph": 3798, " cups": 3799, " glowing": 3800, " matt": 3801, " oyster": 3802, "work": 3803, " penny": 3804, " spear": 3805, " itself": 3806, " drawings": 3807, " hippo": 3808, " repair": 3809, " switch": 3810, "glasses": 3811, " sunglasses": 3812, " teleph": 3813, " costume": 3814, " dess": 3815, " zipp": 3816, ",\u201d": 3817, " repe": 3818, " muffin": 3819, " arg": 3820, " pastry": 3821, " pun": 3822, " rolling": 3823, " minutes": 3824, " packed": 3825, " makeup": 3826, "iron": 3827, "ric": 3828, " People": 3829, " waffle": 3830, "case": 3831, " handle": 3832, " pear": 3833, " maze": 3834, " telephone": 3835, " pine": 3836, "ait": 3837, " gear": 3838, " hedge": 3839, " mattress": 3840, " package": 3841, "aving": 3842, " Miss": 3843, " shocked": 3844, "ines": 3845, " trophy": 3846, " powder": 3847, " knight": 3848, " cob": 3849, " missile": 3850, " managed": 3851, " frame": 3852, " encou": 3853, " wife": 3854, " ok": 3855, " separ": 3856, "web": 3857, " stairs": 3858, " rot": 3859, " camp": 3860, "time": 3861, "urch": 3862, "rophone": 3863, " magaz": 3864, " strugg": 3865, " colour": 3866, " grapes": 3867, " file": 3868, "head": 3869, " Tina": 3870, " basketball": 3871, "Bye": 3872, "old": 3873, "per": 3874, " cobweb": 3875, "Re": 3876, "Jimmy": 3877, " Tweet": 3878, "See": 3879, " perm": 3880, " wool": 3881, " Dan": 3882, " microphone": 3883, "esday": 3884, " eye": 3885, " leash": 3886, " gasp": 3887, "iew": 3888, "keep": 3889, " weep": 3890, " barking": 3891, "ature": 3892, " safely": 3893, " tear": 3894, " view": 3895, " slides": 3896, "offe": 3897, " steps": 3898, "istol": 3899, "offee": 3900, " bananas": 3901, " staff": 3902, " spirit": 3903, " task": 3904, " giggled": 3905, " hoc": 3906, " hockey": 3907, " vend": 3908, " those": 3909, " gorilla": 3910, "Jill": 3911, " cooler": 3912, " Rose": 3913, "was": 3914, "cing": 3915, " early": 3916, " marched": 3917, "rosc": 3918, " mint": 3919, " Look": 3920, "washer": 3921, " flour": 3922, " hotel": 3923, "hic": 3924, " sailor": 3925, " dessert": 3926, " photo": 3927, "roscope": 3928, " vehic": 3929, "ilot": 3930, " oft": 3931, " often": 3932, " church": 3933, " Pete": 3934, " cooking": 3935, " remain": 3936, " five": 3937, " sausage": 3938, "otter": 3939, " ten": 3940, " tools": 3941, " medal": 3942, " either": 3943, " fireman": 3944, "chor": 3945, " grandpa": 3946, " otter": 3947, " baseball": 3948, " pretending": 3949, " pistol": 3950, " dishwasher": 3951, " rever": 3952, " organize": 3953, " pee": 3954, " vendor": 3955, " knock": 3956, " sight": 3957, " grill": 3958, " temple": 3959, " battery": 3960, " thinking": 3961, " opens": 3962, " ow": 3963, " realised": 3964, " iron": 3965, " laser": 3966, " sne": 3967, " sandbox": 3968, " oil": 3969, " patch": 3970, " hours": 3971, " rise": 3972, " whip": 3973, "'d": 3974, "ctory": 3975, " Give": 3976, " anchor": 3977, " trash": 3978, "ense": 3979, " short": 3980, "ney": 3981, " Betty": 3982, " rhin": 3983, " factory": 3984, "seum": 3985, " may": 3986, " ward": 3987, "ately": 3988, " cardboard": 3989, "ugged": 3990, " lotion": 3991, "Al": 3992, " message": 3993, " valu": 3994, " wardrobe": 3995, " cell": 3996, " museum": 3997, "apers": 3998, " ur": 3999, "ination": 4000, " hanging": 4001, "ucet": 4002, "ailable": 4003, " Sunny": 4004, " Zoom": 4005, " hive": 4006, "eer": 4007, " towers": 4008, "keeper": 4009, " blackboard": 4010, " mem": 4011, " excitement": 4012, " coffee": 4013, " pilot": 4014, "ready": 4015, "Fluffy": 4016, " napkin": 4017, " penguin": 4018, "ron": 4019, " check": 4020, " reward": 4021, "loo": 4022, " quit": 4023, " Pippin": 4024, " cane": 4025, " picking": 4026, "place": 4027, " Snow": 4028, "azor": 4029, " faucet": 4030, " ig": 4031, " passport": 4032, " Rob": 4033, " stumbled": 4034, " dreamed": 4035, " igloo": 4036, " Bessie": 4037, "aroo": 4038, "angaroo": 4039, " freez": 4040, " juicy": 4041, " allowed": 4042, "play": 4043, " holds": 4044, " already": 4045, " available": 4046, " sett": 4047, " bathe": 4048, " tornado": 4049, "imney": 4050, " fingers": 4051, "htray": 4052, " hanger": 4053, " newsp": 4054, " size": 4055, " laund": 4056, " lend": 4057, " chimney": 4058, " laundry": 4059, " oak": 4060, " fisher": 4061, " kangaroo": 4062, " men": 4063, " Everywhere": 4064, " telling": 4065, "Em": 4066, " novel": 4067, "body": 4068, " mummy": 4069, " pal": 4070, " mule": 4071, " cherries": 4072, " notice": 4073, " practice": 4074, " spilled": 4075, " reind": 4076, " complete": 4077, " enjoying": 4078, " microscope": 4079, "arian": 4080, "ampoo": 4081, " gain": 4082, " sub": 4083, " fireplace": 4084, " imagine": 4085, "anda": 4086, " display": 4087, "ocer": 4088, " Zip": 4089, " fastest": 4090, " magazine": 4091, " hurry": 4092, " cabinet": 4093, " shrink": 4094, " ashtray": 4095, "Wait": 4096, " cows": 4097, " Spike": 4098, "Joe": 4099, "gen": 4100, " palace": 4101, " improve": 4102, "aches": 4103, " rake": 4104, " reindeer": 4105, " falling": 4106, "oceros": 4107, " skirt": 4108, "ured": 4109, " discovered": 4110, " stared": 4111, " roared": 4112, "aid": 4113, " silver": 4114, " tub": 4115, " trail": 4116, "Is": 4117, " miner": 4118, "come": 4119, " bill": 4120, "iction": 4121, " fog": 4122, " ax": 4123, "stairs": 4124, "ilet": 4125, " hut": 4126, " happier": 4127, " taller": 4128, "ictionary": 4129, " oats": 4130, " fisherman": 4131, " object": 4132, " por": 4133, "vision": 4134, " valuable": 4135, " shampoo": 4136, " holes": 4137, " offered": 4138, " boots": 4139, " rhinoceros": 4140, " names": 4141, " toilet": 4142, " climbing": 4143, " blin": 4144, "vice": 4145, "Ow": 4146, " stretched": 4147, "iest": 4148, " zipper": 4149, " listening": 4150, " sym": 4151, " bathrobe": 4152, "alend": 4153, " jewelry": 4154, " Here": 4155, " jokes": 4156, " television": 4157, " prov": 4158, " calend": 4159, " stops": 4160, " axe": 4161, " jumps": 4162, " fuel": 4163, "cu": 4164, " sparkly": 4165, " perfume": 4166, " Susie": 4167, " bury": 4168, "bol": 4169, "Mummy": 4170, "lu": 4171, " pressed": 4172, " Kim": 4173, "reek": 4174, " rece": 4175, " Toby": 4176, " neat": 4177, " creek": 4178, " popped": 4179, " opera": 4180, " calendar": 4181, " snap": 4182, " gasped": 4183, " attach": 4184, " symbol": 4185, " tuna": 4186, " Mar": 4187, " papers": 4188, "Mr": 4189, " unpack": 4190, " resist": 4191, " dictionary": 4192, " subway": 4193, " letters": 4194, " freezer": 4195, " chose": 4196, " pinch": 4197, "zag": 4198, " spoke": 4199, " anyway": 4200, " super": 4201, " porch": 4202, " helper": 4203, "affe": 4204, " bikes": 4205, " lie": 4206, "arry": 4207, "iches": 4208, " tightly": 4209, " comfort": 4210, " shaking": 4211, " bookcase": 4212, " son": 4213, " razor": 4214, "aurant": 4215, " sandwiches": 4216, " Are": 4217, " ext": 4218, "igzag": 4219, " weigh": 4220, " against": 4221, " stickers": 4222, " restaurant": 4223, " newspaper": 4224, " blouse": 4225, "te": 4226, " vehicle": 4227, " swinging": 4228, " ped": 4229, " disag": 4230, " nature": 4231, " squirrels": 4232, "ival": 4233, " belongs": 4234, " swamp": 4235, " butterflies": 4236, " gym": 4237, "del": 4238, " inclu": 4239, " growing": 4240, " buckle": 4241, "omed": 4242, " stirred": 4243, " mustache": 4244, " billboard": 4245, "xy": 4246, " beep": 4247, " alarm": 4248, " lightning": 4249, " lip": 4250, " fest": 4251, " hung": 4252, "utor": 4253, " distance": 4254, "ogn": 4255, " cards": 4256, " obser": 4257, " agree": 4258, "Little": 4259, " tease": 4260, " recogn": 4261, " rubber": 4262, "ik": 4263, " hate": 4264, " sof": 4265, "fast": 4266, "ef": 4267, "Ouch": 4268, " doesn": 4269, " musician": 4270, " advice": 4271, " beef": 4272, " serve": 4273, "aspoon": 4274, " sweetie": 4275, " model": 4276, "lter": 4277, " crib": 4278, " blueberries": 4279, " sofa": 4280, " circles": 4281, " breakfast": 4282, " tutor": 4283, "asis": 4284, " bookshe": 4285, " giraffe": 4286, "stri": 4287, " festival": 4288, " separate": 4289, " shelter": 4290, " gas": 4291, " airport": 4292, " olive": 4293, " rail": 4294, " bookshelf": 4295, " frogs": 4296, " teaspoon": 4297, " reverse": 4298, " junk": 4299, " riding": 4300, " pleased": 4301, " drain": 4302, " Mrs": 4303, " wipe": 4304, " oasis": 4305, " soil": 4306, " ahead": 4307, " rescue": 4308, " leaving": 4309, "ummer": 4310, " painter": 4311, " squeeze": 4312, " chance": 4313, " poked": 4314, " knob": 4315, " Teddy": 4316, " peeked": 4317, " lumber": 4318, " trains": 4319, " extra": 4320, " slipp": 4321, " quiz": 4322, " refused": 4323, "res": 4324, "rmomet": 4325, " page": 4326, " rules": 4327, " happens": 4328, " sounded": 4329, " ins": 4330, " point": 4331, " winter": 4332, " dancer": 4333, " Grandpa": 4334, " birdc": 4335, " disappear": 4336, "rmometer": 4337, " Dolly": 4338, " weather": 4339, " waste": 4340, " lic": 4341, " birdcage": 4342, " theater": 4343, " reef": 4344, " carrying": 4345, "Daisy": 4346, " invite": 4347, "iform": 4348, " goal": 4349, " ostri": 4350, " uniform": 4351, " swung": 4352, " trade": 4353, " cliff": 4354, "ience": 4355, " lawn": 4356, "ola": 4357, " leaned": 4358, " Pandy": 4359, "angu": 4360, " accept": 4361, " admire": 4362, " fort": 4363, " accidentally": 4364, " pastel": 4365, "bbles": 4366, " stom": 4367, " langu": 4368, " twir": 4369, " suff": 4370, " panda": 4371, "riger": 4372, " bet": 4373, "rigerator": 4374, " peek": 4375, "render": 4376, " blinked": 4377, " starts": 4378, "na": 4379, " refrigerator": 4380, " anywhere": 4381, "!\".": 4382, " imagined": 4383, " dreaming": 4384, " remove": 4385, "night": 4386, " shower": 4387, " Lee": 4388, " classroom": 4389, " ceiling": 4390, " caring": 4391, "ium": 4392, " grand": 4393, " missing": 4394, "aked": 4395, " license": 4396, " stable": 4397, " thermometer": 4398, " monkeys": 4399, "astic": 4400, " warned": 4401, " summer": 4402, " Where": 4403, " above": 4404, " brick": 4405, "ected": 4406, " cudd": 4407, " problems": 4408, "amber": 4409, " chasing": 4410, " label": 4411, " apron": 4412, " sent": 4413, "urnit": 4414, "urniture": 4415, " lawy": 4416, " lid": 4417, "uggage": 4418, "med": 4419, " respectful": 4420, " furniture": 4421, " frowned": 4422, " zoomed": 4423, " pages": 4424, " prevent": 4425, " bent": 4426, " luggage": 4427, " mistakes": 4428, " sunset": 4429, " ostrich": 4430, "ison": 4431, " suggested": 4432, " windows": 4433, "ations": 4434, " jail": 4435, "low": 4436, " wine": 4437, " ribbon": 4438, " older": 4439, " shouts": 4440, " grape": 4441, " Cl": 4442, " wigg": 4443, " Co": 4444, "ucture": 4445, " structure": 4446, " spoil": 4447, "eor": 4448, " fixing": 4449, " chamber": 4450, " lions": 4451, " delay": 4452, " finds": 4453, " handed": 4454, " searching": 4455, " unite": 4456, "Did": 4457, " fought": 4458, " lawyer": 4459, " brightly": 4460, " pair": 4461, " meeting": 4462, " choice": 4463, " surprises": 4464, " Ellie": 4465, " art": 4466, " Un": 4467, "Ch": 4468, " favour": 4469, "eterin": 4470, "eterinarian": 4471, "adium": 4472, " stadium": 4473, " proudly": 4474, "iki": 4475, " veterinarian": 4476, "vet": 4477, "rod": 4478, " chairs": 4479, " slip": 4480, " Spe": 4481, " sadly": 4482, " Bow": 4483, " incre": 4484, " Carl": 4485, " puddles": 4486, " berry": 4487, " introd": 4488, " ranch": 4489, "veal": 4490, " Boun": 4491, " argue": 4492, " V": 4493, " admired": 4494, " cur": 4495, " favourite": 4496, "Your": 4497, " inf": 4498, " excitedly": 4499, " rac": 4500, " grabs": 4501, "mend": 4502, " steam": 4503, "thank": 4504, " human": 4505, "eorge": 4506, "sity": 4507, " Hel": 4508, " pushing": 4509, " saving": 4510, " Red": 4511, " reveal": 4512, "ommend": 4513, "alley": 4514, " yield": 4515, "olog": 4516, " mall": 4517, " reminded": 4518, " recommend": 4519, " leak": 4520, " surrender": 4521, " harb": 4522, " appl": 4523, "cuss": 4524, "aul": 4525, " weap": 4526, " regret": 4527, " putting": 4528, " valley": 4529, " mineral": 4530, " evening": 4531, "elcome": 4532, " matches": 4533, " forgave": 4534, " sneezed": 4535, " pup": 4536, " aw": 4537, " rushed": 4538, "ecause": 4539, " spade": 4540, " apolog": 4541, " plates": 4542, " discuss": 4543, " prepare": 4544, " harbor": 4545, " ignore": 4546, " Big": 4547, " country": 4548, " language": 4549, " Buzzy": 4550, " pulls": 4551, " plastic": 4552, " supply": 4553, " float": 4554, " sniffed": 4555, " Jazz": 4556, " replace": 4557, " meas": 4558, " shovel": 4559, " Bill": 4560, " raise": 4561, " Next": 4562, " fre": 4563, " cared": 4564, " socks": 4565, " strip": 4566, " doors": 4567, " mystery": 4568, " lives": 4569, " restore": 4570, " sticker": 4571, " sudden": 4572, "ari": 4573, " kinds": 4574, " slippery": 4575, "ero": 4576, " Ow": 4577, " player": 4578, " panic": 4579, "ricane": 4580, " hoping": 4581, "iday": 4582, " shone": 4583, "lex": 4584, "hero": 4585, " beg": 4586, " Mike": 4587, " Binky": 4588, " superhero": 4589, " delighted": 4590, " gro": 4591, "Yay": 4592, "aud": 4593, "chan": 4594, " chickens": 4595, " shoulder": 4596, " rained": 4597, " colourful": 4598, " breat": 4599, " Alice": 4600, " claw": 4601, " Bubbles": 4602, "Yuck": 4603, " softly": 4604, "rise": 4605, " port": 4606, "Grandma": 4607, " hol": 4608, "icer": 4609, " holiday": 4610, "oof": 4611, " \\xe2\\x80": 4612, " barks": 4613, "ason": 4614, " throwing": 4615, " planes": 4616, "Mary": 4617, " bend": 4618, " Freddy": 4619, " shakes": 4620, " infant": 4621, " ended": 4622, " shivering": 4623, " kneel": 4624, " sunrise": 4625, " pushes": 4626, " Olive": 4627, " thanks": 4628, " fresh": 4629, " suffer": 4630, " points": 4631, "imed": 4632, "wards": 4633, " Pat": 4634, " tip": 4635, " Speedy": 4636, " freeze": 4637, " keeping": 4638, " Would": 4639, " giggle": 4640, " copper": 4641, " smells": 4642, " dear": 4643, " enter": 4644, " provide": 4645, "cast": 4646, "chanic": 4647, " dishes": 4648, " End": 4649, "cond": 4650, " unh": 4651, "Next": 4652, " applaud": 4653, " heads": 4654, " hurricane": 4655, " cherry": 4656, " thumb": 4657, " menu": 4658, " meowed": 4659, " mass": 4660, " second": 4661, " brighter": 4662, "ince": 4663, " sandcast": 4664, " mechanic": 4665, " wre": 4666, " sprayed": 4667, " letting": 4668, " event": 4669, " weapon": 4670, " laught": 4671, " x": 4672, " laughter": 4673, " clapping": 4674, " feelings": 4675, "Will": 4676, "icky": 4677, " splashing": 4678, "ement": 4679, " Or": 4680, "acked": 4681, " castles": 4682, " Fl": 4683, "cer": 4684, " score": 4685, "apping": 4686, " universe": 4687, " navy": 4688, " dem": 4689, " sticky": 4690, "ophie": 4691, " rooms": 4692, " row": 4693, " flies": 4694, "igi": 4695, " Dave": 4696, " unhappy": 4697, " greedy": 4698, " dare": 4699, " alive": 4700, " breaks": 4701, " ener": 4702, " courage": 4703, " invit": 4704, "Ready": 4705, " repeat": 4706, " demand": 4707, " trusted": 4708, "Lisa": 4709, " somewhere": 4710, "arlie": 4711, " prune": 4712, "bles": 4713, " wreck": 4714, " Y": 4715, " skill": 4716, " examine": 4717, " parts": 4718, "year": 4719, " eaten": 4720, "oe": 4721, "All": 4722, "erc": 4723, "enry": 4724, " mention": 4725, " raining": 4726, " Help": 4727, "Buddy": 4728, " throws": 4729, " jogged": 4730, "quest": 4731, " starting": 4732, " rush": 4733, " poison": 4734, " pirates": 4735, "heart": 4736, " vac": 4737, " content": 4738, "Emma": 4739, " Kiki": 4740, " sigh": 4741, " flapped": 4742, " drops": 4743, " chirp": 4744, " sport": 4745, "Qu": 4746, " sparkled": 4747, " Zoomy": 4748, " given": 4749, " streng": 4750, " steel": 4751, "Ann": 4752, " bumped": 4753, " yawned": 4754, " stud": 4755, " request": 4756, " scold": 4757, " myself": 4758, " strength": 4759, " shrugged": 4760, "Mark": 4761, " coats": 4762, " punish": 4763, " equ": 4764, " snugg": 4765, " university": 4766, " paid": 4767, " Johnny": 4768, " pigs": 4769, " scratch": 4770, " toe": 4771, " exerc": 4772, " tracks": 4773, " upstairs": 4774, " prayed": 4775, " crossed": 4776, " squeezed": 4777, " impressed": 4778, " flood": 4779, " bouncing": 4780, " Ru": 4781, "Alice": 4782, " rabbits": 4783, "ges": 4784, " badly": 4785, "..": 4786, " warn": 4787, " leather": 4788, " expect": 4789, " news": 4790, " tide": 4791, " Ted": 4792, " minute": 4793, " bears": 4794, " claws": 4795, " buzz": 4796, " sweetheart": 4797, " Sm": 4798, "yth": 4799, " nation": 4800, "Sh": 4801, "ythm": 4802, " vacation": 4803, " hist": 4804, " heat": 4805, " strawberries": 4806, " observe": 4807, " explored": 4808, " settle": 4809, " sandcastle": 4810, " yawn": 4811, " history": 4812, " Lilly": 4813, " Lola": 4814, "mare": 4815, " Mummy": 4816, " Sque": 4817, "ially": 4818, "inking": 4819, " believed": 4820, " horses": 4821, "Daddy": 4822, " Hoppy": 4823, " checked": 4824, " Mandy": 4825, " tour": 4826, " network": 4827, " cheek": 4828, " Under": 4829, " offer": 4830, " easily": 4831, " placed": 4832, "spec": 4833, " spots": 4834, " snowball": 4835, "ween": 4836, "men": 4837, " energy": 4838, " Bee": 4839, " imagination": 4840, " blueberry": 4841, "otten": 4842, " between": 4843, "specially": 4844, " Gigi": 4845, "izes": 4846, " daisy": 4847, " waving": 4848, "reeze": 4849, "reat": 4850, " vroom": 4851, " soak": 4852, " safari": 4853, " rhythm": 4854, " massage": 4855, " stomach": 4856, " baking": 4857, "quake": 4858, " nightmare": 4859, " insisted": 4860, " blowing": 4861, " entered": 4862, "Before": 4863, " stair": 4864, " palm": 4865, " beauty": 4866, " twisted": 4867, " bother": 4868, " writing": 4869, " scoop": 4870, " prunes": 4871, " brain": 4872, " ing": 4873, "ipment": 4874, " poppy": 4875, " hills": 4876, "noon": 4877, " afternoon": 4878, " equipment": 4879, " especially": 4880, "hest": 4881, " sir": 4882, " pad": 4883, " See": 4884, " ingred": 4885, " Fox": 4886, " calls": 4887, " ingredient": 4888, " earthquake": 4889, " ignored": 4890, " Snowy": 4891, " burned": 4892, " nobody": 4893, "mble": 4894, " sty": 4895, "apa": 4896, " sew": 4897, " tug": 4898, "isty": 4899, "xygen": 4900, " hearts": 4901, " lear": 4902, " learnt": 4903, " lemonade": 4904, " increase": 4905, "illie": 4906, "Jenny": 4907, " gaz": 4908, " backpack": 4909, " mailman": 4910, " whistled": 4911, " pedal": 4912, " Sk": 4913, "Fred": 4914, " shopkeeper": 4915, "ffic": 4916, " permit": 4917, " tremble": 4918, " yucky": 4919, "anges": 4920, " moves": 4921, " introduce": 4922, " lemons": 4923, " crash": 4924, " beans": 4925, " floated": 4926, "edn": 4927, "ednesday": 4928, "ittens": 4929, "Welcome": 4930, " planned": 4931, " strike": 4932, " traffic": 4933, " include": 4934, " slap": 4935, " racing": 4936, " Lucky": 4937, "resses": 4938, " wisdom": 4939, " pur": 4940, " wags": 4941, " Finny": 4942, "laimed": 4943, " George": 4944, " luck": 4945, " following": 4946, " price": 4947, "ecting": 4948, " mama": 4949, " pitch": 4950, " below": 4951, " Elly": 4952, " Have": 4953, "Le": 4954, " weight": 4955, " exclaimed": 4956, "house": 4957, " buried": 4958, " follows": 4959, " comf": 4960, " recognize": 4961, " ingredients": 4962, " furt": 4963, "tain": 4964, " candles": 4965, "Mimi": 4966, " marbles": 4967, "riage": 4968, "unday": 4969, "emember": 4970, "eration": 4971, " Alex": 4972, " apart": 4973, " Wednesday": 4974, " growled": 4975, "uct": 4976, " Su": 4977, "ores": 4978, " conf": 4979, " teaching": 4980, " hopes": 4981, " folded": 4982, " closely": 4983, " Finn": 4984, " Who": 4985, " heel": 4986, " Sunday": 4987, " encourage": 4988, " Paul": 4989, " Owl": 4990, " zigzag": 4991, " pulling": 4992, " digg": 4993, " bouncy": 4994, " further": 4995, " chewed": 4996, " digging": 4997, " winning": 4998, "Woof": 4999, "With": 5000, " dresses": 5001, " image": 5002, "rec": 5003, "cery": 5004, " shouting": 5005, " grocery": 5006, " twisty": 5007, " peanuts": 5008, " puzzles": 5009, "bbing": 5010, " Dog": 5011, "look": 5012, " scrat": 5013, " chores": 5014, " whisper": 5015, " Is": 5016, " spike": 5017, " Froggy": 5018, " cape": 5019, " snail": 5020, " acorns": 5021, " worms": 5022, "hood": 5023, " deeper": 5024, " urge": 5025, "ifi": 5026, " exper": 5027, " Whenever": 5028, " Tilly": 5029, " Squeaky": 5030, " Grace": 5031, " planted": 5032, " attention": 5033, "ecture": 5034, " exercise": 5035, " Danny": 5036, " cub": 5037, " operation": 5038, " underground": 5039, " hon": 5040, " agre": 5041, " quite": 5042, " creatures": 5043, " simp": 5044, "Everyone": 5045, " struggle": 5046, "oral": 5047, " Mittens": 5048, "ddy": 5049, " blood": 5050, " lecture": 5051, " washing": 5052, " hurting": 5053, " vanished": 5054, " gifts": 5055, " dressed": 5056, " invitation": 5057, " solved": 5058, " licks": 5059, " snuggled": 5060, " Sharing": 5061, "ippy": 5062, " ble": 5063, " marriage": 5064, " quietly": 5065, "gie": 5066, " warning": 5067, " jazz": 5068, " breathe": 5069, "reci": 5070, " elephants": 5071, " sizes": 5072, " dried": 5073, " fallen": 5074, " landscape": 5075, "ories": 5076, " sprink": 5077, " neighbour": 5078, " mice": 5079, "uesday": 5080, " appreci": 5081, " Sophie": 5082, " Joey": 5083, " \u2013": 5084, " eagerly": 5085, " sailing": 5086, " Coco": 5087, " paused": 5088, "ips": 5089, " counter": 5090, " Good": 5091, " Bounce": 5092, " Penny": 5093, " worth": 5094, "looking": 5095, " Rock": 5096, " oxygen": 5097, "Because": 5098, " release": 5099, " shined": 5100, "Not": 5101, "pted": 5102, " reaches": 5103, " balan": 5104, " Zara": 5105, "isses": 5106, " oh": 5107, " kisses": 5108, " style": 5109, " bricks": 5110, " plays": 5111, " glo": 5112, " Tuesday": 5113, " ideas": 5114, "sed": 5115, " inst": 5116, " wob": 5117, " fireworks": 5118, "Bella": 5119, "iggly": 5120, "ucked": 5121, " seeing": 5122, " flap": 5123, " accepted": 5124, "right": 5125, " Pip": 5126, "Today": 5127, " blink": 5128, "mm": 5129, " Ros": 5130, " tremb": 5131, "These": 5132, " muddy": 5133, " memory": 5134, " married": 5135, " tomatoes": 5136, " exit": 5137, " Annie": 5138, "ops": 5139, " wagging": 5140, " fash": 5141, "Remy": 5142, " Charlie": 5143, " wandered": 5144, "unately": 5145, "ipping": 5146, " gloves": 5147, " captain": 5148, " pillows": 5149, " receive": 5150, " resp": 5151, " Pinky": 5152, "raged": 5153, " during": 5154, " Everything": 5155, "etch": 5156, " web": 5157, " petals": 5158, " watered": 5159, " Eventually": 5160, "ived": 5161, " manage": 5162, " pinched": 5163, " brings": 5164, " vanish": 5165, " cakes": 5166, " fashion": 5167, " Bluey": 5168, " printer": 5169, " destroyed": 5170, " treasures": 5171, "nce": 5172, " allow": 5173, "ups": 5174, " hadn": 5175, " worse": 5176, " Fifi": 5177, "Surpr": 5178, " vel": 5179, " hits": 5180, " bur": 5181, "xu": 5182, " velvet": 5183, " appear": 5184, " disagree": 5185, "do": 5186, " catching": 5187, " scattered": 5188, " Ro": 5189, " memories": 5190, " sorts": 5191, " Papa": 5192, " hers": 5193, " scolded": 5194, " signs": 5195, " pears": 5196, " oranges": 5197, " bones": 5198, " rang": 5199, " snapped": 5200, " sits": 5201, " seats": 5202, "uxu": 5203, " gazed": 5204, " raised": 5205, "Bl": 5206, " si": 5207, " Maria": 5208, " zipped": 5209, " pies": 5210, " prints": 5211, " shot": 5212, " sliding": 5213, " God": 5214, " fro": 5215, " easier": 5216, "ssible": 5217, " skills": 5218, " climbs": 5219, " twirled": 5220, "ccer": 5221, " blankets": 5222, " forgotten": 5223, " baked": 5224, "ester": 5225, "Yum": 5226, "esterday": 5227, " difference": 5228, "orted": 5229, " luxu": 5230, " golden": 5231, "ising": 5232, " kitty": 5233, " Tw": 5234, " cutting": 5235, " season": 5236, "aggie": 5237, " nowhere": 5238, " crow": 5239, "ah": 5240, " soccer": 5241, " dared": 5242, " bites": 5243, " Henry": 5244, " Harry": 5245, "anny": 5246, " lung": 5247, " celebrated": 5248, "choo": 5249, "chie": 5250, " straight": 5251, " unlocked": 5252, "sters": 5253, " sorting": 5254, " collected": 5255, " bleed": 5256, "aped": 5257, "ding": 5258, " welcomed": 5259, " visited": 5260, " spoons": 5261, " ours": 5262, " stitch": 5263, " jogging": 5264, "Surprise": 5265, "medi": 5266, " emer": 5267, " Spark": 5268, "mediately": 5269, " isn": 5270, " tong": 5271, " trave": 5272, " winner": 5273, "umble": 5274, " since": 5275, " ruin": 5276, " prett": 5277, "Ok": 5278, "Moral": 5279, " Tony": 5280, " attached": 5281, " weeping": 5282, " marching": 5283, " luxury": 5284, " simple": 5285, " Each": 5286, " shouldn": 5287, " guessed": 5288, " zero": 5289, " created": 5290, " stuffed": 5291, " pets": 5292, "ction": 5293, " waist": 5294, " famil": 5295, " urged": 5296, " bowed": 5297, " selling": 5298, " floating": 5299, "rr": 5300, " Smith": 5301, " bye": 5302, " King": 5303, " vict": 5304, " kingdom": 5305, " olives": 5306, " kicking": 5307, " Wiggly": 5308, " punished": 5309, " Liz": 5310, " Baby": 5311, "sit": 5312, " toes": 5313, " grant": 5314, " muscles": 5315, " jewels": 5316, " Rosie": 5317, " beds": 5318, " melted": 5319, "Goodbye": 5320, " slice": 5321, " grin": 5322, " understanding": 5323, " collection": 5324, " tore": 5325, " measured": 5326, "aker": 5327, " cras": 5328, "omeday": 5329, "iers": 5330, " trapped": 5331, " lined": 5332, "'ve": 5333, " acted": 5334, "fortunately": 5335, " encouraged": 5336, "va": 5337, " Sandy": 5338, " received": 5339, " waffles": 5340, " Before": 5341, " Wally": 5342, " west": 5343, " meow": 5344, "ents": 5345, " patterns": 5346, "rin": 5347, "ino": 5348, " brus": 5349, "eath": 5350, " mouths": 5351, "kins": 5352, " bang": 5353, "ring": 5354, " Kate": 5355, "Meow": 5356, " peaches": 5357, " breeze": 5358, "aded": 5359, "une": 5360, " printed": 5361, " soldiers": 5362, " someday": 5363, " potatoes": 5364, " pupil": 5365, "umes": 5366, " Millie": 5367, " drinks": 5368, " shed": 5369, " experience": 5370, " Tuna": 5371, " presents": 5372, " firef": 5373, " Ruby": 5374, " surround": 5375, " none": 5376, "osed": 5377, " voices": 5378, "eep": 5379, " drinking": 5380, " Uncle": 5381, "ishing": 5382, " relaxed": 5383, " victory": 5384, "cus": 5385, " paints": 5386, " breaking": 5387, "eve": 5388, " hurried": 5389, "ission": 5390, " twink": 5391, " tongue": 5392, " costumes": 5393, " flat": 5394, " mentioned": 5395, " begged": 5396, " teasing": 5397, " whistling": 5398, " fetch": 5399, " permission": 5400, " sip": 5401, " disagreed": 5402, " pearl": 5403, " six": 5404, "akes": 5405, " stro": 5406, "vest": 5407, " These": 5408, " esc": 5409, " appro": 5410, " skipping": 5411, " fishing": 5412, " May": 5413, "Leo": 5414, " highest": 5415, " pra": 5416, " watches": 5417, " sorted": 5418, " ringing": 5419, "ship": 5420, " tonight": 5421, " Bo": 5422, " opin": 5423, " lets": 5424, "icing": 5425, " Qu": 5426, " perfectly": 5427, " shadows": 5428, " immediately": 5429, " herbs": 5430, " warmth": 5431, " spit": 5432, " remained": 5433, "ther": 5434, " Its": 5435, "walk": 5436, "Bobby": 5437, "irring": 5438, "Jen": 5439, " sneak": 5440, " lips": 5441, " kneeled": 5442, "Blue": 5443, " contest": 5444, " Che": 5445, "utter": 5446, " cartoons": 5447, " sidewalk": 5448, " colours": 5449, " stamps": 5450, " ago": 5451, "Ha": 5452, " Toto": 5453, " Boo": 5454, " Follow": 5455, " east": 5456, " headed": 5457, "oved": 5458, "\",": 5459, " strang": 5460, " ladyb": 5461, " fed": 5462, " supposed": 5463, " roots": 5464, " lick": 5465, " crunch": 5466, " mixing": 5467, " works": 5468, " decorations": 5469, " melting": 5470, " known": 5471, " emergen": 5472, "Mandy": 5473, " rested": 5474, " Ab": 5475, " lines": 5476, " Suzy": 5477, " lily": 5478, " Jul": 5479, " instr": 5480, " laid": 5481, " Gr": 5482, " succeeded": 5483, " cones": 5484, " wiggle": 5485, "ety": 5486, "sing": 5487, " shock": 5488, " setting": 5489, " Slow": 5490, " studied": 5491, " strangers": 5492, " Rocky": 5493, "Really": 5494, " twigs": 5495, " brid": 5496, " theirs": 5497, " Dr": 5498, " girls": 5499, "boo": 5500, "!\",": 5501, " screams": 5502, " lands": 5503, " ordered": 5504, " stirring": 5505, " moments": 5506, " fields": 5507, " alright": 5508, " stealing": 5509, "ded": 5510, "Andy": 5511, " rul": 5512, " bravely": 5513, "avid": 5514, " Both": 5515, " mister": 5516, "!'": 5517, " invest": 5518, " scratched": 5519, " playtime": 5520, " ripped": 5521, " investig": 5522, " tucked": 5523, " resting": 5524, " burning": 5525, "ishes": 5526, " Clara": 5527, " Chicky": 5528, " bridges": 5529, " text": 5530, " officer": 5531, "please": 5532, "Sammy": 5533, "Bird": 5534, "abies": 5535, " settled": 5536, " matched": 5537, " achie": 5538, " texture": 5539, "Happy": 5540, " waits": 5541, " turning": 5542, " Sky": 5543, "Peter": 5544, "ored": 5545, " trembling": 5546, "isten": 5547, " nails": 5548, "atie": 5549, " muffins": 5550, " Someone": 5551, "ids": 5552, " escaped": 5553, " James": 5554, " piles": 5555, " investigate": 5556, "osity": 5557, " broom": 5558, " ladybug": 5559, " sore": 5560, " Pepper": 5561, " appreciate": 5562, " admir": 5563, " threat": 5564, " babies": 5565, " silence": 5566, " sisters": 5567, " emergency": 5568, " area": 5569, "ides": 5570, " dads": 5571, " answers": 5572, " pupp": 5573, " keys": 5574, " chewing": 5575, " slapped": 5576, " wiz": 5577, " importance": 5578, "Boo": 5579, " served": 5580, " Hop": 5581, " safety": 5582, "izing": 5583, "Bu": 5584, "Would": 5585, " sparkle": 5586, " touching": 5587, " Later": 5588, " soared": 5589, "igail": 5590, " sings": 5591, " hen": 5592, "allen": 5593, "Ella": 5594, "bers": 5595, "antly": 5596, "Momo": 5597, " Dino": 5598, " keeps": 5599, " amazement": 5600, " challen": 5601, " twin": 5602, " hesit": 5603, " revealed": 5604, "anna": 5605, "achel": 5606, " item": 5607, " dire": 5608, " soaked": 5609, "zing": 5610, " writ": 5611, " foods": 5612, " rides": 5613, " dinosaurs": 5614, " recorded": 5615, " tickle": 5616, " inch": 5617, " Zigzag": 5618, " Me": 5619, " wizard": 5620, " vet": 5621, " trips": 5622, " glowed": 5623, " An": 5624, " Frog": 5625, "Mmm": 5626, " hi": 5627, " beamed": 5628, " quack": 5629, " curled": 5630, " hated": 5631, " wink": 5632, " shopping": 5633, " eats": 5634, "Eventually": 5635, " Bug": 5636, " praised": 5637, " wooden": 5638, " bringing": 5639, " mittens": 5640, " studying": 5641, " guy": 5642, " brushes": 5643, " spaceship": 5644, " gust": 5645, " crawling": 5646, " Something": 5647, "Cat": 5648, " ruler": 5649, " flav": 5650, " downstairs": 5651, " shooting": 5652, " tastes": 5653, " napping": 5654, " sprinkles": 5655, " marks": 5656, " cuddled": 5657, " dot": 5658, "hello": 5659, "plash": 5660, " fut": 5661, "ales": 5662, "aved": 5663, " future": 5664, " monsters": 5665, " collecting": 5666, " measuring": 5667, " Happy": 5668, " families": 5669, "'.": 5670, " Out": 5671, " First": 5672, " Mo": 5673, " thrill": 5674, " oat": 5675, "irts": 5676, " result": 5677, "Jake": 5678, " approached": 5679, " Rabbit": 5680, "act": 5681, " crunchy": 5682, "Un": 5683, " remem": 5684, " bleeding": 5685, " remembers": 5686, " nicer": 5687, " beat": 5688, " sneaky": 5689, " disturbed": 5690, " leader": 5691, " scaring": 5692, "Or": 5693, "hind": 5694, " peel": 5695, " Hope": 5696, " firemen": 5697, " neighborhood": 5698, " Star": 5699, " grey": 5700, " Not": 5701, " motion": 5702, " noon": 5703, " possible": 5704, "Emily": 5705, "Somet": 5706, " apologized": 5707, " weighed": 5708, "ues": 5709, " Did": 5710, " tickets": 5711, "Cl": 5712, " naps": 5713, " loose": 5714, " pride": 5715, " youth": 5716, " swims": 5717, "ped": 5718, " strings": 5719, " recognized": 5720, " siren": 5721, " poking": 5722, "fied": 5723, " Ho": 5724, "cious": 5725, "ha": 5726, "elvet": 5727, " tricked": 5728, " wonders": 5729, " gained": 5730, " wanting": 5731, " crashed": 5732, " obe": 5733, " seesaw": 5734, " worker": 5735, "unnies": 5736, "ls": 5737, "oming": 5738, " draws": 5739, " scooped": 5740, ".'": 5741, " zooming": 5742, " opinion": 5743, " yelling": 5744, " prepared": 5745, " grinned": 5746, " Slowly": 5747, " awe": 5748, " poems": 5749, " doggy": 5750, " acting": 5751, " Beep": 5752, " happiest": 5753, " chef": 5754, " sneaked": 5755, " respons": 5756, " eff": 5757, " Always": 5758, " Lizzy": 5759, " owned": 5760, " bunnies": 5761, " anytime": 5762, " struck": 5763, " pedals": 5764, "oys": 5765, " knelt": 5766, "ena": 5767, "Ollie": 5768, " secrets": 5769, " pause": 5770, " decorated": 5771, " horns": 5772, " agreement": 5773, " Squ": 5774, "ided": 5775, " frost": 5776, " tallest": 5777, " obey": 5778, "Remember": 5779, "riends": 5780, "ogo": 5781, " Stop": 5782, "Have": 5783, " decides": 5784, " Once": 5785, " behaved": 5786, " tugged": 5787, " sides": 5788, " woof": 5789, " slim": 5790, "zen": 5791, " goodnight": 5792, " keeper": 5793, " sparkling": 5794, " chirped": 5795, " precious": 5796, "mother": 5797, "lier": 5798, "ien": 5799, "Tr": 5800, " repeated": 5801, " claps": 5802, "indy": 5803, "affes": 5804, " snowballs": 5805, " contain": 5806, "ud": 5807, "rs": 5808, " Ray": 5809, " ourselves": 5810, "allow": 5811, " giraffes": 5812, " balancing": 5813, " kindly": 5814, " spending": 5815, " writes": 5816, "ays": 5817, "ppers": 5818, " Like": 5819, "omas": 5820, " prop": 5821, " hissed": 5822, "First": 5823, " frozen": 5824, " frosting": 5825, " effort": 5826, " buzzing": 5827, " struggled": 5828, " Steve": 5829, " admiring": 5830, " rele": 5831, "iggy": 5832, " sweeties": 5833, " Velvet": 5834, " slimy": 5835, " brushed": 5836, " bloomed": 5837, "Susie": 5838, " Am": 5839, " polished": 5840, " Zoe": 5841, "arth": 5842, "anted": 5843, " comfy": 5844, " boo": 5845, " staying": 5846, " rubbing": 5847, "Ducky": 5848, " rocking": 5849, " pockets": 5850, " thrilled": 5851, " beside": 5852, " comple": 5853, " Aunt": 5854, " Maggie": 5855, "Ah": 5856, " eight": 5857, "urry": 5858, "isdom": 5859, " machines": 5860, " earlier": 5861, " yesterday": 5862, " seems": 5863, " rust": 5864, " Keep": 5865, "Sp": 5866, " traveled": 5867, " folding": 5868, " boom": 5869, " cracked": 5870, "ities": 5871, " hugging": 5872, " radishes": 5873, " Stitch": 5874, " opening": 5875, " loving": 5876, " circus": 5877, " surrounded": 5878, " curiosity": 5879, " Rachel": 5880, " spraying": 5881, " demanded": 5882, "oh": 5883, " paintings": 5884, "amie": 5885, " Green": 5886, " removed": 5887, " gaze": 5888, " honk": 5889, " pebbles": 5890, " zookeeper": 5891, " hardly": 5892, " catches": 5893, "edding": 5894, " sting": 5895, " stripes": 5896, " powers": 5897, " loaded": 5898, " Pippa": 5899, "Sometimes": 5900, " splashes": 5901, " pots": 5902, " petted": 5903, " matching": 5904, " David": 5905, "Thanks": 5906, " toss": 5907, " stare": 5908, " belly": 5909, "Yummy": 5910, "ibb": 5911, " whatever": 5912, " apologize": 5913, " rocked": 5914, " comforted": 5915, " Bree": 5916, " decision": 5917, "ern": 5918, " ribbons": 5919, " Joy": 5920, " Birdie": 5921, " struggling": 5922, " expected": 5923, " deser": 5924, " steep": 5925, "wh": 5926, " protected": 5927, " neighbors": 5928, " smiley": 5929, " chases": 5930, "During": 5931, " granted": 5932, " crumb": 5933, " Mat": 5934, " purred": 5935, " diving": 5936, " sadness": 5937, "Whiskers": 5938, " organizing": 5939, "lowers": 5940, " eagle": 5941, " heroes": 5942, " dipped": 5943, " sunlight": 5944, " lied": 5945, " pastels": 5946, " Frank": 5947, "Ex": 5948, " safer": 5949, " roads": 5950, " scru": 5951, " argued": 5952, " Milly": 5953, " goals": 5954, " Water": 5955, " discovery": 5956, " Abigail": 5957, " villag": 5958, " peered": 5959, "Ro": 5960, " Bouncy": 5961, "use": 5962, "ana": 5963, "loe": 5964, " tim": 5965, " dragons": 5966, " buildings": 5967, " buckets": 5968, " parties": 5969, " beard": 5970, " wedding": 5971, "Rex": 5972, " flutter": 5973, " planets": 5974, " ann": 5975, " Robby": 5976, " polishing": 5977, " fasc": 5978, "ira": 5979, " released": 5980, " Chr": 5981, " crabs": 5982, " Gogo": 5983, " tails": 5984, " Watch": 5985, " sausages": 5986, " Ju": 5987, " argu": 5988, " contro": 5989, " bottles": 5990, " wiggled": 5991, " teased": 5992, "uke": 5993, " arguing": 5994, " sled": 5995, " dragged": 5996, " padd": 5997, " Car": 5998, " roaring": 5999, " clearing": 6000, " shirts": 6001, " movies": 6002, " gathering": 6003, " airpl": 6004, " wid": 6005, "joyed": 6006, " teaches": 6007, " spiders": 6008, " limes": 6009, " Remember": 6010, " Dare": 6011, " overjoyed": 6012, " actually": 6013, " sighs": 6014, " continue": 6015, " cuddle": 6016, " soaring": 6017, " smallest": 6018, " Jess": 6019, " drives": 6020, " sparkles": 6021, " rip": 6022, " situ": 6023, " cubes": 6024, " refres": 6025, " talent": 6026, " challenge": 6027, " Olly": 6028, " grandmother": 6029, " Splash": 6030, " pouring": 6031, "umm": 6032, " pretends": 6033, " fascin": 6034, " cuts": 6035, " quarreling": 6036, " peppers": 6037, " bank": 6038, "ten": 6039, " shivered": 6040, " mane": 6041, " dusty": 6042, "ley": 6043, " wondering": 6044, " villagers": 6045, " stretching": 6046, "njoy": 6047, "ib": 6048, " weeks": 6049, " wherever": 6050, " darker": 6051, "jam": 6052, "Tiny": 6053, "sses": 6054, " X": 6055, " rings": 6056, " onwards": 6057, " Katie": 6058, " united": 6059, "Achoo": 6060, " bead": 6061, " Everyday": 6062, " Being": 6063, " prettiest": 6064, "Johnny": 6065, " caut": 6066, " realize": 6067, " company": 6068, " penguins": 6069, "annah": 6070, "Luna": 6071, "Fr": 6072, " Spring": 6073, " bedtime": 6074, " completed": 6075, " Wisdom": 6076, " Leave": 6077, "\u201d.": 6078, " knights": 6079, " flags": 6080, " Je": 6081, " Because": 6082, " playroom": 6083, " Prin": 6084, " actions": 6085, " Zero": 6086, " learns": 6087, " gotten": 6088, " patience": 6089, "inda": 6090, "dam": 6091, " shrug": 6092, " kites": 6093, " responsible": 6094, " fears": 6095, " destination": 6096, " wires": 6097, " reply": 6098, " wrist": 6099, " dam": 6100, "aws": 6101, " packing": 6102, " mountains": 6103, " fault": 6104, " applauded": 6105, " scrubbed": 6106, " ma": 6107, " crept": 6108, " Ava": 6109, "Uh": 6110, " Earth": 6111, " satis": 6112, " third": 6113, " phot": 6114, " pencils": 6115, " wins": 6116, " sticking": 6117, " baker": 6118, " visiting": 6119, " wound": 6120, " uses": 6121, " peas": 6122, " reminder": 6123, " control": 6124, "ashed": 6125, "Grandpa": 6126, " joking": 6127, " awake": 6128, " instruct": 6129, " staring": 6130, " healed": 6131, " Put": 6132, " hitting": 6133, " Fish": 6134, " screaming": 6135, " begin": 6136, "Rob": 6137, "uckily": 6138, " Friends": 6139, " Moo": 6140, "icorn": 6141, " helmets": 6142, "enty": 6143, " unicorn": 6144, "ler": 6145, "seek": 6146, " towels": 6147, "Silly": 6148, " Lou": 6149, " chips": 6150, "ica": 6151, " creation": 6152, " wasted": 6153, "bie": 6154, "Mar": 6155, " Behind": 6156, "laire": 6157, " masks": 6158, " items": 6159, " forgi": 6160, " firefight": 6161, " outdo": 6162, " lollipops": 6163, "Watch": 6164, " heav": 6165, " guns": 6166, " died": 6167, " Hippy": 6168, " seas": 6169, " glitter": 6170, "uddles": 6171, " arrive": 6172, " weren": 6173, " stole": 6174, " scales": 6175, " perched": 6176, " accom": 6177, " logs": 6178, " achieve": 6179, "die": 6180, " practicing": 6181, "ining": 6182, " whose": 6183, "Stay": 6184, " pumpkins": 6185, " instructions": 6186, " swoop": 6187, " batteries": 6188, " candies": 6189, " agrees": 6190, " project": 6191, " snakes": 6192, " chirping": 6193, "Benny": 6194, " shelves": 6195, " protecting": 6196, " parked": 6197, " exact": 6198, " Cra": 6199, " patiently": 6200, " activ": 6201, " videos": 6202, " shoulders": 6203, " blows": 6204, "hee": 6205, "Fo": 6206, " promises": 6207, "go": 6208, " dent": 6209, "usan": 6210, "uest": 6211, "ners": 6212, "jamas": 6213, " examined": 6214, " airplane": 6215, "Doggy": 6216, " roses": 6217, " accompl": 6218, " tasks": 6219, "Dave": 6220, " Hoot": 6221, "Poppy": 6222, " Bop": 6223, "Bunny": 6224, " beads": 6225, " bowls": 6226, " crumbs": 6227, "zes": 6228, " listens": 6229, " Love": 6230, " Catty": 6231, " Brownie": 6232, "Pete": 6233, " Ol": 6234, " dolphins": 6235, " cough": 6236, " bunch": 6237, " guest": 6238, "cakes": 6239, " requested": 6240, " remote": 6241, " improved": 6242, "anta": 6243, " reaching": 6244, " brand": 6245, " Jan": 6246, "ayla": 6247, " alien": 6248, " Bye": 6249, "irm": 6250, " copy": 6251, " Sun": 6252, " cheering": 6253, " photos": 6254, " Julie": 6255, " Chew": 6256, "Bad": 6257, " Blink": 6258, "Time": 6259, " cans": 6260, " Cuddles": 6261, " timer": 6262, " By": 6263, " replaced": 6264, "athy": 6265, " workers": 6266, " stern": 6267, " Enjoy": 6268, "aster": 6269, " neither": 6270, "Mike": 6271, " passing": 6272, " misses": 6273, " curtains": 6274, " confl": 6275, "Chirpy": 6276, " rainbows": 6277, " rubs": 6278, "George": 6279, "uctantly": 6280, " rolls": 6281, " patted": 6282, "ilo": 6283, " pajamas": 6284, " outdoors": 6285, "esome": 6286, "dies": 6287, " complaining": 6288, " Squirrel": 6289, "  ": 6290, "Lola": 6291, "Run": 6292, " puppet": 6293, " Princess": 6294, " closes": 6295, " beneath": 6296, " lap": 6297, " drums": 6298, " tune": 6299, " Beth": 6300, " Mouse": 6301, " filling": 6302, "Miss": 6303, "angled": 6304, " refuse": 6305, " Sorry": 6306, " sweat": 6307, " faced": 6308, "...": 6309, " seven": 6310, " balanced": 6311, " rescued": 6312, "neath": 6313, "bl": 6314, " quacked": 6315, " Abby": 6316, "Paul": 6317, "istle": 6318, " awesome": 6319, " 1": 6320, " mission": 6321, " However": 6322, " guys": 6323, " conflict": 6324, " cautious": 6325, " vent": 6326, " observed": 6327, " cause": 6328, " introduc": 6329, " Thomas": 6330, " pastries": 6331, "nie": 6332, " Our": 6333, " exactly": 6334, " doctors": 6335, " rule": 6336, " becoming": 6337, " policeman": 6338, " mes": 6339, "uly": 6340, " rockets": 6341, "you": 6342, " Yes": 6343, " Dot": 6344, " fairies": 6345, "lay": 6346, " pout": 6347, "An": 6348, " insist": 6349, " blooming": 6350, " tractor": 6351, " farther": 6352, " Sad": 6353, "avi": 6354, "Oops": 6355, "Great": 6356, " remembering": 6357, " included": 6358, " curly": 6359, "Zoom": 6360, "Fine": 6361, " teamwork": 6362, "zie": 6363, " fascinated": 6364, " wobbled": 6365, " slam": 6366, " truly": 6367, " helpers": 6368, " sights": 6369, " paddle": 6370, " stumble": 6371, " firm": 6372, "Henry": 6373, " Jilly": 6374, "acob": 6375, " caused": 6376, " prayer": 6377, " spong": 6378, " recording": 6379, "kelly": 6380, "ais": 6381, " traded": 6382, " starfish": 6383, " supplies": 6384, " thro": 6385, " pointy": 6386, " situation": 6387, " inviting": 6388, "eah": 6389, "gers": 6390, " neighbourhood": 6391, " everyday": 6392, " ornaments": 6393, " Ally": 6394, "inkle": 6395, " valued": 6396, " adding": 6397, "Some": 6398, " reluctantly": 6399, " dots": 6400, " stays": 6401, " tables": 6402, " prettier": 6403, " bare": 6404, " desert": 6405, " snowmen": 6406, " steady": 6407, " minerals": 6408, "araway": 6409, " thorn": 6410, "ody": 6411, " ast": 6412, " glasses": 6413, " faraway": 6414, " Get": 6415, " Foxy": 6416, " swooped": 6417, " Welcome": 6418, " Two": 6419, " Sure": 6420, " unf": 6421, " forks": 6422, " usually": 6423, " usual": 6424, "Polly": 6425, " dar": 6426, " Jamie": 6427, " winked": 6428, " sneezing": 6429, " solut": 6430, " loading": 6431, " sponge": 6432, " Quick": 6433, " insects": 6434, " pans": 6435, "Dog": 6436, " sobbed": 6437, " Santa": 6438, "James": 6439, " growling": 6440, "sm": 6441, "arter": 6442, " throat": 6443, " Chloe": 6444, " noses": 6445, " Josh": 6446, " Dizzy": 6447, " scarves": 6448, " confident": 6449, " yourselves": 6450, " Want": 6451, "agull": 6452, " homework": 6453, " superheroes": 6454, " Stay": 6455, "Joey": 6456, " smarter": 6457, " windy": 6458, " librarian": 6459, "Tina": 6460, " Kids": 6461, " gems": 6462, "Days": 6463, "ora": 6464, " underneath": 6465, " kicks": 6466, " knowled": 6467, " itchy": 6468, " knowledge": 6469, " jackets": 6470, " Skelly": 6471, " For": 6472, " surface": 6473, " untie": 6474, " comm": 6475, " Duck": 6476, " princesses": 6477, "...\"": 6478, "Those": 6479, "ido": 6480, "eed": 6481, "Hold": 6482, "Yeah": 6483, "coon": 6484, " squares": 6485, " Henny": 6486, " warnings": 6487, " giggling": 6488, "iar": 6489, " reads": 6490, "vin": 6491, "Our": 6492, " choo": 6493, " younger": 6494, " clowns": 6495, " Mix": 6496, "Toby": 6497, "son": 6498, " ropes": 6499, " biting": 6500, " crowd": 6501, " Unfortunately": 6502, "pite": 6503, "Danny": 6504, "True": 6505, " seagull": 6506, " paddled": 6507, " wears": 6508, " delivered": 6509, " Mon": 6510, " twirl": 6511, " onions": 6512, " buzzed": 6513, " complained": 6514, " bumpy": 6515, " stem": 6516, "Ew": 6517, " piggy": 6518, "Mrs": 6519, " Anne": 6520, " direction": 6521, "ouch": 6522, " dived": 6523, "Roar": 6524, " tangled": 6525, " startled": 6526, "ults": 6527, " leaning": 6528, "bbie": 6529, " Ant": 6530, " Jones": 6531, " badge": 6532, " Po": 6533, "Grace": 6534, " unp": 6535, " deal": 6536, "though": 6537, "Annie": 6538, " vowed": 6539, " napkins": 6540, "anes": 6541, " tickled": 6542, " risk": 6543, " covers": 6544, " pec": 6545, "Shh": 6546, " yells": 6547, " satisfied": 6548, "int": 6549, " knocks": 6550, " refreshed": 6551, "tuce": 6552, " Sc": 6553, "cuse": 6554, " cous": 6555, " arrows": 6556, "Maggie": 6557, " Whistle": 6558, "Pe": 6559, " wipes": 6560, " speaking": 6561, " lettuce": 6562, " guessing": 6563, "Unfortunately": 6564, " Quack": 6565, " ripe": 6566, " Susan": 6567, " hides": 6568, " choices": 6569, " Dodo": 6570, " Rover": 6571, "Buzz": 6572, " signed": 6573, " slower": 6574, " seeker": 6575, " introduced": 6576, " singer": 6577, " creating": 6578, " Matt": 6579, " froze": 6580, " cent": 6581, "uggles": 6582, " joked": 6583, " squeal": 6584, " toaster": 6585, " explorers": 6586, " avo": 6587, "anging": 6588, "Sophie": 6589, " praying": 6590, " written": 6591, " discovering": 6592, " provided": 6593, " Dara": 6594, " refle": 6595, " Lion": 6596, "Excuse": 6597, " mushrooms": 6598, " Jeff": 6599, " Paws": 6600, " paying": 6601, " knees": 6602, "fit": 6603, "ences": 6604, " hider": 6605, " wandering": 6606, " Ash": 6607, " images": 6608, "Charlie": 6609, " stung": 6610, " Wink": 6611, " magnets": 6612, " barely": 6613, " behaving": 6614, " tipto": 6615, "?\",": 6616, " marked": 6617, "brush": 6618, "rrr": 6619, " restored": 6620, " Dee": 6621, " leading": 6622, "lled": 6623, " chuck": 6624, "ados": 6625, " nine": 6626, " greet": 6627, "Teddy": 6628, " gears": 6629, " bravery": 6630, " Snuggles": 6631, "ky": 6632, " competition": 6633, "eal": 6634, " outfit": 6635, "oline": 6636, " wishing": 6637, " properly": 6638, " ventured": 6639, "tle": 6640, "aa": 6641, " muscle": 6642, " dances": 6643, " chat": 6644, " salty": 6645, " pens": 6646, "amb": 6647, " Betsy": 6648, " ranger": 6649, " Ziggy": 6650, " deserve": 6651, " however": 6652, "sequ": 6653, " matters": 6654, " darkness": 6655, " burst": 6656, " Fu": 6657, " rainy": 6658, " cobwebs": 6659, " ruining": 6660, " chefs": 6661, " consequ": 6662, " blocking": 6663, " bak": 6664, "usted": 6665, "itely": 6666, "sty": 6667, " scur": 6668, " vines": 6669, " fab": 6670, "abel": 6671, " fabric": 6672, " entire": 6673, " basement": 6674, " performed": 6675, " least": 6676, " Buggy": 6677, "Sn": 6678, " scratches": 6679, " heavier": 6680, " Claire": 6681, " mints": 6682, " twirling": 6683, " avocados": 6684, "However": 6685, " Linda": 6686, "rink": 6687, "fl": 6688, " scurried": 6689, " losing": 6690, " sunflowers": 6691, " Jenna": 6692, " rainco": 6693, " swords": 6694, "Tweet": 6695, " click": 6696, "agic": 6697, " Laser": 6698, " silent": 6699, " jobs": 6700, " necklaces": 6701, " flames": 6702, " Luke": 6703, " relief": 6704, " Grumpy": 6705, " snat": 6706, " sewed": 6707, " rotting": 6708, "len": 6709, "Listen": 6710, "Follow": 6711, " tricky": 6712, "Jerry": 6713, " lighter": 6714, "ophia": 6715, " bows": 6716, " Skip": 6717, " exha": 6718, " solution": 6719, " consequences": 6720, "Alex": 6721, " Lena": 6722, " tires": 6723, " stain": 6724, " Pr": 6725, "Beep": 6726, " unpacked": 6727, "Ab": 6728, " partic": 6729, "rance": 6730, " races": 6731, " pins": 6732, " bumps": 6733, " wraps": 6734, "aisies": 6735, " wow": 6736, " decorating": 6737, " backed": 6738, "cher": 6739, " dentist": 6740, " purr": 6741, " needles": 6742, " cautiously": 6743, " lifting": 6744, "izzie": 6745, " accomplish": 6746, " triangles": 6747, " daisies": 6748, "ept": 6749, " hesitated": 6750, " annoy": 6751, " Those": 6752, " growls": 6753, " crackers": 6754, "oke": 6755, " stomped": 6756, " grabbing": 6757, " cott": 6758, " figured": 6759, " bodies": 6760, " mater": 6761, " buying": 6762, " Tree": 6763, " material": 6764, " Rolly": 6765, " Fido": 6766, " Adam": 6767, " swans": 6768, " ties": 6769, " gri": 6770, "vers": 6771, " grows": 6772, " \n ": 6773, " sweets": 6774, " Goodbye": 6775, " owners": 6776, " flavor": 6777, " cheeks": 6778, " Cathy": 6779, "Big": 6780, " suffering": 6781, " Jessie": 6782, " El": 6783, "vroom": 6784, " fact": 6785, " groups": 6786, "bly": 6787, " forehead": 6788, " lungs": 6789, "Harry": 6790, " repa": 6791, " interested": 6792, " bakery": 6793, " Milo": 6794, " freed": 6795, "Lilly": 6796, "itches": 6797, " Nothing": 6798, " chuckled": 6799, "For": 6800, " swept": 6801, " conn": 6802, "?'": 6803, " thud": 6804, " exhausted": 6805, "Tw": 6806, " twinkling": 6807, " tapped": 6808, "Ru": 6809, " nect": 6810, "rosty": 6811, " nectar": 6812, "elle": 6813, " feast": 6814, " darling": 6815, "indr": 6816, " Mad": 6817, " worries": 6818, " uns": 6819, " tunnels": 6820, " fuzzy": 6821, " repaired": 6822, " reason": 6823, " Trust": 6824, " Copper": 6825, " Ball": 6826, " activities": 6827, "lets": 6828, " pecked": 6829, " Hannah": 6830, " entrance": 6831, " Try": 6832, " raindr": 6833, " meals": 6834, " Listen": 6835, " particular": 6836, " completely": 6837, " mailed": 6838, "ctions": 6839, " nests": 6840, " waiter": 6841, " cuddly": 6842, " sense": 6843, " Nana": 6844, " colored": 6845, "arky": 6846, " leap": 6847, "step": 6848, "band": 6849, " plenty": 6850, " peeking": 6851, " slammed": 6852, " Cara": 6853, "no": 6854, " players": 6855, " month": 6856, " budge": 6857, " Birthday": 6858, " Q": 6859, " scra": 6860, " forgets": 6861, " den": 6862, " handful": 6863, " Oliver": 6864, " mer": 6865, "ossible": 6866, " genie": 6867, " Christ": 6868, " stool": 6869, "iggie": 6870, " talks": 6871, " Pup": 6872, " Suzie": 6873, " passports": 6874, " feeding": 6875, " films": 6876, " baths": 6877, " impossible": 6878, " determination": 6879, "May": 6880, " printing": 6881, "boat": 6882, " designed": 6883, " buses": 6884, " opp": 6885, "ueen": 6886, "lephant": 6887, " suitcase": 6888, " bars": 6889, " counts": 6890, " stolen": 6891, " spreading": 6892, " spikes": 6893, " Snap": 6894, " wiping": 6895, " steer": 6896, " lamb": 6897, " Rain": 6898, " honked": 6899, "etty": 6900, "nies": 6901, "Whee": 6902, " cowb": 6903, " separated": 6904, "blings": 6905, " siblings": 6906, " hops": 6907, " chop": 6908, " sewing": 6909, " fires": 6910, " Twinkle": 6911, " fever": 6912, " twinkle": 6913, " ty": 6914, " camping": 6915, " Mira": 6916, " lower": 6917, " changing": 6918, "yes": 6919, "retch": 6920, " behavi": 6921, " Bloom": 6922, "mas": 6923, " liqu": 6924, " celebration": 6925, "but": 6926, " squealed": 6927, " dollhouse": 6928, "Sunny": 6929, " backward": 6930, " age": 6931, " snatched": 6932, " cash": 6933, "ho": 6934, " twice": 6935, "lee": 6936, " sway": 6937, "itched": 6938, " celebrating": 6939, " Peanut": 6940, " shrinking": 6941, " ache": 6942, "weed": 6943, " kings": 6944, "rious": 6945, " shops": 6946, " kittens": 6947, "cope": 6948, "Rose": 6949, " Jessica": 6950, " Jacob": 6951, " Gina": 6952, "aura": 6953, " hus": 6954, " touches": 6955, "airy": 6956, " pancakes": 6957, " avoid": 6958, " spat": 6959, " Frosty": 6960, "rig": 6961, "hog": 6962, " Nina": 6963, " paths": 6964, "ives": 6965, "cky": 6966, " Hold": 6967, " rotten": 6968, " calmed": 6969, "Sandy": 6970, " seaweed": 6971, " dropping": 6972, " Jon": 6973, " Mel": 6974, "iles": 6975, "Pipp": 6976, " twisting": 6977, " stroked": 6978, " untied": 6979, "llen": 6980, " playhouse": 6981, "ne": 6982, "Millie": 6983, " students": 6984, " puppies": 6985, "cl": 6986, "hi": 6987, " screws": 6988, " astron": 6989, " Re": 6990, " somebody": 6991, "igning": 6992, " liquid": 6993, "ammy": 6994, " wakes": 6995, " squish": 6996, " Woof": 6997, " bracelets": 6998, " astronaut": 6999, "immer": 7000, "aren": 7001, " thrown": 7002, " loops": 7003, " Other": 7004, "Luckily": 7005, " wrapping": 7006, " plain": 7007, " tramp": 7008, " planning": 7009, " skunk": 7010, " aimed": 7011, " pennies": 7012, " shoo": 7013, " lifts": 7014, " dancers": 7015, " sparks": 7016, " firefly": 7017, "pen": 7018, "Dan": 7019, " poster": 7020, "yan": 7021, "endy": 7022, " cust": 7023, " Christmas": 7024, " rewarded": 7025, " objects": 7026, " directions": 7027, "using": 7028, "ingo": 7029, " reflection": 7030, " husband": 7031, "\u2014": 7032, "Take": 7033, "river": 7034, " clues": 7035, "uppy": 7036, " leads": 7037, " increased": 7038, " blocked": 7039, " rising": 7040, " dod": 7041, " cousin": 7042, " Yesterday": 7043, " Without": 7044, " forgetting": 7045, "rigued": 7046, " custom": 7047, "Kate": 7048, "ude": 7049, " trampoline": 7050, " beginning": 7051, " storekeeper": 7052, " pouted": 7053, " zebras": 7054, " hedgehog": 7055, " aff": 7056, " borrowed": 7057, " \u2018": 7058, " Rollie": 7059, " snowfl": 7060, " countryside": 7061, "Jump": 7062, " mesmer": 7063, " Jay": 7064, " vehicles": 7065, " instrum": 7066, " Mic": 7067, " Kayla": 7068, " Up": 7069, " frowning": 7070, "ivity": 7071, "Pat": 7072, "Under": 7073, " marker": 7074, "yond": 7075, " presses": 7076, " beyond": 7077, " Queen": 7078, " damage": 7079, " Only": 7080, "iece": 7081, "ivery": 7082, " fart": 7083, " Tara": 7084, " Biggie": 7085, "jo": 7086, " health": 7087, " whispers": 7088, " swimsuit": 7089, " slips": 7090, " nibb": 7091, " Julia": 7092, "armer": 7093, " warmer": 7094, " flapping": 7095, " tiptoed": 7096, " regretted": 7097, "itted": 7098, "Zip": 7099, " laying": 7100, " Robo": 7101, "ades": 7102, " yelp": 7103, " Fire": 7104, " rains": 7105, " glued": 7106, " everybody": 7107, " creations": 7108, " hearing": 7109, " swir": 7110, " colder": 7111, "iversity": 7112, "ael": 7113, " shaped": 7114, " Elephant": 7115, " streets": 7116, " fins": 7117, " rusty": 7118, " cushions": 7119, "Out": 7120, " san": 7121, " farthest": 7122, " creativity": 7123, " Mikey": 7124, " sale": 7125, "Always": 7126, "ans": 7127, " strongest": 7128, "ibbit": 7129, " fits": 7130, " Sparky": 7131, " bells": 7132, " dollars": 7133, " Larry": 7134, " earn": 7135, "iam": 7136, "angle": 7137, " lending": 7138, " Moon": 7139, " Chirp": 7140, "eese": 7141, " cashier": 7142, "Milly": 7143, " including": 7144, " sniffs": 7145, " sank": 7146, " raincoat": 7147, " Rich": 7148, " trembled": 7149, " stopping": 7150, " source": 7151, "iti": 7152, "imon": 7153, " Missy": 7154, " wobbly": 7155, " indeed": 7156, "ters": 7157, " guests": 7158, " single": 7159, " recommended": 7160, " spells": 7161, " accomplishment": 7162, " belts": 7163, " surprising": 7164, " ends": 7165, " hopeful": 7166, " seasons": 7167, " Take": 7168, " Snowman": 7169, " Els": 7170, "Bear": 7171, " plans": 7172, "ichael": 7173, " encourag": 7174, " supported": 7175, "stick": 7176, "illed": 7177, " suffered": 7178, " artist": 7179, " performance": 7180, "eet": 7181, "Nina": 7182, " slowed": 7183, " gross": 7184, " flavors": 7185, "iding": 7186, "ertain": 7187, " spins": 7188, "cho": 7189, "Quack": 7190, " labels": 7191, " raindrops": 7192, " delivery": 7193, "uing": 7194, "arac": 7195, " raccoon": 7196, " forgiving": 7197, "obody": 7198, " Woo": 7199, " pours": 7200, "the": 7201, "ility": 7202, " vanilla": 7203, " turtles": 7204, " stands": 7205, "Bill": 7206, "uess": 7207, " recipe": 7208, " beam": 7209, " tying": 7210, " Sw": 7211, " geese": 7212, " willing": 7213, " robber": 7214, " drawn": 7215, "Vroom": 7216, " wept": 7217, " Bones": 7218, " charac": 7219, " pops": 7220, " corners": 7221, " Sophia": 7222, "elia": 7223, " queens": 7224, " sailboat": 7225, " grip": 7226, " die": 7227, " drivers": 7228, "itude": 7229, " moo": 7230, " hallway": 7231, " imagining": 7232, " seconds": 7233, " Fuzzy": 7234, "Mine": 7235, " preparing": 7236, " widened": 7237, " adult": 7238, " Spirit": 7239, " grocer": 7240, " coop": 7241, " talented": 7242, " Pam": 7243, " Beaky": 7244, " Izzy": 7245, "ummies": 7246, " sailors": 7247, "lling": 7248, " softer": 7249, " aside": 7250, " watering": 7251, " sending": 7252, " knots": 7253, " unsure": 7254, " tipped": 7255, "Lulu": 7256, " treehouse": 7257, " horiz": 7258, " Lizzie": 7259, " notes": 7260, "Co": 7261, " echo": 7262, "igers": 7263, " achieved": 7264, " horizon": 7265, " squeak": 7266, " delivering": 7267, " pleasure": 7268, " hotter": 7269, " Stella": 7270, "Clara": 7271, " pupils": 7272, " burrow": 7273, " angels": 7274, " curiously": 7275, "Ellie": 7276, " yum": 7277, " blinking": 7278, " June": 7279, " tweet": 7280, " symbols": 7281, " det": 7282, " Stretch": 7283, "wk": 7284, " passen": 7285, " Rudy": 7286, " Cindy": 7287, " tummies": 7288, " tiss": 7289, " pigeons": 7290, " figures": 7291, "umbling": 7292, " bandages": 7293, " Robert": 7294, " coup": 7295, " Doctor": 7296, "oey": 7297, " robots": 7298, "alph": 7299, " tossed": 7300, " hour": 7301, " backwards": 7302, " roars": 7303, "Baby": 7304, " merma": 7305, "uzz": 7306, " rather": 7307, "atur": 7308, "Maria": 7309, "cited": 7310, " Play": 7311, " Crab": 7312, "Moo": 7313, "ighting": 7314, "Dolly": 7315, " groceries": 7316, " zipping": 7317, "Put": 7318, "Very": 7319, " unw": 7320, "prin": 7321, " among": 7322, " blown": 7323, " icing": 7324, "!\u201d.": 7325, " rumble": 7326, " afterwards": 7327, "ipper": 7328, " screwd": 7329, "ushing": 7330, " sped": 7331, " prove": 7332, " glee": 7333, " Titi": 7334, " Tia": 7335, " dip": 7336, " overcome": 7337, "Ruby": 7338, "Quick": 7339, " surfboard": 7340, " shovels": 7341, " slices": 7342, " Toot": 7343, " merry": 7344, " wobble": 7345, " mate": 7346, " Turt": 7347, " Abbie": 7348, " heading": 7349, " disturbing": 7350, " swall": 7351, " reversed": 7352, " firefighters": 7353, "Jul": 7354, " swallowed": 7355, " chip": 7356, "eds": 7357, " scored": 7358, " flipped": 7359, " Jump": 7360, " squeezing": 7361, "usty": 7362, "Frank": 7363, "aty": 7364, "Su": 7365, " waking": 7366, " intrigued": 7367, "Sad": 7368, "Like": 7369, " maker": 7370, " Barky": 7371, "awn": 7372, "Betty": 7373, " puff": 7374, " hawk": 7375, " Ex": 7376, " encouraging": 7377, " aud": 7378, "osen": 7379, "onies": 7380, " chosen": 7381, " Ron": 7382, "hew": 7383, " Farmer": 7384, " Ang": 7385, " couple": 7386, " designs": 7387, " slipping": 7388, " screwdriver": 7389, " squishy": 7390, " Emmy": 7391, " gardener": 7392, " center": 7393, " rivers": 7394, " respond": 7395, " markers": 7396, "iley": 7397, " tigers": 7398, " jars": 7399, "pecting": 7400, " frowns": 7401, "bird": 7402, " fluttered": 7403, " Sadly": 7404, " Kit": 7405, "Ribbit": 7406, " firefighter": 7407, " Sl": 7408, " Ryan": 7409, " suits": 7410, " secure": 7411, " sprinkled": 7412, " creamy": 7413, "ashes": 7414, " sharks": 7415, " ignoring": 7416, " bru": 7417, " giggles": 7418, " tissue": 7419, " tighter": 7420, " firmly": 7421, "ounce": 7422, " Laura": 7423, " shown": 7424, " familiar": 7425, "fly": 7426, " thorns": 7427, "Spike": 7428, " Wo": 7429, " drawers": 7430, "child": 7431, " Zee": 7432, " express": 7433, " def": 7434, "Car": 7435, "ments": 7436, " daring": 7437, " crossing": 7438, " audience": 7439, " performing": 7440, " coloured": 7441, " cloudy": 7442, " cor": 7443, " ais": 7444, " Nick": 7445, "ae": 7446, "rat": 7447, " pedaled": 7448, "Get": 7449, " mixture": 7450, " til": 7451, " gracefully": 7452, "ggy": 7453, " haircuts": 7454, " yielded": 7455, " ponies": 7456, " disob": 7457, " crowns": 7458, " bits": 7459, " todd": 7460, " Sleep": 7461, " nervously": 7462, " hangers": 7463, "bbled": 7464, " Patch": 7465, "Zoomy": 7466, " pays": 7467, " 2": 7468, " peck": 7469, " stroke": 7470, " ev": 7471, "fall": 7472, "Bang": 7473, " respected": 7474, " napped": 7475, "aven": 7476, " minded": 7477, "ddie": 7478, "Bessie": 7479, "ably": 7480, "Boys": 7481, " tested": 7482, "ading": 7483, "parent": 7484, " Chris": 7485, "Kim": 7486, " University": 7487, " Near": 7488, " beeh": 7489, " Turtle": 7490, " surfing": 7491, " neighbours": 7492, "arrow": 7493, "vered": 7494, " shady": 7495, "iona": 7496, "arlings": 7497, " magician": 7498, " enthusiasm": 7499, " darlings": 7500, " wisely": 7501, " stitches": 7502, " sails": 7503, "Dear": 7504, " weekend": 7505, " thoughts": 7506, "Freddy": 7507, " Tweetie": 7508, " reminds": 7509, "fted": 7510, " temper": 7511, "oring": 7512, "tha": 7513, "antha": 7514, " surroundings": 7515, " spits": 7516, " fleas": 7517, " teams": 7518, " lessons": 7519, " fills": 7520, " flip": 7521, " Along": 7522, " paintbrush": 7523, " melons": 7524, " mermaid": 7525, "oni": 7526, "lle": 7527, "Katie": 7528, " grandchild": 7529, " hoops": 7530, " explo": 7531, " elbow": 7532, " sports": 7533, "Guess": 7534, " lies": 7535, " Fighting": 7536, "rac": 7537, " panicked": 7538, " cleaner": 7539, " amount": 7540, "cused": 7541, " longest": 7542, " scooters": 7543, " lent": 7544, "ita": 7545, "immering": 7546, " sill": 7547, " beloved": 7548, "Pippin": 7549, " beehive": 7550, "Alright": 7551, "ongrat": 7552, "oga": 7553, "ongratul": 7554, " oysters": 7555, " grandparent": 7556, " forgiven": 7557, " magazines": 7558, " arr": 7559, " Wise": 7560, " elf": 7561, " repeating": 7562, " discussed": 7563, " sweetest": 7564, " Thanks": 7565, "Keep": 7566, " wadd": 7567, " Maya": 7568, " reass": 7569, " lace": 7570, " Granny": 7571, " nightmares": 7572, " tubes": 7573, " Willy": 7574, " understands": 7575, " spoonful": 7576, " nood": 7577, " bathing": 7578, " Zoey": 7579, "asty": 7580, "Am": 7581, " sweep": 7582, " manners": 7583, "crow": 7584, "Uncle": 7585, " wrink": 7586, " sprang": 7587, " nur": 7588, " bully": 7589, " Holly": 7590, " guide": 7591, " Yet": 7592, "onna": 7593, "ancy": 7594, " crew": 7595, "romise": 7596, "Jazz": 7597, " breathed": 7598, "while": 7599, "steps": 7600, "ilda": 7601, "ently": 7602, " Bally": 7603, " bulbs": 7604, " neare": 7605, " grassy": 7606, " wiggly": 7607, " testing": 7608, " spies": 7609, " coug": 7610, " solving": 7611, " sheets": 7612, " Roo": 7613, " footsteps": 7614, "ntil": 7615, "Afterwards": 7616, " speeding": 7617, " focused": 7618, "ounced": 7619, "cept": 7620, "?!\"": 7621, " mesmerized": 7622, " camel": 7623, " braver": 7624, " hesitant": 7625, " Sparkle": 7626, " licking": 7627, " rushing": 7628, " Well": 7629, " joining": 7630, " Puppy": 7631, " polar": 7632, " greeted": 7633, " Martha": 7634, "espite": 7635, "--": 7636, " Bubb": 7637, "Which": 7638, "Kiki": 7639, " worn": 7640, " materials": 7641, " changes": 7642, " Nobody": 7643, "undred": 7644, " stored": 7645, " bicycles": 7646, "een": 7647, " mast": 7648, " anger": 7649, "Leave": 7650, " peacefully": 7651, " ships": 7652, " spice": 7653, " terrified": 7654, " nuzz": 7655, " gonna": 7656, " Show": 7657, " politely": 7658, "Snow": 7659, " spills": 7660, " scarecrow": 7661, " knives": 7662, " evil": 7663, " Mixy": 7664, "ppies": 7665, " burying": 7666, "ca": 7667, " healing": 7668, " aren": 7669, " donkey": 7670, " aeroplanes": 7671, "freeze": 7672, "Even": 7673, " seals": 7674, " scattering": 7675, " miles": 7676, " Chewy": 7677, "amboo": 7678, " dump": 7679, " worrying": 7680, " Soft": 7681, "Bee": 7682, "zoom": 7683, "beep": 7684, "David": 7685, " Lenny": 7686, " puzzled": 7687, " stacked": 7688, " Kip": 7689, "Penny": 7690, " Nice": 7691, " loses": 7692, "dding": 7693, " travelled": 7694, " baskets": 7695, " Win": 7696, " Okay": 7697, " gazing": 7698, " blast": 7699, "ipes": 7700, " Tess": 7701, "erm": 7702, "Hurry": 7703, " temperature": 7704, " und": 7705, " tasting": 7706, " dripping": 7707, " clue": 7708, " believing": 7709, " pinching": 7710, " soaking": 7711, " rats": 7712, " 10": 7713, "isc": 7714, " sandy": 7715, "rect": 7716, " Isn": 7717, " Simon": 7718, "rey": 7719, "anwhile": 7720, " Abi": 7721, "Binky": 7722, " punishment": 7723, " banged": 7724, " humans": 7725, " crashing": 7726, " force": 7727, " Ana": 7728, " hundred": 7729, " gest": 7730, " Lia": 7731, " swimmer": 7732, " Chess": 7733, " snowflakes": 7734, " relaxing": 7735, " resisted": 7736, " beeped": 7737, " Fairy": 7738, " quarreled": 7739, " \n": 7740, "form": 7741, "elie": 7742, " ramp": 7743, " Wendy": 7744, " joins": 7745, "abby": 7746, " backpacks": 7747, " Ph": 7748, "years": 7749, " dressing": 7750, " delayed": 7751, " toddler": 7752, " Luckily": 7753, "ofia": 7754, " flight": 7755, " covering": 7756, " Te": 7757, "orter": 7758, "Two": 7759, "Open": 7760, "By": 7761, " encouragement": 7762, " benches": 7763, " toward": 7764, " scraped": 7765, " purpose": 7766, " focus": 7767, " Judy": 7768, "Bow": 7769, " correct": 7770, " lipstick": 7771, "'.\"": 7772, " bamboo": 7773, "Spe": 7774, " twinkled": 7775, " potion": 7776, " permitted": 7777, " months": 7778, " Cow": 7779, " languages": 7780, " orders": 7781, " freedom": 7782, "Tony": 7783, " risks": 7784, " poppies": 7785, " master": 7786, "shm": 7787, " noodles": 7788, " faded": 7789, " wounds": 7790, "shmallow": 7791, "rier": 7792, "Kids": 7793, "isions": 7794, " Jojo": 7795, " creams": 7796, " birdhouse": 7797, " cells": 7798, " annoyed": 7799, " Herb": 7800, "opes": 7801, " sniffing": 7802, " cheers": 7803, " adults": 7804, "Birdy": 7805, " unwra": 7806, "ecca": 7807, "Buzzy": 7808, " puck": 7809, " opinions": 7810, " floats": 7811, "andas": 7812, "Instead": 7813, " flown": 7814, " sneezes": 7815, " scen": 7816, " handsome": 7817, " nodding": 7818, " Mint": 7819, " smelling": 7820, " burnt": 7821, " 5": 7822, " drifted": 7823, "ider": 7824, "bage": 7825, " within": 7826, " scient": 7827, " height": 7828, " damaged": 7829, " bothering": 7830, " tearing": 7831, " slither": 7832, " pleaded": 7833, " instruments": 7834, " ease": 7835, " Ali": 7836, "da": 7837, "Back": 7838, " scientist": 7839, " Marie": 7840, "Mira": 7841, "Goodnight": 7842, " pound": 7843, " seller": 7844, " handing": 7845, " germ": 7846, " Say": 7847, " wasting": 7848, " files": 7849, " results": 7850, " dreamt": 7851, " Mabel": 7852, "bell": 7853, " explains": 7854, " destroying": 7855, " brushing": 7856, "ousy": 7857, " hiss": 7858, " characters": 7859, " Razor": 7860, " Cr": 7861, "Carl": 7862, " certain": 7863, " Ste": 7864, "Pandy": 7865, "Behind": 7866, " sweaty": 7867, " Hug": 7868, "unched": 7869, " business": 7870, " Robbie": 7871, " talents": 7872, " onward": 7873, "Try": 7874, " engines": 7875, " bravest": 7876, "ition": 7877, " sternly": 7878, " Pen": 7879, " Janie": 7880, "prints": 7881, " postman": 7882, " mosquitoes": 7883, " minds": 7884, "under": 7885, "cake": 7886, " tuck": 7887, " scares": 7888, "urious": 7889, " stomp": 7890, " apologised": 7891, "uel": 7892, " manag": 7893, " snuck": 7894, " bitten": 7895, "attered": 7896, " tilted": 7897, " switched": 7898, " reminding": 7899, " decisions": 7900, " singers": 7901, " desper": 7902, " behavior": 7903, " Poor": 7904, "ashing": 7905, " Judge": 7906, "bbers": 7907, "inny": 7908, " squeaked": 7909, " peeled": 7910, " Everybody": 7911, " yumm": 7912, " purrs": 7913, " Bra": 7914, " treated": 7915, " smashed": 7916, " rustling": 7917, " displayed": 7918, " Until": 7919, " neatly": 7920, " matey": 7921, " planting": 7922, " Bess": 7923, " marshmallow": 7924, " insp": 7925, " yelped": 7926, " sy": 7927, " grandparents": 7928, " cracks": 7929, " bellies": 7930, "aver": 7931, " shines": 7932, " scamp": 7933, " Navy": 7934, " hoo": 7935, " failed": 7936, " coloring": 7937, " Yoga": 7938, "line": 7939, " zooms": 7940, " Make": 7941, "rup": 7942, " nasty": 7943, " breathing": 7944, " combed": 7945, " pandas": 7946, " despite": 7947, " address": 7948, "ighing": 7949, " waterfall": 7950, "uffin": 7951, "omp": 7952, "cc": 7953, " Loop": 7954, " Angel": 7955, "Tilly": 7956, " wider": 7957, " robbers": 7958, " antic": 7959, "Play": 7960, "Abigail": 7961, " sweaters": 7962, " echoed": 7963, " doorway": 7964, " Todd": 7965, "evin": 7966, " edges": 7967, " inj": 7968, " Shadow": 7969, "Aunt": 7970, " gap": 7971, " disobey": 7972, " Blinky": 7973, "wise": 7974, "Liz": 7975, " Michael": 7976, " tar": 7977, " Flick": 7978, "oscope": 7979, "orking": 7980, "Wake": 7981, " taped": 7982, " magnif": 7983, "ulp": 7984, "father": 7985, " scolds": 7986, " flaps": 7987, " action": 7988, " crawls": 7989, " Mindy": 7990, "Ros": 7991, " swap": 7992, " gobbled": 7993, " backs": 7994, " Gary": 7995, " warri": 7996, " Fishy": 7997, " Eddie": 7998, "Slow": 7999, " steth": 8000, " sever": 8001, " shinier": 8002, " probably": 8003, " newspapers": 8004, " several": 8005, " occ": 8006, "Rock": 8007, "Lena": 8008, " encount": 8009, " Meg": 8010, " serving": 8011, " quieter": 8012, " plucked": 8013, " connected": 8014, "tock": 8015, " Share": 8016, " ouch": 8017, "igger": 8018, "Ted": 8019, "Adam": 8020, " gesture": 8021, "Too": 8022, "Fl": 8023, " student": 8024, " plot": 8025, " doorbell": 8026, " squaw": 8027, " cares": 8028, "fire": 8029, " rescuing": 8030, " grandson": 8031, " Se": 8032, " spy": 8033, " simply": 8034, " rows": 8035, " goo": 8036, "iel": 8037, " whistles": 8038, "mies": 8039, "vant": 8040, "Shrink": 8041, "Magic": 8042, " snaps": 8043, " shorter": 8044, " astronauts": 8045, "ssss": 8046, " unpacking": 8047, " cottage": 8048, " Time": 8049, " swo": 8050, " accidents": 8051, "ibi": 8052, " swollen": 8053, " mood": 8054, " Nut": 8055, "Steve": 8056, "abelle": 8057, " Zippy": 8058, " Mousy": 8059, "anie": 8060, "Zara": 8061, " bothered": 8062, "Hannah": 8063, " stethoscope": 8064, " trusting": 8065, " causing": 8066, "Mat": 8067, "Mad": 8068, " leapt": 8069, " dresser": 8070, "found": 8071, "aint": 8072, " sou": 8073, " proper": 8074, " pills": 8075, "retty": 8076, " throughout": 8077, "Olive": 8078, " runner": 8079, " prayers": 8080, " Dina": 8081, " joyful": 8082, "Thomas": 8083, "mates": 8084, " locks": 8085, " Prince": 8086, "Jamie": 8087, " goats": 8088, "what": 8089, " target": 8090, "rest": 8091, " Wait": 8092, " Karen": 8093, " dears": 8094, " Bang": 8095, "artled": 8096, "Red": 8097, " waddled": 8098, " munch": 8099, " flips": 8100, " Cro": 8101, " lowered": 8102, " stepping": 8103, " cons": 8104, " Jackie": 8105, " teachers": 8106, " cowboy": 8107, " Toys": 8108, " inches": 8109, " envelopes": 8110, "ears": 8111, " char": 8112, " Vroom": 8113, " explorer": 8114, " anticip": 8115, " playd": 8116, " Ready": 8117, " Ruff": 8118, " Ralph": 8119, "unity": 8120, "Nice": 8121, "Finn": 8122, " Bad": 8123, "ening": 8124, " knocking": 8125, " floors": 8126, " efforts": 8127, " Pl": 8128, " uniforms": 8129, "lied": 8130, " Tri": 8131, " aware": 8132, " footprints": 8133, "Someone": 8134, " nearly": 8135, " Fiona": 8136, "llas": 8137, " disc": 8138, " Ria": 8139, "ivi": 8140, " whimp": 8141, " trot": 8142, " sens": 8143, " glitt": 8144, " appreciation": 8145, "oosh": 8146, " necks": 8147, " collap": 8148, " checks": 8149, " lapt": 8150, " except": 8151, " plug": 8152, " charge": 8153, " Jacky": 8154, " fluttering": 8155, " umbrellas": 8156, " stamped": 8157, "acy": 8158, " sandcastles": 8159, " Davey": 8160, " statues": 8161, " Honey": 8162, "omb": 8163, "iscuit": 8164, "ails": 8165, "Hoppy": 8166, " shrank": 8167, " Amelia": 8168, "rily": 8169, " prick": 8170, " finishing": 8171, " adds": 8172, "rons": 8173, " stroll": 8174, " hunters": 8175, " dodged": 8176, " chocolates": 8177, " passengers": 8178, " germs": 8179, "oger": 8180, " wrigg": 8181, " aprons": 8182, " aisle": 8183, " sets": 8184, " Gerry": 8185, ".'\"": 8186, " weeds": 8187, " novels": 8188, "order": 8189, " demanding": 8190, " Taking": 8191, " scratching": 8192, " meows": 8193, "issa": 8194, "Dr": 8195, " nurses": 8196, "Lucky": 8197, " minding": 8198, " discussing": 8199, "urrender": 8200, " killed": 8201, " driveway": 8202, " Cari": 8203, " becomes": 8204, " toolbox": 8205, " laptop": 8206, " haird": 8207, " Eliz": 8208, " posit": 8209, " attack": 8210, " Sadie": 8211, " Despite": 8212, "Speedy": 8213, " Gl": 8214, "sol": 8215, " scampered": 8216, " bounces": 8217, " supplied": 8218, " sprays": 8219, " deed": 8220, " tempt": 8221, " suggestion": 8222, " friendships": 8223, " burns": 8224, "Coco": 8225, " slapping": 8226, " closing": 8227, "Arrr": 8228, " invites": 8229, " belongings": 8230, " anticipation": 8231, " springing": 8232, " form": 8233, " erase": 8234, " cotton": 8235, " Stan": 8236, " twists": 8237, " rays": 8238, " snuggle": 8239, " forgives": 8240, " models": 8241, " shall": 8242, " massages": 8243, " humming": 8244, "onnie": 8245, " responded": 8246, " newfound": 8247, " ghosts": 8248, " expecting": 8249, " Shelly": 8250, " cheated": 8251, "Does": 8252, " Wooly": 8253, "Gigi": 8254, "otte": 8255, " traveling": 8256, " Ne": 8257, " cond": 8258, " battle": 8259, " although": 8260, "alloween": 8261, " mommies": 8262, " invitations": 8263, " carries": 8264, " aim": 8265, " refreshing": 8266, " presented": 8267, " conc": 8268, "hel": 8269, " twenty": 8270, " rowed": 8271, " Bumpy": 8272, "ots": 8273, " squir": 8274, "rie": 8275, "arlotte": 8276, " foxes": 8277, " cooper": 8278, " final": 8279, " duckling": 8280, " cafe": 8281, " Bibi": 8282, "Pip": 8283, " marshmallows": 8284, " clicked": 8285, " Zipper": 8286, "oor": 8287, " jets": 8288, " designing": 8289, " beaver": 8290, "five": 8291, " Muffin": 8292, " Halloween": 8293, " mugs": 8294, " Whoever": 8295, " drown": 8296, " Although": 8297, " tricycle": 8298, " picnics": 8299, " oppos": 8300, " convin": 8301, " Ruth": 8302, " Excited": 8303, "iens": 8304, " Cle": 8305, "po": 8306, " scoops": 8307, " congratul": 8308, " Pop": 8309, " Maddie": 8310, "off": 8311, "Sadly": 8312, " travels": 8313, " aliens": 8314, " \u2014": 8315, " tests": 8316, " questioned": 8317, " Speed": 8318, "inted": 8319, " strips": 8320, "Near": 8321, "atty": 8322, "Mouse": 8323, "covered": 8324, " defe": 8325, " Flutter": 8326, " Bubba": 8327, "iri": 8328, "ended": 8329, "Br": 8330, " fights": 8331, "roken": 8332, "Ball": 8333, " opposite": 8334, " Biggy": 8335, "Hmm": 8336, "Find": 8337, "Elly": 8338, "Chloe": 8339, " Im": 8340, " rout": 8341, " grandfather": 8342, " encountered": 8343, " afford": 8344, " Never": 8345, " decl": 8346, "inch": 8347, " raising": 8348, "iment": 8349, " upside": 8350, " Vivi": 8351, "Meanwhile": 8352, "Jess": 8353, " flashed": 8354, " calmly": 8355, " Rita": 8356, " yawning": 8357, " sincere": 8358, " realizes": 8359, "aturday": 8360, "Trust": 8361, "Choo": 8362, " crystals": 8363, " buddy": 8364, " Samantha": 8365, " cupcakes": 8366, " buckled": 8367, "byes": 8368, "Both": 8369, " winners": 8370, " defin": 8371, "verse": 8372, "ris": 8373, " weapons": 8374, " caw": 8375, "',": 8376, "shadow": 8377, "Josh": 8378, " packages": 8379, " cheat": 8380, " Saturday": 8381, " sacks": 8382, " messes": 8383, " goodbyes": 8384, " coach": 8385, " attem": 8386, "quet": 8387, " convers": 8388, " Truck": 8389, " Flo": 8390, "val": 8391, " caps": 8392, " Mina": 8393, " Eva": 8394, "emies": 8395, " enemies": 8396, "asha": 8397, " yummiest": 8398, " scrub": 8399, " swallow": 8400, " returning": 8401, "rian": 8402, " admiration": 8403, " Softy": 8404, " Megan": 8405, "Since": 8406, " sprout": 8407, " Louise": 8408, " unable": 8409, " Playing": 8410, " Another": 8411, "ugging": 8412, "ooks": 8413, " sadder": 8414, " freezing": 8415, " brightest": 8416, " bless": 8417, " Yawn": 8418, " respon": 8419, " Man": 8420, "reverse": 8421, " response": 8422, " cosy": 8423, " Oh": 8424, " diamonds": 8425, " bride": 8426, "stalk": 8427, " reapp": 8428, " opport": 8429, " honking": 8430, " garbage": 8431, " whispering": 8432, " stretches": 8433, " prevented": 8434, "erk": 8435, "antastic": 8436, " whoever": 8437, " odd": 8438, " awful": 8439, " Gray": 8440, "alth": 8441, " weighs": 8442, " journeys": 8443, " awoke": 8444, "Brrr": 8445, " traps": 8446, " spices": 8447, " dragonfly": 8448, " born": 8449, " reassured": 8450, " clip": 8451, "ivia": 8452, " stall": 8453, " beanstalk": 8454, " argum": 8455, " examining": 8456, " definitely": 8457, " beetles": 8458, " automobiles": 8459, " Maisy": 8460, "mine": 8461, "ici": 8462, "Hop": 8463, " visitors": 8464, " stuffing": 8465, " playdate": 8466, " washes": 8467, "cie": 8468, "broken": 8469, " wiser": 8470, " customer": 8471, "uper": 8472, "emma": 8473, "Rachel": 8474, " travelling": 8475, " Sofia": 8476, " Jolly": 8477, " Flop": 8478, "ouquet": 8479, " hairdress": 8480, " bouquet": 8481, " Nurse": 8482, "orse": 8483, "bble": 8484, ",'": 8485, " tumbled": 8486, " decoration": 8487, " campfire": 8488, " Elle": 8489, " honesty": 8490, " bud": 8491, "vy": 8492, "ebecca": 8493, "action": 8494, "Only": 8495, " bomb": 8496, " welcoming": 8497, " offering": 8498, " wealth": 8499, " troubles": 8500, " occas": 8501, " increasing": 8502, " Ot": 8503, " Jax": 8504, " Hello": 8505, " loudest": 8506, " inspired": 8507, " type": 8508, " parted": 8509, " groan": 8510, " Chick": 8511, " Nutty": 8512, "irac": 8513, " whales": 8514, " Thunder": 8515, " Ricky": 8516, "yl": 8517, " declared": 8518, " correctly": 8519, "yler": 8520, "ooky": 8521, "fus": 8522, " craft": 8523, " beaks": 8524, " Quacky": 8525, "athan": 8526, " cleared": 8527, " cowboys": 8528, " nuzzled": 8529, " Dotty": 8530, " prizes": 8531, " exch": 8532, "Finny": 8533, " warmly": 8534, " Missile": 8535, " rewards": 8536, " obeyed": 8537, " customers": 8538, "Should": 8539, " sirens": 8540, " comforting": 8541, " Fel": 8542, "shaped": 8543, " connect": 8544, " Flappy": 8545, "match": 8546, " towns": 8547, " Magic": 8548, " Bingo": 8549, "elieve": 8550, " rely": 8551, " Vicky": 8552, "Honey": 8553, " trigger": 8554, " owns": 8555, " insisting": 8556, " fantastic": 8557, " bends": 8558, " Fe": 8559, " spoiling": 8560, " hairdresser": 8561, " surrendered": 8562, " supporting": 8563, " shares": 8564, " poses": 8565, " pipes": 8566, " cleans": 8567, "rench": 8568, "Sun": 8569, "Outside": 8570, "Julie": 8571, " wrinkled": 8572, " Cook": 8573, " chopped": 8574, " recorder": 8575, " moons": 8576, " beaming": 8577, "unes": 8578, "ellow": 8579, "Beth": 8580, " thanking": 8581, " snowy": 8582, " Wolf": 8583, " scurry": 8584, " experien": 8585, " enjoyable": 8586, " active": 8587, " coral": 8588, " Piggy": 8589, " environ": 8590, " dollar": 8591, " Kevin": 8592, "worm": 8593, "elope": 8594, " loc": 8595, "Je": 8596, " streamers": 8597, " Bub": 8598, "udged": 8599, " Patty": 8600, " Mother": 8601, " Zack": 8602, "inger": 8603, "Suzy": 8604, " examp": 8605, " shorts": 8606, " shooed": 8607, " environment": 8608, "Tree": 8609, " ill": 8610, " scent": 8611, " bruises": 8612, "uster": 8613, " grat": 8614, " Luc": 8615, "Bo": 8616, " hisses": 8617, " steering": 8618, " self": 8619, " plugged": 8620, " Elsa": 8621, " warrior": 8622, " visits": 8623, " exercises": 8624, "screen": 8625, "irl": 8626, "aptain": 8627, " dangers": 8628, " cuddles": 8629, " Rel": 8630, " Min": 8631, " Ar": 8632, " unfortunately": 8633, " squished": 8634, " signing": 8635, " Light": 8636, "bee": 8637, "Ray": 8638, " pilots": 8639, " disappoint": 8640, "munk": 8641, " gratitude": 8642, " applauding": 8643, "alf": 8644, " providing": 8645, " Moppy": 8646, " tickles": 8647, " ting": 8648, " Rub": 8649, "Grow": 8650, " storms": 8651, " nights": 8652, " jud": 8653, " convinced": 8654, " badger": 8655, " Elsie": 8656, " youn": 8657, " responsib": 8658, " choosing": 8659, " Kelly": 8660, "Joy": 8661, " youngest": 8662, " nearest": 8663, " brains": 8664, " activity": 8665, "Abby": 8666, " exploded": 8667, " coughed": 8668, " arranged": 8669, "Claire": 8670, " rewarding": 8671, " Tre": 8672, " Fly": 8673, "good": 8674, "erpiece": 8675, " sunscreen": 8676, " peep": 8677, " bond": 8678, " Floppy": 8679, "asers": 8680, "Mon": 8681, " Tweety": 8682, " Sweet": 8683, " Katy": 8684, " Joan": 8685, " Sal": 8686, "ilities": 8687, " annoying": 8688, "sn": 8689, " soapy": 8690, "meow": 8691, "Splash": 8692, " rails": 8693, " laces": 8694, " threads": 8695, " tapping": 8696, " offic": 8697, " appreciated": 8698, " Pine": 8699, " Phil": 8700, "boards": 8701, " weighing": 8702, " heartbroken": 8703, " emerged": 8704, " congratulated": 8705, " Pick": 8706, "Danger": 8707, " tin": 8708, " Sil": 8709, " crocodiles": 8710, " clerk": 8711, " scram": 8712, " attempt": 8713, " Nancy": 8714, "water": 8715, "Ahoy": 8716, " snug": 8717, " messed": 8718, " example": 8719, " dial": 8720, " Kay": 8721, " Any": 8722, "Momma": 8723, " hooks": 8724, " Jonny": 8725, " tops": 8726, " chipmunk": 8727, " soot": 8728, " guarding": 8729, " bathed": 8730, " manager": 8731, " Tippy": 8732, "ortunately": 8733, " Microscope": 8734, "Friends": 8735, " De": 8736, "etah": 8737, "Snowy": 8738, " masterpiece": 8739, " Baa": 8740, "ending": 8741, " erasers": 8742, " tips": 8743, " finishes": 8744, " fet": 8745, " common": 8746, " Tomorrow": 8747, "mbers": 8748, " trotted": 8749, " nibbled": 8750, " members": 8751, " digs": 8752, "People": 8753, " kinder": 8754, " cheetah": 8755, " particularly": 8756, " chews": 8757, " blond": 8758, "ircle": 8759, " rips": 8760, " beast": 8761, "Lizzy": 8762, " argument": 8763, "ative": 8764, " faith": 8765, " Helping": 8766, " earned": 8767, "Anne": 8768, " observing": 8769, " forgiveness": 8770, " Joke": 8771, " Cici": 8772, "chievous": 8773, " instantly": 8774, " fishes": 8775, " experienced": 8776, " curl": 8777, " cheaper": 8778, " Jumpy": 8779, "Rosie": 8780, " mischievous": 8781, " generosity": 8782, " cages": 8783, " Twist": 8784, "Gr": 8785, "Baa": 8786, " meowing": 8787, " foam": 8788, "mered": 8789, "Cindy": 8790, " stores": 8791, " grandd": 8792, " Ag": 8793, "etchup": 8794, " mattered": 8795, " teles": 8796, " passes": 8797, " limp": 8798, "Sque": 8799, " sleeps": 8800, "iolet": 8801, " breaths": 8802, "ordinary": 8803, "ettle": 8804, " rin": 8805, " gasps": 8806, " Freddie": 8807, "pr": 8808, "Got": 8809, " trans": 8810, " rumbling": 8811, " hatch": 8812, " Momma": 8813, "over": 8814, "abra": 8815, " satisf": 8816, " grassho": 8817, " accomplished": 8818, " Hopper": 8819, "acing": 8820, " thump": 8821, " telescope": 8822, " strum": 8823, " smartest": 8824, " mats": 8825, " whined": 8826, " moat": 8827, "Gina": 8828, " scrambled": 8829, " jugg": 8830, " farmers": 8831, " Ice": 8832, " drip": 8833, "Robbie": 8834, " syrup": 8835, " gardens": 8836, " collapsed": 8837, " angrily": 8838, " More": 8839, "ouraged": 8840, "idey": 8841, " vegg": 8842, " styles": 8843, " forests": 8844, " experiences": 8845, " discoveries": 8846, "hole": 8847, " tor": 8848, " medals": 8849, " types": 8850, " otters": 8851, " meaning": 8852, " faint": 8853, " conqu": 8854, " Does": 8855, "pit": 8856, "adabra": 8857, "acock": 8858, " snapping": 8859, " hardest": 8860, " fif": 8861, "ering": 8862, " movements": 8863, " expression": 8864, " surv": 8865, " chilly": 8866, " bubbly": 8867, " affect": 8868, "Pinky": 8869, " vests": 8870, " unfair": 8871, " court": 8872, "Whenever": 8873, " toothbrush": 8874, " scores": 8875, " extraordinary": 8876, "Never": 8877, " attitude": 8878, " vibr": 8879, " horri": 8880, " bluebird": 8881, " Monkey": 8882, "mel": 8883, "lls": 8884, "Mo": 8885, " spears": 8886, " ketchup": 8887, " Berry": 8888, "Mother": 8889, " sooner": 8890, " grasshopper": 8891, " behaviour": 8892, " patches": 8893, " habit": 8894, "yd": 8895, "erts": 8896, "Karen": 8897, " pokes": 8898, " momma": 8899, " afar": 8900, " Ashley": 8901, "ieves": 8902, "Jacob": 8903, " thicker": 8904, " scri": 8905, " Friend": 8906, "Jon": 8907, " squeezes": 8908, " slithered": 8909, " shrunk": 8910, " classmates": 8911, " Terry": 8912, " Fle": 8913, " icky": 8914, " prickly": 8915, " glittering": 8916, "lo": 8917, " expert": 8918, " topp": 8919, " kneeling": 8920, " announced": 8921, " Super": 8922, " Riri": 8923, "elling": 8924, " peacock": 8925, " marking": 8926, "ctric": 8927, " costs": 8928, " Cally": 8929, " Achoo": 8930, " zigzags": 8931, " watermel": 8932, " thieves": 8933, " skirts": 8934, " jumper": 8935, " hood": 8936, " acts": 8937, " Zog": 8938, " App": 8939, " wolves": 8940, " Swim": 8941, " Cloud": 8942, "Papa": 8943, " thumbs": 8944, " squeaky": 8945, " drift": 8946, " concer": 8947, " cocoon": 8948, " woodcut": 8949, " boards": 8950, " Eliza": 8951, " Becky": 8952, " servant": 8953, "idence": 8954, "affle": 8955, " cheating": 8956, " Jason": 8957, "bu": 8958, " trading": 8959, " raking": 8960, "cat": 8961, "Jessie": 8962, " explaining": 8963, " Eric": 8964, "rick": 8965, " tidied": 8966, " biscuit": 8967, " lunchtime": 8968, " luckily": 8969, " Ac": 8970, "anced": 8971, "Frog": 8972, " Puffy": 8973, " spilling": 8974, " Day": 8975, "Fire": 8976, " transform": 8977, " desserts": 8978, " Use": 8979, " Maddy": 8980, " Daniel": 8981, " Animal": 8982, "ror": 8983, "\u2026": 8984, " Pig": 8985, " Mine": 8986, "its": 8987, " Still": 8988, " Gill": 8989, "rough": 8990, "amma": 8991, " messages": 8992, " mirac": 8993, " Captain": 8994, "idy": 8995, " windowsill": 8996, " chill": 8997, " beating": 8998, " Tammy": 8999, " Lung": 9000, " Gilly": 9001, "oot": 9002, " seeking": 9003, " actor": 9004, " Rainbow": 9005, " Lina": 9006, " William": 9007, "sess": 9008, " Math": 9009, "pril": 9010, "Any": 9011, " foreshadow": 9012, "war": 9013, "acles": 9014, "Bluey": 9015, " leans": 9016, " Step": 9017, " Pinch": 9018, " Hi": 9019, "racadabra": 9020, "Freeze": 9021, "Bounce": 9022, " watermelon": 9023, " hissing": 9024, " flashing": 9025, " dev": 9026, " cloths": 9027, " Tiger": 9028, " Monster": 9029, " Frankie": 9030, " winding": 9031, " positive": 9032, " funn": 9033, " discouraged": 9034, " Wil": 9035, "pop": 9036, " woodcutter": 9037, " forts": 9038, " dripped": 9039, " compete": 9040, " teapot": 9041, " pressing": 9042, " disagreeing": 9043, "icking": 9044, " glimmering": 9045, " veggies": 9046, " trusts": 9047, " tidying": 9048, " kangaroos": 9049, " Peep": 9050, " tempted": 9051, " landing": 9052, " Flora": 9053, " dock": 9054, " shallow": 9055, " overw": 9056, " formed": 9057, "lers": 9058, " rack": 9059, " fade": 9060, " Tooth": 9061, "flowers": 9062, " worst": 9063, " electric": 9064, " cops": 9065, "eling": 9066, "Nothing": 9067, " apology": 9068, "iving": 9069, "creams": 9070, "ai": 9071, " sleds": 9072, " Silver": 9073, " Life": 9074, "upid": 9075, " comets": 9076, " ass": 9077, "Owl": 9078, " sav": 9079, " Shark": 9080, " Mag": 9081, " Jelly": 9082, "Bug": 9083, " situations": 9084, " papa": 9085, " officers": 9086, " conversation": 9087, " 4": 9088, "Rain": 9089, " Roger": 9090, " Charlotte": 9091, "storm": 9092, "aye": 9093, " suns": 9094, " ding": 9095, "\u201d,": 9096, " zips": 9097, " structures": 9098, " scurrying": 9099, " pizzas": 9100, " overwhel": 9101, " miller": 9102, " Butter": 9103, " granddaughter": 9104, " foggy": 9105, " Olivia": 9106, " Hurry": 9107, " Amber": 9108, "Zoe": 9109, " Janey": 9110, " webs": 9111, " deserved": 9112, "Rabbit": 9113, " opportunity": 9114, " cubs": 9115, " Yummy": 9116, " Spidey": 9117, " Sasha": 9118, " Mixie": 9119, " Buster": 9120, " snorted": 9121, " rhino": 9122, " differences": 9123, " Gold": 9124, " quacking": 9125, " Tell": 9126, "ifully": 9127, "Fifi": 9128, " heaven": 9129, " Birds": 9130, " unlo": 9131, " levers": 9132, " inchworm": 9133, " inter": 9134, " approach": 9135, " Tyler": 9136, "ssess": 9137, " seagulls": 9138, " possess": 9139, " cooperate": 9140, " Rufus": 9141, " Felix": 9142, " Boom": 9143, "welcome": 9144, "sers": 9145, "ragon": 9146, "?\u201d.": 9147, "andra": 9148, " pose": 9149, " disappointment": 9150, " Smoke": 9151, "ocular": 9152, " speaks": 9153, " sneaks": 9154, "snap": 9155, " binocular": 9156, " artwork": 9157, " surfed": 9158, " scowl": 9159, " answering": 9160, " Snake": 9161, " shortcut": 9162, " Grand": 9163, " sipped": 9164, " robin": 9165, " dep": 9166, "Climb": 9167, " arrest": 9168, " Inky": 9169, "ssy": 9170, " unwrapped": 9171, " ribbit": 9172, " reun": 9173, " amused": 9174, " Amanda": 9175, "ugar": 9176, " repeats": 9177, " pepperoni": 9178, " applause": 9179, " keyhole": 9180, " checkout": 9181, " Mae": 9182, " Cars": 9183, "Lia": 9184, "Deal": 9185, " visitor": 9186, " striking": 9187, " puppets": 9188, " paddling": 9189, "Eat": 9190, " unz": 9191, " croaked": 9192, " attacked": 9193, " Circle": 9194, " Brian": 9195, "orsie": 9196, " spooky": 9197, " Otto": 9198, " Gus": 9199, "Each": 9200, " groaned": 9201, " beautifully": 9202, " Jean": 9203, "sie": 9204, "gar": 9205, "cidents": 9206, " swimsuits": 9207, " consider": 9208, " checking": 9209, "uses": 9210, " Yellow": 9211, "jest": 9212, " waters": 9213, " groom": 9214, " Squeak": 9215, " Slinky": 9216, "yle": 9217, " invent": 9218, "Luke": 9219, " nets": 9220, " exams": 9221, "otion": 9222, "ets": 9223, " drying": 9224, " Rebecca": 9225, "udy": 9226, "artin": 9227, "agine": 9228, " shrugs": 9229, " lump": 9230, " Auntie": 9231, "lest": 9232, " sobbing": 9233, " shyly": 9234, " shoots": 9235, " honks": 9236, " heels": 9237, " cheerfully": 9238, " Since": 9239, "ili": 9240, "hny": 9241, "esses": 9242, " shh": 9243, " chin": 9244, "anish": 9245, " whimpered": 9246, " healthier": 9247, " hangs": 9248, "icious": 9249, "Milo": 9250, " Mus": 9251, " caterpillars": 9252, "izzes": 9253, "Slowly": 9254, " squinted": 9255, " magnifying": 9256, " fries": 9257, " Ratty": 9258, " fascinating": 9259, " blamed": 9260, " Find": 9261, "ulpture": 9262, "ching": 9263, " sculpture": 9264, " frustration": 9265, " Tip": 9266, "ouched": 9267, " shimmering": 9268, " Penelope": 9269, " poss": 9270, " Peace": 9271, "edic": 9272, "Sharing": 9273, " suck": 9274, " pleas": 9275, " numbered": 9276, " nibble": 9277, " Waffle": 9278, "othy": 9279, "ibbles": 9280, "ellie": 9281, "amil": 9282, " flowing": 9283, " baa": 9284, "hings": 9285, "Pepper": 9286, " raked": 9287, " grumbled": 9288, " Off": 9289, "that": 9290, "Bubbles": 9291, " builder": 9292, "racted": 9293, "eat": 9294, " swaying": 9295, " petting": 9296, " guards": 9297, " facing": 9298, " Woolly": 9299, " sprinkle": 9300, " mysteries": 9301, " details": 9302, " Har": 9303, "sey": 9304, " snort": 9305, " flock": 9306, " enemy": 9307, " Boat": 9308, " textures": 9309, " tablet": 9310, " goodies": 9311, " Curious": 9312, " Barry": 9313, "Yesterday": 9314, " wig": 9315, " popping": 9316, " wildflowers": 9317, " stacks": 9318, " marve": 9319, " fans": 9320, " crops": 9321, " countries": 9322, " Jenn": 9323, " Gracie": 9324, "how": 9325, " knobs": 9326, " Tessa": 9327, " Seeing": 9328, " local": 9329, " bushy": 9330, " stew": 9331, " peeped": 9332, " hunting": 9333, " drowned": 9334, " bowing": 9335, " binoculars": 9336, " angrier": 9337, " Bubu": 9338, " maps": 9339, " Match": 9340, " quizzes": 9341, " niece": 9342, " moonlight": 9343, " Glow": 9344, " outfits": 9345, " Johnson": 9346, " Deal": 9347, "OO": 9348, " whoosh": 9349, " weaker": 9350, " wrench": 9351, " mindful": 9352, " crowded": 9353, "cycles": 9354, "Squ": 9355, " endings": 9356, " Beef": 9357, "oll": 9358, "Im": 9359, " property": 9360, " hesitation": 9361, " flashes": 9362, "amiliar": 9363, " unless": 9364, " imaginations": 9365, " fond": 9366, " carts": 9367, " boil": 9368, " ability": 9369, " Oxy": 9370, " Andrew": 9371, "getic": 9372, " glared": 9373, " Right": 9374, " Accidents": 9375, "stand": 9376, " unfamiliar": 9377, " spaces": 9378, " microw": 9379, " knit": 9380, " haven": 9381, " folds": 9382, "ths": 9383, "saw": 9384, "Tuna": 9385, " responsibility": 9386, " dirtier": 9387, " Pet": 9388, "bank": 9389, " pouch": 9390, " microwave": 9391, " desks": 9392, "ibly": 9393, "Bless": 9394, " cracker": 9395, "rnie": 9396, " swapped": 9397, " member": 9398, " date": 9399, " aston": 9400, " Oxygen": 9401, " Ring": 9402, " Ravi": 9403, "lt": 9404, "free": 9405, "Want": 9406, "Cra": 9407, " whine": 9408, " softened": 9409, " rebu": 9410, " doorstep": 9411, " disappearing": 9412, " Peggy": 9413, " Helen": 9414, " Bun": 9415, " quacks": 9416, " natur": 9417, " Chip": 9418, "scar": 9419, " writer": 9420, " listener": 9421, " Too": 9422, " Fix": 9423, " priv": 9424, " blushed": 9425, " Spicy": 9426, "venir": 9427, " palms": 9428, " noticing": 9429, "upt": 9430, "repe": 9431, "poison": 9432, " souvenir": 9433, " Past": 9434, "repeat": 9435, "entr": 9436, "endant": 9437, " laws": 9438, " disaster": 9439, " Tra": 9440, " Res": 9441, " Gabby": 9442, "str": 9443, "reg": 9444, "Robby": 9445, " phones": 9446, "ala": 9447, "Ava": 9448, " confidence": 9449, " Li": 9450, " Coal": 9451, " Cut": 9452, " Bert": 9453, " timid": 9454, " stirs": 9455, " overwhelmed": 9456, "ingly": 9457, "Being": 9458, " mayor": 9459, " flick": 9460, "guess": 9461, "asmine": 9462, "Che": 9463, " tugging": 9464, " Pretty": 9465, " Mole": 9466, "lor": 9467, " untangle": 9468, " owls": 9469, " mailing": 9470, " injured": 9471, "Whose": 9472, " satisfaction": 9473, " concentr": 9474, " White": 9475, " Immediately": 9476, " Books": 9477, "Fly": 9478, " March": 9479, " Animals": 9480, "mers": 9481, "Sc": 9482, "Mittens": 9483, " lim": 9484, " Eat": 9485, "this": 9486, "Mabel": 9487, " prank": 9488, " Wonder": 9489, " Nora": 9490, " Bonnie": 9491, "Wiggly": 9492, " hooves": 9493, " Triangle": 9494, " Run": 9495, " Pot": 9496, " Melissa": 9497, " Kn": 9498, "well": 9499, "Jeff": 9500, " fixer": 9501, " Startled": 9502, " Sir": 9503, " Clean": 9504, " Close": 9505, "icate": 9506, " snar": 9507, " clut": 9508, "lish": 9509, "bling": 9510, "Excited": 9511, " skies": 9512, " instrument": 9513, " Trucky": 9514, " capt": 9515, " Matilda": 9516, " Horsie": 9517, " Faye": 9518, "adually": 9519, " disagre": 9520, " desc": 9521, "iky": 9522, " wriggled": 9523, " stains": 9524, " rinse": 9525, " pecks": 9526, " creak": 9527, " Sleepy": 9528, "Susan": 9529, " shave": 9530, " bumping": 9531, " Sing": 9532, " Icy": 9533, " Heli": 9534, " Crabby": 9535, "ulf": 9536, " swirl": 9537, " ruff": 9538, " bending": 9539, "cessary": 9540, "Playing": 9541, "Close": 9542, " sandpit": 9543, " exploration": 9544, " chatted": 9545, " Scissors": 9546, "Make": 9547, " rods": 9548, " lever": 9549, " facts": 9550, "Sm": 9551, " attaching": 9552, " Candy": 9553, " fooled": 9554, " burger": 9555, " Bro": 9556, " glows": 9557, " concerned": 9558, " clearly": 9559, "Maya": 9560, " salon": 9561, " reversing": 9562, " lava": 9563, " compan": 9564, " certainly": 9565, "els": 9566, "Wally": 9567, " smelt": 9568, " motorcycles": 9569, " fetched": 9570, " circ": 9571, " troll": 9572, " tunes": 9573, " sometime": 9574, " prod": 9575, " oldest": 9576, " fireflies": 9577, "Ring": 9578, " kissing": 9579, " challenges": 9580, " blonde": 9581, "Kayla": 9582, " warmed": 9583, " Bobbie": 9584, " unlocking": 9585, " natural": 9586, " differently": 9587, " bound": 9588, " Lots": 9589, "urple": 9590, "sa": 9591, "erg": 9592, "Tara": 9593, "Dino": 9594, "Abracadabra": 9595, " rubb": 9596, " riverbank": 9597, " detect": 9598, " cutter": 9599, " cupcake": 9600, " conquered": 9601, " hates": 9602, " alley": 9603, " Flap": 9604, "sorry": 9605, " swirls": 9606, " sends": 9607, " realise": 9608, " Open": 9609, " Flopsy": 9610, "Julia": 9611, "Isn": 9612, " wiggling": 9613, " sensation": 9614, " munched": 9615, " banging": 9616, " Cammy": 9617, " toppings": 9618, " hippos": 9619, " fist": 9620, " clips": 9621, " Reliable": 9622, "Doctor": 9623, " swayed": 9624, " stings": 9625, " robe": 9626, " miracle": 9627, " halves": 9628, " brakes": 9629, " Greeny": 9630, "Hope": 9631, "Fish": 9632, " survive": 9633, " ostriches": 9634, " Pink": 9635, " Climb": 9636, "ula": 9637, "keepers": 9638, "bert": 9639, "Michael": 9640, " torto": 9641, " otherwise": 9642, " embra": 9643, " crushed": 9644, " bubbling": 9645, " tents": 9646, " Looking": 9647, "ani": 9648, " repairing": 9649, " Of": 9650, " vinegar": 9651, " stretchy": 9652, " rubbish": 9653, " lizards": 9654, " Working": 9655, " Flicker": 9656, " passenger": 9657, " Ed": 9658, "aste": 9659, "Many": 9660, " vibrant": 9661, " tortoise": 9662, " pounced": 9663, " Which": 9664, "Suzie": 9665, " scene": 9666, " Rh": 9667, " Grump": 9668, "gr": 9669, " mooed": 9670, " glided": 9671, " desperately": 9672, " bas": 9673, " snip": 9674, " poop": 9675, " majest": 9676, " intently": 9677, " copied": 9678, " calmer": 9679, " Sundays": 9680, " Lightning": 9681, "rap": 9682, "ooh": 9683, "net": 9684, " woken": 9685, " twel": 9686, " rags": 9687, " judges": 9688, " joyfully": 9689, " jing": 9690, " coolest": 9691, " Per": 9692, "smelling": 9693, " lectures": 9694, " glob": 9695, " Jody": 9696, "lyn": 9697, "isible": 9698, " hips": 9699, " cousins": 9700, " astonished": 9701, " capes": 9702, " Outside": 9703, " Lu": 9704, "uno": 9705, "Eww": 9706, " successfully": 9707, " speaker": 9708, " reunited": 9709, " invisible": 9710, " guesses": 9711, " gooey": 9712, " arrives": 9713, "why": 9714, " twelve": 9715, " bats": 9716, "urity": 9717, "Mikey": 9718, " goodness": 9719, " computers": 9720, " chatting": 9721, " Carla": 9722, "mie": 9723, " stacking": 9724, " snowflake": 9725, "istory": 9726, " reappeared": 9727, " racer": 9728, " pounds": 9729, " parks": 9730, " desperate": 9731, " companion": 9732, " commun": 9733, "bed": 9734, "Zigzag": 9735, "Ol": 9736, " luckiest": 9737, " level": 9738, " dou": 9739, " ank": 9740, " tale": 9741, " stomachs": 9742, " sells": 9743, " gall": 9744, " dumb": 9745, " crickets": 9746, " Sugar": 9747, "iggles": 9748, "Nick": 9749, " winds": 9750, " sus": 9751, " gates": 9752, " disobeyed": 9753, " disagreement": 9754, " Steven": 9755, "hile": 9756, "More": 9757, " pearls": 9758, " hoses": 9759, " crisp": 9760, " awhile": 9761, " Whee": 9762, "ites": 9763, "Lou": 9764, " soda": 9765, " popsic": 9766, " loyalty": 9767, " Orange": 9768, "Linda": 9769, " tongues": 9770, " Rosa": 9771, "usion": 9772, "rent": 9773, " rider": 9774, " CD": 9775, "Ooh": 9776, " Black": 9777, "pan": 9778, " surely": 9779, " abo": 9780, " Law": 9781, " Annabelle": 9782, "des": 9783, "colored": 9784, " occasion": 9785, " bund": 9786, "rum": 9787, "izza": 9788, "dog": 9789, "!\u2019": 9790, " stun": 9791, " guitars": 9792, " chicks": 9793, "chief": 9794, " separating": 9795, " seashe": 9796, " rebuild": 9797, " intelligence": 9798, " alligators": 9799, " aboard": 9800, " Raven": 9801, " Iron": 9802, " April": 9803, "Found": 9804, " croak": 9805, " creep": 9806, " Winky": 9807, " Violet": 9808, "aids": 9809, "Something": 9810, "Catch": 9811, " learner": 9812, " caution": 9813, " cuc": 9814, " Old": 9815, " Care": 9816, "solut": 9817, " whines": 9818, " spiky": 9819, " revealing": 9820, " rins": 9821, " Uni": 9822, "working": 9823, " tickling": 9824, " escap": 9825, " Settle": 9826, " underwater": 9827, " globe": 9828, " crouched": 9829, " Roar": 9830, " Coby": 9831, " Ba": 9832, "udge": 9833, "everse": 9834, " prog": 9835, " blooms": 9836, " appearance": 9837, "!'.": 9838, " ''": 9839, "urricane": 9840, "stop": 9841, "seph": 9842, "ifer": 9843, "fived": 9844, "Jan": 9845, " strokes": 9846, " leaking": 9847, " hatched": 9848, " guardian": 9849, " Socky": 9850, "ealing": 9851, "arning": 9852, " zookeepers": 9853, " tant": 9854, " routine": 9855, " persistence": 9856, " doves": 9857, "Snap": 9858, "Sleep": 9859, "Chicky": 9860, " taps": 9861, " squashes": 9862, " quilt": 9863, " painful": 9864, " lighting": 9865, " blame": 9866, " admit": 9867, "Toys": 9868, "Ahh": 9869, " tempting": 9870, " shattered": 9871, " ripp": 9872, " mold": 9873, " deeply": 9874, " Puff": 9875, "ggles": 9876, "Three": 9877, "Ralph": 9878, "Matt": 9879, " throne": 9880, " squirted": 9881, " security": 9882, " peeks": 9883, " electricity": 9884, " centre": 9885, " burgers": 9886, " Spin": 9887, "emon": 9888, "con": 9889, " realizing": 9890, " cooks": 9891, " allowing": 9892, " Liam": 9893, "ushes": 9894, "orth": 9895, "oss": 9896, "cker": 9897, "Jessica": 9898, " lar": 9899, " exchange": 9900, " chopping": 9901, "Share": 9902, "Sophia": 9903, " sweetly": 9904, " Race": 9905, " Quickly": 9906, " Alf": 9907, "vering": 9908, " sweeter": 9909, " rinsed": 9910, " glittered": 9911, "isapp": 9912, "Zero": 9913, "Sw": 9914, " melts": 9915, " melody": 9916, " goggles": 9917, " furious": 9918, " energetic": 9919, " defeated": 9920, " builders": 9921, " Inch": 9922, "asy": 9923, " waded": 9924, " tantrum": 9925, " sniffled": 9926, " chooses": 9927, " Otherwise": 9928, " Cats": 9929, " Comet": 9930, " container": 9931, " competing": 9932, " Giant": 9933, "eremy": 9934, "bang": 9935, " Sharp": 9936, " Mila": 9937, "arted": 9938, " undone": 9939, " seriously": 9940, " protection": 9941, " larger": 9942, " lull": 9943, " hudd": 9944, " attempts": 9945, " Rara": 9946, " Park": 9947, " Duke": 9948, "Shoo": 9949, "Lizzie": 9950, " tossing": 9951, " helicopters": 9952, " cooed": 9953, " cluck": 9954, " buckles": 9955, " Whale": 9956, " Pinchy": 9957, " Cher": 9958, "Sweet": 9959, " Tears": 9960, " Smo": 9961, " Over": 9962, "solutely": 9963, "Still": 9964, "Squeaky": 9965, " hummed": 9966, " dedic": 9967, " courageous": 9968, " Ma": 9969, " Hor": 9970, " Din": 9971, "Maddy": 9972, "Everything": 9973, "Curious": 9974, " racers": 9975, " patients": 9976, " muster": 9977, " god": 9978, " deserves": 9979, " aloud": 9980, " Things": 9981, "aps": 9982, "Use": 9983, " Squee": 9984, " Dragon": 9985, " tours": 9986, " meets": 9987, " marvel": 9988, " Rusty": 9989, " Liza": 9990, " Jet": 9991, "Froggy": 9992, " wrapper": 9993, " Reddy": 9994, " Hops": 9995, " Crusty": 9996, " whiskers": 9997, " nicest": 9998, " improving": 9999}